<unk>	0
<s>	0
</s>	0
▁of	-3.41728
▁the	-3.47151
▁	-3.89223
s	-4.02147
▁and	-4.18579
.	-4.20382
,	-4.29551
ing	-4.49346
▁to	-4.50077
▁in	-4.52181
▁"	-4.82518
ed	-4.87372
-	-4.88051
▁for	-4.88493
)	-4.91932
▁(	-5.01188
a	-5.11652
e	-5.12507
al	-5.16523
▁a	-5.29418
."	-5.33771
d	-5.38014
"	-5.51944
m	-5.52365
▁on	-5.63674
y	-5.66681
▁with	-5.71514
▁by	-5.79735
▁as	-5.93087
▁been	-5.93867
▁education	-5.98366
▁programme	-6.03001
▁year	-6.04743
▁:	-6.09627
▁financi	-6.10715
were	-6.1101
▁language	-6.12689
▁project	-6.1467
▁at	-6.15747
t	-6.162
▁are	-6.19831
▁communication	-6.23486
▁this	-6.25402
▁was	-6.25623
▁public	-6.26018
ranaviru	-6.28805
▁is	-6.31554
er	-6.35396
▁national	-6.35751
▁programmes	-6.39789
▁training	-6.40074
▁fro	-6.40155
▁under	-6.40432
▁no	-6.44139
had	-6.45887
n	-6.46874
c	-6.47397
▁ha	-6.4799
▁-	-6.4896
▁sri	-6.49712
▁general	-6.50035
in	-6.53839
▁service	-6.54391
ism	-6.55115
&	-6.55571
i	-6.55634
▁social	-6.5784
▁not	-6.60199
▁name	-6.61099
▁corporation	-6.61701
ve	-6.62134
ity	-6.62509
ion	-6.63213
▁action	-6.63325
▁2011	-6.63691
▁an	-6.63724
▁development	-6.64067
ly	-6.65075
▁lanka	-6.65494
▁account	-6.66444
▁non	-6.67028
▁school	-6.6715
▁unit	-6.68394
▁officers	-6.68941
▁department	-6.69827
▁be	-6.7031
▁special	-6.70637
▁law	-6.71683
▁expenditure	-6.72239
▁land	-6.72327
▁that	-6.72803
ation	-6.74853
▁budget	-6.75113
▁officer	-6.75782
▁media	-6.76058
▁information	-6.76971
r	-6.77173
▁management	-6.77501
:	-6.77822
▁division	-6.78139
▁official	-6.78908
or	-6.79421
▁government	-6.80057
▁office	-6.80365
▁order	-6.8121
▁it	-6.81326
▁re	-6.81574
▁or	-6.82233
▁ministry	-6.82603
▁news	-6.82988
▁policy	-6.82989
▁2012	-6.83412
▁war	-6.83775
/	-6.84767
▁authority	-6.86202
▁all	-6.87411
▁other	-6.88629
’	-6.88835
ir	-6.89954
▁excise	-6.9087
▁legal	-6.92857
▁time	-6.93197
▁address	-6.94335
▁mr	-6.94512
▁services	-6.95584
▁hindu	-6.95759
▁income	-6.97203
o	-6.9724
▁fund	-6.98346
▁audit	-6.99236
▁made	-6.99436
▁projects	-6.99839
the	-7.00293
v	-7.0142
▁staff	-7.02428
▁new	-7.04029
▁community	-7.04037
▁following	-7.04129
p	-7.04467
th	-7.0605
▁languages	-7.06088
▁conducted	-7.06096
▁out	-7.06163
▁act	-7.06705
b	-7.0758
able	-7.08482
▁loan	-7.08603
▁hav	-7.09235
ment	-7.09782
▁total	-7.09818
▁–	-7.09857
▁who	-7.10332
▁de	-7.1075
▁educational	-7.11334
ary	-7.12395
▁heroes	-7.12932
▁test	-7.13473
▁health	-7.13786
l	-7.13894
▁director	-7.14373
▁per	-7.14387
▁district	-7.15462
▁control	-7.15602
▁cultural	-7.1564
▁system	-7.18185
on	-7.20241
▁plan	-7.20453
▁self	-7.20889
st	-7.21414
▁institutions	-7.21567
▁co	-7.23331
▁local	-7.23763
k	-7.23942
▁review	-7.26421
▁p	-7.26767
▁research	-7.2761
▁learning	-7.27682
▁tamil	-7.279
▁board	-7.28841
▁report	-7.29278
▁method	-7.29687
▁program	-7.30804
▁group	-7.31995
▁state	-7.32196
▁annual	-7.32479
▁children	-7.32622
▁rupavahini	-7.32686
▁un	-7.33572
▁behaviour	-7.33729
▁right	-7.33991
▁book	-7.35089
▁statements	-7.35247
▁theory	-7.35353
▁cash	-7.35822
▁cost	-7.36222
▁programs	-7.36587
▁balance	-7.36663
▁number	-7.37154
▁accounts	-7.37201
▁members	-7.37247
▁work	-7.38246
▁contract	-7.38755
▁over	-7.39495
▁advance	-7.39509
▁committee	-7.39522
▁evidence	-7.40154
▁housing	-7.40316
▁up	-7.40546
▁integration	-7.41315
es	-7.41372
▁tax	-7.42148
▁performance	-7.42407
▁dur	-7.43803
▁village	-7.44065
▁2014	-7.44677
▁value	-7.44722
▁charge	-7.457
▁provincial	-7.45889
▁progress	-7.45967
▁level	-7.46565
▁payment	-7.46631
▁journalism	-7.47096
▁religious	-7.47118
▁provision	-7.47706
▁statement	-7.47806
▁which	-7.48286
▁leave	-7.48291
▁through	-7.48399
▁administration	-7.48538
um	-7.49153
▁title	-7.49644
▁expenses	-7.49649
▁these	-7.50342
▁telecast	-7.50481
▁capital	-7.50618
ive	-7.50715
ic	-7.51502
▁observation	-7.51998
▁interest	-7.53339
▁accounting	-7.53384
▁sinhala	-7.53455
ery	-7.53823
▁medic	-7.53959
▁activities	-7.54578
▁divisional	-7.54709
▁mass	-7.54735
▁day	-7.55914
▁also	-7.55931
▁culture	-7.55957
▁city	-7.55986
▁council	-7.56605
▁period	-7.57126
▁knowledge	-7.57151
▁commission	-7.58271
▁society	-7.58484
▁ordinance	-7.58484
▁held	-7.58502
▁pre	-7.59505
▁zone	-7.59836
▁taken	-7.59869
▁process	-7.59986
f	-7.6035
▁31	-7.60959
▁december	-7.61205
▁grant	-7.61444
▁assets	-7.61519
ness	-7.62202
▁sub	-7.62298
▁international	-7.62601
▁home	-7.6265
▁zonal	-7.62756
official	-7.6329
▁provid	-7.6354
▁such	-7.64016
2	-7.64052
▁function	-7.64161
▁building	-7.64212
▁employment	-7.6423
▁film	-7.64992
1	-7.65811
▁inter	-7.663
▁equipment	-7.66387
▁advertising	-7.66898
▁preparation	-7.66921
▁security	-7.66932
▁aran	-7.66936
ce	-7.67348
▁rs	-7.67457
▁conduct	-7.67787
▁allowance	-7.68009
▁mental	-7.68224
is	-7.68291
▁assistance	-7.68358
▁production	-7.6838
▁implementation	-7.68382
▁paid	-7.68528
out	-7.69722
▁affairs	-7.69861
g	-7.7086
▁analysis	-7.71441
▁students	-7.71784
us	-7.71926
▁amount	-7.72051
ent	-7.72107
▁live	-7.72754
▁annex	-7.72897
▁statutory	-7.729
▁foreign	-7.73044
▁loans	-7.73192
▁1.	-7.74283
▁technical	-7.74478
▁bank	-7.74803
▁pay	-7.75165
▁give	-7.75442
to	-7.75584
▁post	-7.75976
▁those	-7.76048
le	-7.76334
it	-7.77155
▁multi	-7.77633
tion	-7.77637
▁support	-7.7766
▁obtain	-7.77704
▁trade	-7.77712
▁treasury	-7.7778
▁finance	-7.77814
▁con	-7.77839
▁t	-7.78083
▁e	-7.78509
▁1	-7.79126
▁examination	-7.79163
our	-7.79197
▁opinion	-7.79299
▁institute	-7.79327
▁main	-7.79558
▁skills	-7.80039
ous	-7.80318
▁labour	-7.80549
u	-7.80748
▁property	-7.81067
age	-7.81599
ance	-7.82049
ization	-7.82067
▁sale	-7.82494
▁channel	-7.82532
▁notice	-7.82574
▁register	-7.83109
h	-7.84185
▁direct	-7.84244
▁commercial	-7.84264
▁will	-7.84387
▁duty	-7.84391
▁television	-7.84395
▁best	-7.84646
▁part	-7.85668
cy	-7.85852
▁bill	-7.86063
▁r	-7.86082
▁power	-7.86106
▁establish	-7.86148
▁ex	-7.86262
▁data	-7.8629
▁fees	-7.86678
▁basis	-7.86908
▁provisions	-7.86999
▁s	-7.87247
▁i	-7.87385
▁model	-7.87805
▁class	-7.8784
▁centre	-7.87914
▁maintenance	-7.87925
▁objective	-7.87972
▁commissioner	-7.88213
▁current	-7.88363
▁court	-7.89663
▁three	-7.89803
▁3.	-7.90876
▁line	-7.9111
▁facilities	-7.91596
▁assistant	-7.91601
▁deputy	-7.91634
▁certificate	-7.9165
▁internal	-7.91657
▁course	-7.92003
▁related	-7.92037
▁based	-7.9205
ology	-7.92365
▁record	-7.92425
re	-7.92509
▁video	-7.93507
▁settlement	-7.93552
▁case	-7.93582
▁secretariat	-7.93618
▁list	-7.93623
▁produced	-7.93706
▁2.	-7.94032
▁2015	-7.94525
▁minister	-7.95405
▁family	-7.95405
▁field	-7.95405
▁station	-7.95452
▁we	-7.95464
▁planning	-7.95528
▁aid	-7.95664
ar	-7.96281
(	-7.9646
ory	-7.96497
ty	-7.9669
▁high	-7.96958
▁us	-7.97098
▁economic	-7.97215
▁possession	-7.97383
▁child	-7.97391
▁audience	-7.97399
▁money	-7.9743
▁being	-7.97436
▁due	-7.97569
▁phone	-7.97644
▁organization	-7.97729
▁transfer	-7.98211
▁payments	-7.98474
▁plans	-7.99263
▁human	-7.99316
▁note	-7.99451
▁disabled	-7.9953
▁colombo	-7.99685
ist	-8.00258
▁one	-8.00436
ies	-8.00462
3	-8.01019
▁police	-8.01407
▁regard	-8.01407
▁civil	-8.01423
▁overtime	-8.0143
▁circular	-8.01669
▁years	-8.01763
▁sewa	-8.01816
▁schools	-8.02172
▁survey	-8.02354
▁2	-8.02656
en	-8.02731
▁provided	-8.02938
▁man	-8.02999
▁4.	-8.03483
▁revenue	-8.03496
▁common	-8.0352
▁promotion	-8.03525
▁completed	-8.03608
▁computer	-8.03634
▁among	-8.0369
an	-8.03814
▁standard	-8.03827
na	-8.04089
▁vehicles	-8.04126
▁them	-8.04416
ld	-8.04587
▁carrie	-8.0551
at	-8.05632
▁relevant	-8.05643
▁private	-8.05676
▁free	-8.05684
▁designation	-8.05687
▁agreement	-8.05792
▁regulations	-8.06031
▁customs	-8.06032
iya	-8.06574
bout	-8.06582
▁estimates	-8.07084
▁3	-8.07642
▁view	-8.07654
▁administrative	-8.07801
▁salary	-8.07802
▁responsibility	-8.07819
▁make	-8.07831
▁motor	-8.07864
▁nan	-8.08071
▁error	-8.08082
▁press	-8.08166
▁target	-8.08174
▁temples	-8.08942
▁dis	-8.09
▁mis	-8.0946
▁necessary	-8.10014
▁procurement	-8.10014
▁operating	-8.10015
▁colour	-8.1002
▁distribution	-8.10043
▁documentary	-8.10066
▁life	-8.10086
▁end	-8.101
▁use	-8.10189
▁letter	-8.10471
▁party	-8.10543
up	-8.10939
▁employees	-8.11066
▁market	-8.11159
▁includ	-8.12221
▁respect	-8.12258
▁evaluation	-8.12311
▁badulla	-8.12457
▁effect	-8.12751
▁code	-8.12778
w	-8.12868
▁pro	-8.12936
▁real	-8.13321
▁access	-8.14451
▁tele	-8.14572
ship	-8.14576
▁country	-8.14612
▁place	-8.1463
▁stage	-8.14852
▁functions	-8.15231
x	-8.15248
5	-8.15419
ya	-8.16503
▁moral	-8.16544
▁secretariats	-8.1685
▁objectives	-8.16982
▁digital	-8.16993
▁english	-8.16993
▁districts	-8.17118
▁procedure	-8.17472
▁subject	-8.17478
▁table	-8.17974
▁terms	-8.18524
ate	-8.1892
▁organiz	-8.19393
▁systems	-8.19427
▁college	-8.19432
▁two	-8.19438
▁ownership	-8.19442
▁people	-8.19461
▁scheme	-8.19468
▁technology	-8.19512
▁jaffna	-8.19513
ant	-8.19516
▁institution	-8.19533
▁provide	-8.1972
▁hand	-8.1973
▁b	-8.19853
social	-8.19912
▁house	-8.20346
▁10	-8.20384
▁force	-8.21504
▁welfare	-8.21932
▁network	-8.21965
▁classes	-8.22035
▁written	-8.22068
▁awareness	-8.22124
▁making	-8.22173
▁open	-8.22417
▁province	-8.22612
▁teledrama	-8.22693
▁hospitals	-8.22793
▁"(	-8.22997
▁charges	-8.23256
tic	-8.24239
▁concession	-8.24297
▁parliament	-8.24417
▁approach	-8.24496
▁registration	-8.24538
▁manager	-8.24573
▁approval	-8.2458
▁award	-8.24582
▁liability	-8.24588
▁activity	-8.24605
▁summary	-8.24641
▁point	-8.24744
ta	-8.25352
▁psycho	-8.25492
00	-8.26302
▁whil	-8.26664
▁estimate	-8.26856
▁study	-8.27128
▁above	-8.27128
▁close	-8.27128
▁actual	-8.27129
▁observed	-8.27264
▁batticaloa	-8.27269
▁oral	-8.27362
▁position	-8.27397
▁products	-8.27879
▁license	-8.28
▁broadcasting	-8.28002
▁rights	-8.29034
▁reports	-8.29287
▁specific	-8.29739
▁beneficiaries	-8.29831
▁central	-8.29831
▁liabilities	-8.29831
▁head	-8.2985
▁character	-8.29855
▁arrangement	-8.2992
▁auditor	-8.29943
▁visual	-8.30085
ry	-8.30399
accordingly	-8.30401
▁purpose	-8.30755
▁instruction	-8.30781
▁5.	-8.30787
▁age	-8.30791
▁personal	-8.31014
less	-8.31193
▁rules	-8.31219
ia	-8.31331
▁show	-8.31335
▁areas	-8.31419
▁used	-8.31513
▁present	-8.31585
▁works	-8.316
0	-8.31817
▁air	-8.32286
▁hon	-8.32527
▁attention	-8.32608
▁fix	-8.32612
▁vision	-8.32651
▁first	-8.32699
▁medium	-8.32701
▁cross	-8.32758
▁insurance	-8.3276
▁person	-8.32812
▁/	-8.33222
▁n	-8.33409
▁results	-8.33411
▁funds	-8.33848
▁needs	-8.33885
▁term	-8.34002
▁l	-8.3404
ical	-8.34093
▁14	-8.34346
▁addition	-8.34849
▁12	-8.35077
▁courses	-8.35352
▁daily	-8.35465
▁each	-8.35466
▁executive	-8.35471
▁august	-8.355
▁justice	-8.355
▁world	-8.35559
▁though	-8.35598
▁structure	-8.36079
▁4	-8.36167
▁issue	-8.36273
▁deed	-8.36308
▁investment	-8.36552
▁tender	-8.3656
▁indi	-8.36579
▁application	-8.36681
▁events	-8.36883
4	-8.36888
▁books	-8.37559
▁standards	-8.37961
▁status	-8.38408
▁various	-8.38412
▁achievement	-8.38455
▁construction	-8.38517
▁secretary	-8.38532
▁approved	-8.38537
▁chief	-8.38542
▁details	-8.38805
▁set	-8.38876
as	-8.38898
▁hours	-8.38983
▁items	-8.39535
▁resources	-8.39535
▁days	-8.39544
▁workshop	-8.39614
▁relation	-8.39671
▁benefit	-8.39752
de	-8.40415
▁letters	-8.4085
▁audio	-8.41367
▁families	-8.41437
▁corporate	-8.41437
▁super	-8.41443
▁copy	-8.41473
▁exchange	-8.41473
▁university	-8.41538
▁15	-8.41714
ro	-8.41791
▁participated	-8.41912
▁units	-8.42346
▁job	-8.42616
▁map	-8.42845
▁deposit	-8.42879
▁teachers	-8.43002
▁deposits	-8.43229
▁18	-8.43441
▁01	-8.4381
▁boards	-8.43937
▁transport	-8.44563
▁c	-8.44692
▁teaching	-8.44829
▁army	-8.44847
▁well	-8.44867
▁warrant	-8.4545
▁final	-8.45488
▁purchase	-8.45573
compliance	-8.45612
▁formal	-8.45646
▁even	-8.45788
▁increase	-8.45816
▁share	-8.45907
▁studio	-8.45933
▁file	-8.45951
▁bond	-8.46052
▁material	-8.46184
▁mark	-8.46286
▁psycholog	-8.46866
▁cent	-8.47615
▁bilingual	-8.47627
▁accordance	-8.47791
▁chairman	-8.47793
▁shot	-8.47794
▁telephone	-8.47794
▁hire	-8.47809
▁received	-8.47857
▁secondary	-8.47857
▁island	-8.47883
▁business	-8.47894
▁water	-8.479
▁trust	-8.47942
▁professional	-8.4795
▁kandy	-8.47962
▁january	-8.47969
▁guidelines	-8.47999
▁selected	-8.48008
▁issued	-8.48584
▁prepared	-8.48627
▁form	-8.48821
▁ended	-8.48944
▁document	-8.49096
▁rent	-8.49107
▁month	-8.49137
▁dialogue	-8.49163
▁contribution	-8.49293
▁marketing	-8.499
▁lease	-8.50021
▁m	-8.50783
▁external	-8.51121
▁road	-8.51121
genous	-8.5113
▁outside	-8.5114
▁absolute	-8.51153
▁galle	-8.51306
▁after	-8.51517
▁concept	-8.51645
▁offence	-8.51801
▁2013	-8.51925
▁6	-8.5218
▁date	-8.52195
▁scholarships	-8.5239
▁off	-8.52408
▁h	-8.5246
▁image	-8.52649
▁factor	-8.52659
▁paper	-8.52689
▁sector	-8.52695
ri	-8.52728
▁obligation	-8.52742
▁temple	-8.52762
no	-8.52909
▁02	-8.53229
▁broadcast	-8.53542
▁there	-8.5364
▁than	-8.53798
▁pa	-8.54343
et	-8.54365
▁require	-8.54477
▁expect	-8.54505
▁global	-8.54525
▁develop	-8.54529
▁camera	-8.54547
▁alternative	-8.54569
▁company	-8.54569
▁task	-8.5457
▁depreciation	-8.54611
▁collective	-8.54612
▁creative	-8.54615
▁assessment	-8.54729
▁mortgage	-8.549
▁more	-8.54994
▁implemented	-8.5506
▁scale	-8.55128
▁drama	-8.55276
est	-8.5543
ful	-8.55557
existence	-8.55874
▁profit	-8.56259
▁flow	-8.56299
▁question	-8.56312
▁rule	-8.56329
▁teacher	-8.56353
this	-8.56415
▁g	-8.56445
▁documents	-8.56493
▁way	-8.565
ian	-8.56608
▁applications	-8.56752
▁ratio	-8.56774
▁04	-8.5688
▁individual	-8.57091
▁f	-8.57301
▁music	-8.57579
▁rate	-8.58037
▁pension	-8.58047
appropriation	-8.58141
▁kirula	-8.58141
▁opportunities	-8.58141
▁marriage	-8.58141
▁casual	-8.58142
▁transmission	-8.58143
▁quasi	-8.58144
▁nature	-8.58146
▁second	-8.58258
▁eye	-8.58284
▁policies	-8.58412
▁ch	-8.58437
du	-8.58845
▁bi	-8.58905
nt	-8.58955
▁di	-8.59021
▁implementing	-8.59078
li	-8.59202
▁design	-8.59618
▁good	-8.6001
▁20	-8.60051
▁payable	-8.60162
▁event	-8.60281
man	-8.60498
▁do	-8.60594
wa	-8.60694
▁environment	-8.60859
▁6.	-8.6117
el	-8.6166
ch	-8.61669
▁mobil	-8.617
▁pass	-8.6179
▁industrial	-8.61904
▁published	-8.6192
▁ampara	-8.62046
▁lands	-8.62501
▁compar	-8.62794
▁area	-8.63053
ok	-8.63202
▁03	-8.63279
▁br	-8.63636
under	-8.63647
▁debt	-8.63688
▁festival	-8.63807
▁claim	-8.63827
▁association	-8.6385
▁employee	-8.6393
▁cheque	-8.63941
▁print	-8.63948
▁cause	-8.6397
▁section	-8.6411
▁meeting	-8.64321
▁groups	-8.64726
if	-8.6525
7	-8.65479
wards	-8.6561
▁effective	-8.65611
▁arm	-8.65611
▁lawful	-8.65671
▁editor	-8.65685
ther	-8.65688
▁declaration	-8.65695
▁below	-8.65698
▁inquiry	-8.65703
▁experience	-8.65713
▁proof	-8.6572
▁back	-8.65728
▁down	-8.65735
▁defence	-8.65737
▁june	-8.65737
▁satellite	-8.65737
▁2017	-8.65818
▁30	-8.65845
▁notices	-8.65915
▁original	-8.65938
▁my	-8.6615
▁active	-8.66344
▁loss	-8.66432
▁debtors	-8.66525
te	-8.66544
▁supply	-8.66568
▁stamp	-8.66957
ee	-8.67011
ability	-8.67277
shou	-8.67296
▁matters	-8.67402
▁bo	-8.67425
▁appeal	-8.67591
▁need	-8.67673
▁schedule	-8.67694
of	-8.67787
▁problem	-8.6783
▁stock	-8.6784
▁decision	-8.67909
▁skill	-8.68007
▁functional	-8.68354
▁basi	-8.68714
▁mind	-8.6884
ification	-8.69195
▁grade	-8.69312
▁president	-8.69676
▁academic	-8.69691
▁duties	-8.69691
▁furniture	-8.69691
▁acquisition	-8.69692
▁salaries	-8.69692
▁single	-8.69693
▁long	-8.697
▁exhibition	-8.69723
▁appropriate	-8.69739
▁response	-8.69739
▁peace	-8.69739
▁science	-8.69739
▁branches	-8.69758
▁political	-8.69776
▁participation	-8.69791
▁focus	-8.69823
▁permanent	-8.69828
▁personality	-8.69893
▁gates	-8.7003
▁enterprises	-8.70032
▁natural	-8.7039
▁travell	-8.7047
▁laws	-8.70483
▁st	-8.70687
ought	-8.71295
▁can	-8.71559
▁source	-8.71861
▁vi	-8.71961
▁request	-8.7202
▁matter	-8.72034
▁11	-8.7268
▁creat	-8.73186
▁abstract	-8.737
▁consider	-8.73732
▁po	-8.73755
▁prior	-8.73776
▁multiple	-8.73823
▁consist	-8.73851
▁identity	-8.73857
▁library	-8.73857
further	-8.73857
▁taking	-8.73857
electronic	-8.73858
▁future	-8.73858
▁cabinet	-8.73858
▁sound	-8.73871
▁estate	-8.73874
disciplinary	-8.73938
▁temporary	-8.73997
▁popular	-8.74
▁care	-8.74011
▁repairs	-8.74057
▁mission	-8.74213
▁quality	-8.74219
▁traditional	-8.74244
▁price	-8.7439
ra	-8.74657
▁steps	-8.75081
▁ad	-8.75302
▁room	-8.75545
▁ac	-8.75627
▁sign	-8.7573
▁nov	-8.76056
▁05	-8.76129
▁penal	-8.76152
▁hall	-8.76164
▁religion	-8.76279
▁ability	-8.76347
▁transaction	-8.76373
▁prepar	-8.76624
▁travel	-8.76699
▁13	-8.76954
▁forces	-8.77014
ol	-8.77243
▁awards	-8.77457
ities	-8.77527
▁cases	-8.7798
ur	-8.78037
▁base	-8.78079
▁branch	-8.78132
▁sense	-8.78205
▁domestic	-8.78205
▁negative	-8.78205
▁living	-8.78205
▁initial	-8.78206
▁proficiency	-8.78206
▁framework	-8.78207
▁death	-8.78208
▁medicine	-8.78209
▁short	-8.78213
▁efficiency	-8.78214
▁agencies	-8.78218
▁primary	-8.78256
▁selection	-8.78258
▁capacity	-8.78267
▁appointment	-8.78283
▁critical	-8.78297
▁angle	-8.7831
▁regional	-8.78349
▁ratnapura	-8.78349
▁magazine	-8.78349
▁commenced	-8.78352
▁camp	-8.7836
▁occupation	-8.78363
▁monthly	-8.78383
▁puttalam	-8.78443
▁trincomalee	-8.78443
▁key	-8.78443
▁play	-8.78514
▁directors	-8.786
▁higher	-8.78607
▁verbal	-8.78777
▁ethnic	-8.78835
ial	-8.79368
ative	-8.79414
ivo	-8.79483
6	-8.80139
▁01.	-8.80391
▁questions	-8.80487
▁role	-8.80692
▁villages	-8.80706
▁return	-8.80821
▁change	-8.80917
other	-8.81042
▁d	-8.81196
even	-8.81284
▁bar	-8.81781
▁50	-8.81923
▁en	-8.82141
▁get	-8.82368
▁sea	-8.82382
▁major	-8.82609
▁unlawful	-8.82615
▁physical	-8.82691
▁draft	-8.82751
▁supervision	-8.82751
▁vavuniya	-8.82751
▁cadre	-8.82751
▁screen	-8.82751
▁agency	-8.82751
▁oath	-8.82751
▁movement	-8.82751
▁cognitive	-8.82752
▁body	-8.82757
▁deficiencies	-8.82758
▁missing	-8.82793
▁2010	-8.82806
▁accrual	-8.82806
▁constitution	-8.82811
▁disposal	-8.82819
▁emotional	-8.82874
▁web	-8.82959
▁practice	-8.82981
▁recovery	-8.82994
▁kilinochchi	-8.83
▁delivery	-8.83042
▁practitioners	-8.83053
▁stores	-8.83053
per	-8.83061
▁controls	-8.83074
▁relative	-8.83182
▁k	-8.83365
il	-8.8342
line	-8.84301
▁decisions	-8.84878
ge	-8.84927
ma	-8.85401
▁message	-8.85456
▁art	-8.85658
▁resource	-8.85696
▁relat	-8.857
▁item	-8.85785
▁word	-8.85904
▁able	-8.85906
▁member	-8.85948
▁cover	-8.86002
▁25	-8.86355
▁vote	-8.87333
▁inform	-8.87383
▁diploma	-8.87485
▁ministries	-8.87512
▁monaragala	-8.87512
▁statute	-8.87512
▁strategy	-8.87512
▁demand	-8.87515
imem	-8.87516
▁degree	-8.87527
▁increment	-8.87571
▁western	-8.87571
▁decree	-8.87571
▁radio	-8.87592
▁net	-8.87603
vedic	-8.87666
▁vocational	-8.87671
▁block	-8.87677
▁recognized	-8.87698
▁introduction	-8.877
▁acceptance	-8.8771
▁facilitation	-8.87719
▁submitt	-8.87746
▁fair	-8.87786
▁improve	-8.87865
▁wise	-8.8789
▁requirements	-8.8792
tal	-8.87943
▁monitoring	-8.87996
▁establishment	-8.88114
▁style	-8.88137
▁gazette	-8.88152
▁recommendations	-8.8817
▁pan	-8.88242
all	-8.88249
▁ben	-8.88249
▁operational	-8.88411
▁check	-8.88425
▁printed	-8.88517
additional	-8.88559
▁se	-8.88888
▁engineering	-8.88944
▁grants	-8.89042
▁limits	-8.89114
ferred	-8.8921
▁v	-8.89245
ela	-8.89331
▁arts	-8.89382
▁ma	-8.894
▁transactions	-8.89564
▁instrument	-8.89629
yata	-8.89958
▁plant	-8.90212
▁workshops	-8.90488
▁writ	-8.90524
▁clinic	-8.90628
ble	-8.90709
▁sheet	-8.90721
▁discussion	-8.90745
▁accountant	-8.90783
▁youth	-8.90788
▁balances	-8.90874
ium	-8.90914
▁effects	-8.91422
▁27	-8.91501
isation	-8.91625
▁credit	-8.91853
▁week	-8.91973
▁lead	-8.9242
▁accept	-8.92421
▁certificates	-8.92422
ng	-8.92437
▁paragraph	-8.92512
▁curriculum	-8.92513
▁north	-8.92513
▁history	-8.92514
▁rehabilitation	-8.92518
▁energy	-8.92523
▁disorder	-8.92523
▁manner	-8.92531
▁universal	-8.92534
▁editorial	-8.92535
▁collaboration	-8.92537
▁done	-8.92546
▁superintendent	-8.92546
▁relationship	-8.92563
▁april	-8.92574
▁election	-8.92574
▁kegalle	-8.92574
▁content	-8.92582
▁true	-8.92609
▁proper	-8.9264
▁ensure	-8.92646
▁several	-8.92655
▁priority	-8.92677
▁presentation	-8.92734
ological	-8.92796
▁forward	-8.92829
▁link	-8.92849
▁express	-8.92869
▁reading	-8.92882
sri	-8.93145
▁nuwara	-8.93222
▁musical	-8.93363
▁5	-8.93394
▁2012.	-8.93485
da	-8.93504
▁continu	-8.93675
▁when	-8.93728
▁receivables	-8.93803
ha	-8.94021
▁w	-8.94039
▁achieve	-8.9414
▁ayu	-8.94251
rilingual	-8.94347
▁aim	-8.94381
▁acting	-8.94765
▁goods	-8.95061
rance	-8.95493
▁im	-8.95647
room	-8.95686
ministry	-8.95711
▁agent	-8.9576
▁type	-8.95892
▁hospital	-8.9591
▁scholarship	-8.95958
nce	-8.96008
▁adjustment	-8.9622
▁only	-8.96439
▁07	-8.96484
▁am	-8.96507
ure	-8.96658
▁etc	-8.97292
▁anti	-8.97382
▁sh	-8.97429
sion	-8.97469
▁hero	-8.97579
time	-8.97644
end	-8.97758
▁respective	-8.97768
▁applied	-8.97776
▁choice	-8.97776
▁comprehensive	-8.97776
▁october	-8.97776
▁attitude	-8.97776
▁micro	-8.97776
▁previous	-8.9778
▁guidance	-8.97783
▁sentence	-8.97784
▁witness	-8.97785
▁breach	-8.97786
▁low	-8.978
▁run	-8.97803
▁entertainment	-8.97806
▁emergency	-8.97807
▁legislative	-8.9781
▁collection	-8.97816
▁every	-8.97823
▁mutual	-8.97832
▁advisory	-8.9784
▁connection	-8.97854
▁translation	-8.97868
▁parties	-8.97881
▁manual	-8.97888
▁usage	-8.97892
▁powers	-8.97924
▁concerned	-8.97926
▁territorial	-8.97944
▁mullaitivu	-8.97952
▁identified	-8.98067
▁help	-8.98078
▁text	-8.9817
cessionary	-8.98192
▁conscious	-8.98298
▁attend	-8.98356
ized	-8.98367
▁o	-8.98522
▁sp	-8.98525
ul	-8.98541
▁may	-8.98656
▁cou	-8.98669
▁parents	-8.98695
▁according	-8.98781
ography	-8.98894
▁dec	-8.99436
▁follows	-8.99566
▁17	-9.00151
▁requests	-9.00159
30	-9.00314
gama	-9.00414
▁meetings	-9.00431
▁follow	-9.00527
nd	-9.00836
▁he	-9.00873
▁limit	-9.00902
▁operation	-9.01068
▁benefits	-9.01087
▁fact	-9.01114
whil	-9.01251
▁implement	-9.01273
id	-9.01466
▁cur	-9.01518
▁costs	-9.01583
ka	-9.0161
▁lo	-9.01627
▁participat	-9.01917
▁so	-9.02316
▁counter	-9.02446
▁go	-9.0295
▁master	-9.02952
▁object	-9.03137
▁rememb	-9.03203
▁disable	-9.03277
la	-9.03314
▁ceremony	-9.03331
▁infrastructure	-9.03331
▁studies	-9.03331
▁preceding	-9.03331
▁doctrine	-9.03331
▁dead	-9.03335
▁index	-9.03335
▁frequency	-9.03335
▁minimum	-9.03336
▁available	-9.03337
▁registrar	-9.03339
▁growth	-9.03349
▁next	-9.0335
▁against	-9.03352
▁edition	-9.03353
▁transformation	-9.03356
▁reaction	-9.03361
▁measurement	-9.03364
▁reasonable	-9.03364
▁successfully	-9.03366
▁strategies	-9.03367
▁supplementary	-9.03383
▁copies	-9.03391
▁publication	-9.03392
▁constructive	-9.03398
▁women	-9.03401
▁mechanical	-9.03402
▁punishment	-9.03407
▁distributed	-9.03426
▁execution	-9.03428
▁losses	-9.03439
▁compilation	-9.03445
▁thinking	-9.03498
▁sports	-9.03599
▁semi	-9.03635
▁july	-9.03639
▁mannar	-9.0364
▁acquired	-9.03722
▁display	-9.03764
▁trial	-9.03803
▁residential	-9.04133
▁limited	-9.04143
▁meaning	-9.04221
▁ethics	-9.04345
▁damages	-9.04775
▁presented	-9.04964
▁bad	-9.05438
▁publicity	-9.05543
▁ii	-9.05552
thu	-9.05571
▁02.	-9.06217
▁granted	-9.0665
day	-9.06986
▁center	-9.07061
–	-9.07147
▁instructions	-9.0717
tamil	-9.07176
▁referr	-9.07397
▁vehicle	-9.07477
▁2015,	-9.07591
▁19	-9.07946
▁u	-9.07963
▁targets	-9.08165
▁et	-9.08353
▁fee	-9.0865
▁organizations	-9.08722
▁release	-9.08846
▁chart	-9.09035
▁locat	-9.09212
▁bulletin	-9.09213
▁qualified	-9.09213
▁software	-9.09213
▁petty	-9.09214
▁remote	-9.09214
▁contact	-9.09216
▁cargo	-9.09217
▁interview	-9.09218
▁full	-9.09218
▁licence	-9.09219
▁background	-9.0922
▁revision	-9.09226
▁mix	-9.09228
▁interpretation	-9.09232
▁retirement	-9.09233
▁comment	-9.09234
▁space	-9.09235
▁initiat	-9.0924
▁tools	-9.09241
▁suprem	-9.09271
▁gra	-9.09278
▁kalutara	-9.09286
▁reader	-9.09319
▁compil	-9.09331
▁animation	-9.09337
▁carry	-9.09339
▁third	-9.09343
▁creation	-9.0941
▁gampaha	-9.09412
▁identification	-9.09412
▁matale	-9.09413
▁include	-9.09564
▁reality	-9.09579
▁tv	-9.09588
▁departmental	-9.09596
▁matern	-9.0987
▁prepare	-9.09871
▁wide	-9.10076
▁needed	-9.10421
long	-9.10737
▁7.	-9.11037
▁printing	-9.1105
▁subsequent	-9.1107
▁operations	-9.11222
▁allowances	-9.11234
▁registerd	-9.11488
der	-9.12191
▁call	-9.12322
▁rates	-9.12337
▁flows	-9.12363
▁relations	-9.12947
ence	-9.13114
▁ab	-9.13152
▁advances	-9.13172
▁nation	-9.13188
▁persons	-9.13191
round	-9.13505
ut	-9.13543
▁su	-9.13553
▁technique	-9.13568
▁newspaper	-9.13611
▁principle	-9.13614
▁seminar	-9.13622
▁competition	-9.13631
▁investigation	-9.13645
▁result	-9.13649
▁reward	-9.13665
▁step	-9.1412
▁card	-9.14337
▁light	-9.14474
▁ped	-9.14504
▁intention	-9.14803
land	-9.14912
▁reserve	-9.1494
▁tradition	-9.14967
▁product	-9.14979
▁mal	-9.15033
▁habit	-9.15209
▁success	-9.15237
▁senior	-9.15322
▁represent	-9.15337
▁assess	-9.1538
▁consolidate	-9.15463
▁essential	-9.15463
▁holiday	-9.15463
▁intelligence	-9.15463
▁jurisdiction	-9.15463
▁malicious	-9.15463
▁sanction	-9.15463
▁uniform	-9.15463
▁steel	-9.15464
▁rural	-9.15464
▁collateral	-9.15464
▁minor	-9.15465
▁analytical	-9.15466
▁coefficient	-9.15466
▁sample	-9.15467
▁consumer	-9.15469
▁inheritance	-9.1547
▁circulation	-9.15477
▁recruitment	-9.15477
operative	-9.15478
▁freedom	-9.15478
▁partnership	-9.15493
▁assignment	-9.15501
▁motion	-9.15503
▁memory	-9.15511
▁coverage	-9.1552
▁practical	-9.15522
▁classification	-9.15526
▁judgement	-9.15527
▁electricity	-9.1553
▁partner	-9.15538
▁adverse	-9.15541
▁responsible	-9.15543
▁simple	-9.15563
▁divisions	-9.15565
▁criticism	-9.15575
▁define	-9.15579
▁proceeding	-9.15581
▁quarters	-9.15647
▁anuradhapura	-9.15675
▁imprest	-9.15676
▁accountability	-9.15677
▁38	-9.15689
▁rating	-9.15735
▁take	-9.15792
▁appointed	-9.158
▁formulation	-9.15819
▁equal	-9.15825
▁educat	-9.15826
▁normal	-9.15835
▁sum	-9.15853
▁face	-9.15906
▁condition	-9.15959
▁rational	-9.15971
▁institutional	-9.15983
▁premises	-9.16007
▁measures	-9.16254
▁reporting	-9.16432
▁eliya	-9.16509
▁reference	-9.16898
▁3.2.	-9.16928
▁ob	-9.16964
pa	-9.16966
ile	-9.16966
ii	-9.17312
▁seminars	-9.17701
▁si	-9.17802
▁manufacture	-9.17921
ne	-9.18121
▁designs	-9.18713
▁materials	-9.19199
▁since	-9.19306
▁ca	-9.19388
▁24	-9.19572
▁issues	-9.19638
▁09	-9.19841
▁situation	-9.20109
twe	-9.20203
▁lesson	-9.20241
▁receipt	-9.20356
▁allocation	-9.20506
very	-9.20508
▁22	-9.20632
▁06	-9.20772
▁va	-9.20866
▁circulars	-9.2134
▁16	-9.21364
▁agalawatt	-9.215
▁transfers	-9.21552
▁discharge	-9.21587
▁stations	-9.21731
ility	-9.21832
▁valid	-9.21858
▁enter	-9.21968
▁complex	-9.21972
▁restrict	-9.21981
▁except	-9.21985
▁superintend	-9.22049
▁efficient	-9.22073
▁certain	-9.22092
▁conflict	-9.2213
▁kurunegala	-9.2213
▁ledger	-9.2213
▁opportunity	-9.2213
▁parallel	-9.2213
▁sabaragamuwa	-9.2213
▁speech	-9.2213
▁personnel	-9.2213
▁roll	-9.2213
▁spiritual	-9.2213
▁website	-9.2213
▁relief	-9.2213
▁technological	-9.2213
▁equity	-9.22131
▁dividend	-9.22132
▁compuls	-9.22132
▁ceylon	-9.22134
▁signature	-9.22134
▁governance	-9.22137
▁9	-9.22142
▁feeling	-9.22142
▁describe	-9.22152
▁panel	-9.22157
▁serial	-9.22164
▁compensation	-9.22164
▁picture	-9.22173
▁conference	-9.22173
▁team	-9.22179
▁site	-9.22183
▁different	-9.222
▁protection	-9.22212
▁voluntary	-9.22213
▁spending	-9.22214
▁furnished	-9.22216
▁validity	-9.22269
▁8	-9.22271
▁five	-9.22293
▁orientation	-9.22357
▁ideal	-9.22362
▁career	-9.22423
▁retired	-9.22496
▁incidental	-9.22504
▁sent	-9.22507
▁working	-9.22511
▁petition	-9.22519
▁editing	-9.22557
▁donations	-9.23232
▁privilege	-9.23253
▁factory	-9.23275
ru	-9.23339
▁add	-9.23883
▁environmental	-9.23955
▁principles	-9.24148
▁bring	-9.2424
uring	-9.24544
▁fa	-9.24837
ni	-9.24977
ers	-9.25237
▁prop	-9.25243
▁sa	-9.2529
▁stocks	-9.25337
▁problems	-9.25337
▁la	-9.25691
▁res	-9.25884
9	-9.26275
▁enhance	-9.266
we	-9.26832
government	-9.27209
service	-9.27209
▁mo	-9.27427
▁damage	-9.27432
▁receivable	-9.27438
▁student	-9.2747
j	-9.27524
▁cr	-9.27766
▁saving	-9.27801
▁40	-9.2784
▁8.	-9.28191
▁surveys	-9.28391
▁direction	-9.28554
▁accident	-9.28648
▁guide	-9.28701
▁j	-9.28757
sis	-9.28764
▁contribute	-9.28873
mo	-9.28955
▁descripti	-9.29213
▁introduc	-9.2923
▁perform	-9.29233
▁machine	-9.29243
▁star	-9.29265
▁currency	-9.29273
▁anniversary	-9.29273
▁clause	-9.29273
▁double	-9.29273
▁february	-9.29273
▁filter	-9.29273
▁pattern	-9.29273
▁perspective	-9.29273
▁search	-9.29273
▁specimen	-9.29273
▁understanding	-9.29273
▁violence	-9.29273
▁great	-9.29273
▁vacant	-9.29273
▁command	-9.29274
▁series	-9.29274
▁mechanism	-9.29274
▁folk	-9.29274
▁influence	-9.29275
▁joint	-9.29275
▁inspection	-9.29279
▁crown	-9.2928
ot	-9.29283
▁extension	-9.29286
▁admission	-9.29288
▁enforcement	-9.29289
▁dominant	-9.29291
▁gratuity	-9.29293
▁leadership	-9.29297
▁guarantee	-9.29317
▁substitute	-9.29318
▁objection	-9.2935
▁affiliated	-9.29362
▁adequate	-9.29363
▁september	-9.29363
▁feedback	-9.29363
▁march	-9.29367
▁continuously	-9.29368
▁where	-9.29396
▁supplies	-9.29399
▁centres	-9.29402
▁sundry	-9.29403
▁injury	-9.29405
▁noise	-9.29406
▁recruited	-9.29423
▁description	-9.29439
▁expression	-9.29471
▁positive	-9.29525
▁trained	-9.29544
▁boc	-9.29567
▁recurrent	-9.29617
▁counseling	-9.29666
▁decrease	-9.29676
▁polonnaruwa	-9.29676
▁voice	-9.29676
▁notes	-9.29693
ible	-9.2971
▁owner	-9.29734
▁discount	-9.29841
▁tenant	-9.29846
▁sales	-9.29853
▁conditional	-9.2995
▁mean	-9.29983
▁correct	-9.29996
▁03.	-9.30013
▁28	-9.30016
▁prizes	-9.3004
▁maintaining	-9.30214
▁his	-9.30225
▁annually	-9.30243
▁union	-9.30248
▁tests	-9.3027
▁wages	-9.30321
lim	-9.30439
▁iii	-9.30528
▁graphics	-9.30609
▁writing	-9.30995
▁dated	-9.31133
▁directions	-9.31163
▁ka	-9.3118
▁receipts	-9.31305
and	-9.31381
▁centers	-9.3163
▁rewards	-9.31669
▁publications	-9.31729
he	-9.31761
for	-9.31946
▁enhanc	-9.32019
▁11.	-9.32031
ling	-9.32308
ana	-9.32484
▁car	-9.32719
▁registered	-9.32862
▁associations	-9.32873
ference	-9.33451
▁values	-9.33544
▁tenders	-9.34029
▁committees	-9.34205
▁session	-9.34275
su	-9.34808
2011	-9.34957
with	-9.34961
▁par	-9.34987
▁sta	-9.34989
▁representative	-9.35028
▁advertisement	-9.35091
va	-9.35238
▁client	-9.35244
▁asset	-9.35318
▁08	-9.35326
▁regular	-9.35364
▁1.2	-9.35651
▁ground	-9.36036
▁promot	-9.3606
▁100	-9.36172
▁improv	-9.36307
▁prim	-9.36397
▁exclusive	-9.36815
▁secret	-9.36886
▁bail	-9.36906
one	-9.3691
▁produce	-9.36915
▁clear	-9.36923
oose	-9.36939
▁periodical	-9.36946
▁bureau	-9.36954
▁default	-9.36965
▁effort	-9.36965
▁hierarchy	-9.36965
▁industry	-9.36965
▁monetary	-9.36965
▁november	-9.36965
▁profile	-9.36965
▁surplus	-9.36965
▁testamentary	-9.36965
hood	-9.36965
▁identify	-9.36965
▁attorney	-9.36965
▁potential	-9.36966
▁chain	-9.36967
▁secretaries	-9.36967
▁economy	-9.36967
▁diffusion	-9.36969
▁download	-9.36969
▁textbook	-9.36969
however	-9.36971
▁talk	-9.36973
▁navy	-9.36974
▁path	-9.36983
▁engage	-9.3699
▁municipal	-9.36992
▁imagin	-9.36996
▁programming	-9.37002
▁race	-9.37017
▁disability	-9.3703
▁gallery	-9.37034
▁criminal	-9.37038
▁bias	-9.37045
▁category	-9.37055
▁correlation	-9.37062
▁2009	-9.3707
▁voucher	-9.37071
▁na	-9.37184
▁emoluments	-9.37195
▁unlawfully	-9.37199
▁charter	-9.37205
▁improvement	-9.37209
▁valuation	-9.3723
▁lower	-9.37234
▁therap	-9.37235
▁juris	-9.37242
▁affect	-9.37259
▁promote	-9.37327
ac	-9.37382
▁break	-9.37402
▁affirmati	-9.37443
▁lankan	-9.37457
▁most	-9.37493
▁viewers	-9.37529
▁representation	-9.37554
▁authorized	-9.37569
▁channels	-9.37574
▁visit	-9.37689
▁2014.	-9.37728
mall	-9.37738
law	-9.37892
▁actor	-9.38153
▁mail	-9.38215
▁sunday	-9.38286
▁1.2.	-9.38287
▁mus	-9.38292
by	-9.38433
▁centered	-9.38843
▁means	-9.38974
em	-9.39017
▁savings	-9.39017
over	-9.39248
▁departments	-9.39293
▁top	-9.39655
▁ra	-9.39916
▁purchas	-9.40793
▁com	-9.4097
▁obligations	-9.4134
came	-9.41446
01	-9.41564
ata	-9.41571
▁less	-9.41646
last	-9.41668
▁sets	-9.42033
con	-9.4211
po	-9.423
pu	-9.42647
ga	-9.429
current	-9.43058
production	-9.43122
special	-9.43238
▁gain	-9.43359
▁3.1	-9.43568
▁creditor	-9.436
▁whe	-9.4369
▁debtor	-9.43734
z	-9.43857
▁goal	-9.44297
▁debit	-9.44418
▁start	-9.44744
rama	-9.44917
▁supplement	-9.45225
▁legislat	-9.4523
stinct	-9.45279
▁ceremonies	-9.45299
▁clerk	-9.45299
▁criteria	-9.45299
▁dignity	-9.45299
▁dismiss	-9.45299
▁independent	-9.45299
▁laboratory	-9.45299
▁pilot	-9.45299
▁qualification	-9.45299
▁subsidiary	-9.45299
▁trading	-9.45299
▁verification	-9.45299
▁foundation	-9.45299
▁probable	-9.45299
▁vacation	-9.45299
▁superior	-9.45299
▁competent	-9.453
▁lens	-9.45301
▁definition	-9.45302
▁feature	-9.45303
▁controlled	-9.45307
▁categories	-9.45308
▁2006	-9.45312
▁military	-9.45316
▁judge	-9.45319
▁1.1.	-9.4533
▁artistic	-9.4534
▁episode	-9.45344
▁diplomatic	-9.45348
▁box	-9.45363
▁psychological	-9.45367
▁utilization	-9.45378
▁initiative	-9.4538
▁suitable	-9.45386
▁judicial	-9.45407
▁nutrition	-9.45408
▁assist	-9.45419
▁preference	-9.45424
▁coordination	-9.45453
▁vesting	-9.45458
▁exist	-9.45462
▁innovation	-9.45485
▁auto	-9.45548
▁customer	-9.45554
▁parliamentary	-9.45565
▁suit	-9.45568
▁kaluthara	-9.45587
▁some	-9.4559
▁cable	-9.45603
▁jury	-9.45677
▁arrang	-9.45785
▁26	-9.45849
▁vice	-9.45869
▁prev	-9.45883
▁pr	-9.45962
▁online	-9.45986
▁maintained	-9.46043
vi	-9.46104
▁artists	-9.46213
▁write	-9.46241
▁dual	-9.46303
▁achieved	-9.46304
▁examinations	-9.46317
▁incentive	-9.46444
▁circles	-9.46536
▁cassettes	-9.46536
▁create	-9.46577
▁contain	-9.46582
coming	-9.46613
▁articles	-9.46702
ning	-9.4678
ud	-9.46835
▁3.1.	-9.46835
▁legally	-9.47012
▁associate	-9.47108
▁ba	-9.47322
▁productions	-9.47474
os	-9.47732
ag	-9.47836
▁cards	-9.47862
▁conditions	-9.47914
un	-9.48432
▁reset	-9.48527
▁void	-9.48707
▁words	-9.48715
eration	-9.48746
▁giv	-9.48813
▁optim	-9.49094
▁directory	-9.4919
ious	-9.49771
▁months	-9.50258
ish	-9.50312
ency	-9.50416
▁files	-9.50424
▁indirect	-9.50526
▁names	-9.50567
▁deeds	-9.51119
▁29	-9.51472
ter	-9.51566
way	-9.51933
oth	-9.52011
act	-9.52147
▁maha	-9.52163
supply	-9.52291
general	-9.52328
▁23	-9.52522
▁custom	-9.52606
lien	-9.5268
▁leader	-9.52787
▁notification	-9.52822
▁maintain	-9.52921
▁page	-9.53028
▁processing	-9.53051
▁analog	-9.53087
pay	-9.53156
▁hour	-9.53212
▁issu	-9.53253
▁meet	-9.53264
itation	-9.53321
▁regulation	-9.53346
▁experiment	-9.53444
amp	-9.53936
▁wrongful	-9.54254
▁adapt	-9.54266
▁transit	-9.54294
▁photo	-9.54296
oya	-9.54319
▁circum	-9.54337
▁percent	-9.54348
▁sovereign	-9.54353
▁wrong	-9.54369
▁hyper	-9.54387
▁horizon	-9.54389
▁sketch	-9.54389
▁argument	-9.5439
▁arrears	-9.5439
▁debenture	-9.5439
▁detention	-9.5439
▁extraordinary	-9.5439
▁intellectual	-9.5439
▁literature	-9.5439
▁memorandum	-9.5439
▁questionnaire	-9.5439
▁score	-9.5439
▁tribunal	-9.5439
▁diagram	-9.5439
▁instalment	-9.5439
▁accessories	-9.5439
▁middle	-9.5439
▁average	-9.5439
▁dispute	-9.54391
▁permit	-9.54391
▁tenancy	-9.54393
▁historical	-9.54394
▁logistic	-9.54395
▁merit	-9.54395
▁consent	-9.54395
▁answer	-9.54398
▁patronage	-9.544
▁authorities	-9.54403
▁contentious	-9.54404
▁fide	-9.54406
▁uva	-9.54406
▁difficulties	-9.54408
▁separation	-9.54413
▁multimedia	-9.54418
▁narrative	-9.54419
▁democratic	-9.5442
▁cut	-9.54431
▁percentage	-9.54432
▁motivation	-9.54436
▁airtime	-9.54436
▁conservation	-9.54438
▁1.2.1	-9.54448
▁still	-9.54448
▁perception	-9.54451
▁portion	-9.54451
,000	-9.54461
▁remain	-9.54471
▁epi	-9.54481
▁reduction	-9.54488
▁gross	-9.54505
▁linguistic	-9.54506
▁miscellaneous	-9.54506
▁christmas	-9.54506
▁contractual	-9.54508
▁story	-9.5451
▁four	-9.54516
▁buddhist	-9.54518
▁contingen	-9.54518
▁ideolog	-9.54545
mun	-9.54583
▁fulfill	-9.54612
▁ear	-9.54685
▁discipline	-9.54707
▁focal	-9.54707
▁urban	-9.54707
▁coordinat	-9.54746
▁issuance	-9.54749
▁sexual	-9.54913
▁matara	-9.54915
▁composition	-9.54917
▁bills	-9.54938
▁leasing	-9.54958
▁ambi	-9.54962
▁cycle	-9.54964
▁reform	-9.55015
▁gathering	-9.55021
▁significant	-9.55121
▁whole	-9.55175
▁entry	-9.55197
▁bu	-9.55237
▁agalawatta	-9.55266
▁flags	-9.55308
▁producers	-9.55583
om	-9.55595
rium	-9.5562
▁developmental	-9.55876
▁range	-9.55891
▁half	-9.55962
istic	-9.56126
▁norms	-9.56127
▁advertisements	-9.56668
bility	-9.56694
▁purchased	-9.56764
▁sustain	-9.56846
▁2012,	-9.56874
▁then	-9.56889
▁namely	-9.56982
50	-9.57014
▁competitions	-9.57222
▁era	-9.57304
tor	-9.57479
▁bri	-9.58068
be	-9.58191
▁recording	-9.58322
▁innovati	-9.58391
▁changes	-9.5847
▁04.	-9.58654
▁cheques	-9.59091
ting	-9.59162
▁ga	-9.59275
▁me	-9.5937
si	-9.5976
▁contributions	-9.59849
▁emb	-9.59972
nayake	-9.60016
ise	-9.60193
▁maps	-9.6023
▁du	-9.60278
ner	-9.60378
▁format	-9.6058
▁die	-9.60672
▁telecasted	-9.60771
▁integr	-9.60787
▁trans	-9.61192
linear	-9.61359
▁anim	-9.61368
atic	-9.61427
▁mode	-9.61789
cumulative	-9.61837
▁others	-9.61858
▁graphic	-9.61903
▁norm	-9.62033
mail	-9.6222
reference	-9.62239
personal	-9.62287
▁unity	-9.62293
national	-9.62304
administration	-9.62319
▁risk	-9.62341
loss	-9.62364
▁immuni	-9.62477
these	-9.62478
▁ethic	-9.62573
raja	-9.62643
▁methods	-9.62659
mal	-9.62871
▁tour	-9.62895
read	-9.62899
▁cast	-9.6295
▁allocat	-9.63009
▁socio	-9.63154
▁para	-9.63185
▁engineer	-9.63238
▁holder	-9.63391
▁logic	-9.63427
let	-9.63624
▁via	-9.63925
▁complete	-9.63926
▁charit	-9.64053
ensity	-9.64068
▁reflect	-9.64232
▁separate	-9.64234
▁records	-9.64237
▁journal	-9.64238
▁attach	-9.64299
▁lay	-9.64326
sh	-9.64331
▁continuous	-9.64342
▁authoritative	-9.6439
▁calendar	-9.6439
▁criterion	-9.6439
▁equitable	-9.6439
▁hambantota	-9.6439
▁immediate	-9.6439
▁inventory	-9.6439
▁monument	-9.6439
▁preliminary	-9.6439
▁reconciliation	-9.6439
▁revolution	-9.6439
▁servitude	-9.6439
▁south	-9.6439
▁surekum	-9.6439
▁sytem	-9.6439
▁unforeseen	-9.6439
▁unilateral	-9.6439
▁vidyalaya	-9.6439
▁comparison	-9.6439
▁elector	-9.6439
▁macro	-9.6439
▁lack	-9.6439
▁maxim	-9.6439
▁remedy	-9.6439
▁subscription	-9.6439
▁eastern	-9.6439
▁gift	-9.6439
▁puja	-9.6439
▁southern	-9.6439
▁better	-9.6439
▁finish	-9.6439
▁premium	-9.6439
▁become	-9.64391
▁literacy	-9.64391
▁delay	-9.64391
▁discrimination	-9.64391
▁barrier	-9.64392
▁urgent	-9.64393
▁same	-9.64393
▁hypothesi	-9.64394
▁accommodation	-9.64394
▁exceed	-9.64395
▁tenure	-9.64396
▁quantitative	-9.64402
▁sponsorship	-9.64404
▁east	-9.64406
▁gender	-9.64406
▁companies	-9.64408
▁republic	-9.64409
▁strengthen	-9.64412
▁iron	-9.64415
▁benefitted	-9.64419
▁principal	-9.64425
▁scope	-9.64428
▁importance	-9.6443
▁deviation	-9.64435
thika	-9.64435
▁literar	-9.64441
▁alteration	-9.64448
▁neo	-9.64451
▁friend	-9.64452
▁assembl	-9.64465
▁conceptual	-9.64467
▁alienation	-9.645
▁stre	-9.64501
▁philosophy	-9.64519
▁verdict	-9.64519
▁peer	-9.64521
▁lapse	-9.64521
▁submission	-9.64548
▁diversity	-9.64585
▁heir	-9.64597
▁4.1	-9.6464
▁abuse	-9.64658
▁challenge	-9.64669
▁exception	-9.64674
▁rendered	-9.64691
▁participants	-9.64695
▁confidence	-9.64742
▁phase	-9.64742
▁variance	-9.64756
▁contribut	-9.64785
▁weekly	-9.64802
▁sole	-9.64803
cu	-9.64825
▁gap	-9.64845
▁promise	-9.64863
▁extended	-9.64874
▁instructors	-9.64894
▁reli	-9.64951
▁2.1.	-9.64981
▁indicated	-9.65003
▁independence	-9.65022
▁taxes	-9.6509
▁setting	-9.65237
▁late	-9.65295
▁here	-9.65322
▁holding	-9.65335
▁started	-9.6539
▁stall	-9.65417
▁logical	-9.65425
▁standing	-9.6546
ted	-9.65465
▁complaints	-9.65497
▁installments	-9.65497
▁09-	-9.65648
▁script	-9.65987
tha	-9.66228
co	-9.66234
▁parent	-9.66477
ph	-9.66817
▁accumulat	-9.66859
▁rest	-9.66904
ex	-9.66999
▁08.	-9.67035
▁iv	-9.67118
▁9.	-9.67426
▁seal	-9.6743
▁awarded	-9.67717
▁types	-9.68161
mania	-9.68234
ffective	-9.68307
ancy	-9.68324
▁youths	-9.68369
▁clinics	-9.6837
▁lot	-9.68447
iv	-9.6867
▁150	-9.68785
▁poll	-9.68907
▁festivals	-9.69625
▁debts	-9.69631
▁profits	-9.70047
directly	-9.70131
▁actions	-9.70146
▁sectors	-9.70259
▁factors	-9.70282
lum	-9.7031
▁leases	-9.705
▁ye	-9.70623
▁shares	-9.70684
▁bonds	-9.70684
▁10.	-9.71157
▁forms	-9.71457
14	-9.7168
▁compliance	-9.71722
▁bon	-9.71797
ja	-9.72062
io	-9.72085
▁provinces	-9.72402
▁banking	-9.72589
conduct	-9.72612
pe	-9.72839
▁ja	-9.73096
ever	-9.73196
▁plea	-9.73201
▁substanti	-9.73252
according	-9.73255
course	-9.73391
engineering	-9.73392
work	-9.73415
control	-9.73436
▁celebration	-9.73475
▁fraud	-9.73513
▁tape	-9.73597
▁article	-9.73634
▁protect	-9.73667
▁vis	-9.73701
▁photograph	-9.73722
divisional	-9.73753
▁manag	-9.73759
main	-9.73799
▁21	-9.73813
sel	-9.73923
▁depend	-9.7398
▁qua	-9.74105
▁donation	-9.74125
conducted	-9.74257
▁stand	-9.74365
▁but	-9.74413
▁author	-9.7445
▁select	-9.74524
▁ship	-9.74529
▁wi	-9.74585
▁origin	-9.74792
▁democra	-9.74821
▁analy	-9.74917
▁dimension	-9.74983
▁deliver	-9.75184
▁offer	-9.75187
▁writer	-9.75256
▁acquire	-9.7529
▁advis	-9.75333
▁contra	-9.75391
▁refund	-9.75406
▁competiti	-9.75424
▁strategi	-9.75427
▁extra	-9.75464
▁send	-9.75487
▁neutral	-9.75493
▁frame	-9.75495
▁aptitude	-9.75501
▁black	-9.75501
▁accuracy	-9.75501
▁attempt	-9.75501
▁doubt	-9.75501
▁encyclopedia	-9.75501
▁explanation	-9.75501
▁fundamental	-9.75501
▁inefficiencies	-9.75501
▁juvenile	-9.75501
▁killinochchi	-9.75501
▁manpower	-9.75501
▁outstanding	-9.75501
▁overseas	-9.75501
▁paradox	-9.75501
▁queries	-9.75501
▁scientific	-9.75501
▁seizure	-9.75501
▁societies	-9.75501
▁subsistence	-9.75501
▁uttama	-9.75501
▁volunteer	-9.75501
▁quiz	-9.75501
▁tacit	-9.75501
▁unclaimed	-9.75501
▁variety	-9.75501
▁lieu	-9.75501
▁strong	-9.75501
/12	-9.75501
▁booths	-9.75501
▁brief	-9.75501
▁gratitude	-9.75501
▁redemption	-9.75501
▁completion	-9.75501
▁moratuwa	-9.75501
▁northern	-9.75501
▁confidential	-9.75502
▁annuity	-9.75502
▁mega	-9.75504
▁tenement	-9.75504
▁motive	-9.75504
▁brain	-9.75505
▁interval	-9.75505
▁turnover	-9.75505
▁retention	-9.75506
▁advice	-9.75506
▁liquor	-9.75508
▁winners	-9.75508
▁ntv	-9.75508
▁presumption	-9.75509
▁mapping	-9.75512
▁matrix	-9.75515
▁2008	-9.75517
▁assumption	-9.7552
▁transferred	-9.75524
▁elementary	-9.75525
▁quarterly	-9.75526
▁2003	-9.75527
▁recognition	-9.75535
▁disaster	-9.75535
pruden	-9.75537
▁bench	-9.7554
▁endorsement	-9.75544
▁sovereignty	-9.75546
▁contest	-9.75547
▁layout	-9.75555
▁reversion	-9.75557
▁empower	-9.75557
▁announcement	-9.75558
▁probability	-9.75566
▁causal	-9.75567
▁confirmation	-9.75567
▁protest	-9.75572
▁selective	-9.75573
▁novel	-9.75588
▁modern	-9.75594
▁deductive	-9.75596
▁trustee	-9.75597
▁prevention	-9.75624
▁thus	-9.75634
▁pact	-9.75642
▁incurred	-9.75648
▁reproduction	-9.75663
▁duly	-9.75671
▁variable	-9.7568
▁aggregate	-9.75687
▁41	-9.75705
▁drive	-9.75706
▁possessory	-9.75711
▁lodging	-9.75716
▁inspector	-9.75722
▁attendance	-9.75738
▁censor	-9.7574
▁authorised	-9.75745
▁coexistence	-9.75753
▁decided	-9.7583
▁alerts	-9.75844
pala	-9.7585
▁publishing	-9.75858
▁birth	-9.75897
▁sight	-9.75902
▁disk	-9.75906
▁classical	-9.75918
▁expectation	-9.75918
▁slip	-9.75928
▁honor	-9.75929
▁methodology	-9.75948
▁san	-9.75972
▁alien	-9.76004
▁lateral	-9.76006
▁collected	-9.76033
▁mid	-9.76034
▁donors	-9.76068
▁documentation	-9.76086
▁aesthetic	-9.76147
▁generated	-9.76275
▁domin	-9.76324
▁conventional	-9.76342
▁retain	-9.76373
▁reasoning	-9.76439
▁settled	-9.76459
▁amendments	-9.76518
19	-9.7663
▁see	-9.76678
▁experimental	-9.7668
dic	-9.76687
▁old	-9.76827
▁formation	-9.7684
raw	-9.7691
zing	-9.7711
▁entr	-9.77225
▁user	-9.77272
▁credited	-9.774
▁op	-9.77409
▁photographs	-9.77429
nda	-9.77608
▁instrumental	-9.77722
▁reforms	-9.77827
▁notifications	-9.77892
gis	-9.77945
▁duplicate	-9.78075
▁54	-9.78121
▁creditors	-9.78121
▁grounds	-9.78352
▁theme	-9.78391
com	-9.78403
tish	-9.7877
lk	-9.7892
ran	-9.78956
hara	-9.79109
▁techniques	-9.792
mb	-9.79289
5.	-9.79508
▁ec	-9.79666
▁mi	-9.7995
▁projector	-9.79974
▁ul	-9.8051
▁75	-9.80552
▁stated	-9.81203
▁stamps	-9.81217
7.	-9.81299
▁""	-9.81361
ised	-9.81491
your	-9.8155
▁payables	-9.8165
mr	-9.81785
uch	-9.81814
rum	-9.81874
▁papers	-9.82125
▁12.	-9.82209
▁band	-9.82459
ward	-9.82668
rath	-9.82766
▁categoriz	-9.8285
▁existence	-9.82944
try	-9.83189
▁investments	-9.83333
ttle	-9.83378
▁draw	-9.83384
▁comprise	-9.8346
▁purposes	-9.83825
▁heads	-9.83927
lo	-9.84295
▁allegi	-9.84514
▁teledramas	-9.84558
wi	-9.84642
ard	-9.8467
▁continue	-9.84746
▁paying	-9.84766
▁houses	-9.84806
▁7	-9.85018
▁subjects	-9.85055
▁codes	-9.85551
▁produc	-9.85674
mark	-9.8578
ara	-9.85797
▁lecture	-9.85807
sunday	-9.85839
employment	-9.85841
niya	-9.85844
logy	-9.85883
half	-9.85885
colombo	-9.85923
provid	-9.85925
level	-9.8593
sinhala	-9.8593
▁journalist	-9.85935
housing	-9.85936
education	-9.85941
group	-9.85941
▁expert	-9.85947
og	-9.85976
eliya	-9.85979
▁particular	-9.86074
▁talent	-9.86079
▁symbol	-9.86085
▁wage	-9.86106
▁cassette	-9.86134
▁circle	-9.86134
▁marginal	-9.86261
oor	-9.86339
▁acc	-9.86386
tr	-9.86508
▁sensation	-9.86515
▁find	-9.86792
▁monitor	-9.8685
bank	-9.86903
dh	-9.86925
▁hold	-9.87105
8	-9.87362
▁transition	-9.87514
▁aids	-9.87554
killed	-9.8761
▁bio	-9.87616
goda	-9.87629
▁administrat	-9.87813
▁--	-9.87833
▁memo	-9.87837
▁authentic	-9.87853
▁nominat	-9.87868
▁prevent	-9.87874
▁excess	-9.8792
▁civi	-9.87931
▁prospect	-9.87936
▁defect	-9.87941
▁probation	-9.87949
▁avoid	-9.87956
▁vacanc	-9.87969
▁guard	-9.8798
▁tutor	-9.87982
▁quantit	-9.87995
phobia	-9.88
▁just	-9.88
▁perfect	-9.88001
▁abnormal	-9.88001
▁academy	-9.88001
▁agricultural	-9.88001
▁agriculture	-9.88001
▁circuit	-9.88001
▁club	-9.88001
▁cohesion	-9.88001
▁countries	-9.88001
▁custody	-9.88001
▁endowment	-9.88001
▁faculty	-9.88001
▁junior	-9.88001
▁mawatha	-9.88001
▁quantum	-9.88001
▁refreshment	-9.88001
▁safeguard	-9.88001
▁sanitary	-9.88001
▁statistics	-9.88001
▁surrender	-9.88001
▁tendency	-9.88001
▁trespass	-9.88001
▁undertaking	-9.88001
▁campaign	-9.88001
▁fiscal	-9.88001
▁illusion	-9.88001
▁recreation	-9.88001
▁column	-9.88001
▁modification	-9.88001
▁vesak	-9.88001
▁quiet	-9.88001
▁absence	-9.88001
▁memoranda	-9.88001
▁binding	-9.88001
▁internet	-9.88001
▁plaintiff	-9.88001
▁apply	-9.88001
▁migrat	-9.88001
▁songs	-9.88002
▁ayubowan	-9.88002
▁prison	-9.88002
▁guest	-9.88002
▁nethra	-9.88002
▁universities	-9.88002
▁before	-9.88002
▁impression	-9.88003
.08.2014	-9.88003
▁random	-9.88003
▁01/01/201	-9.88003
▁conversation	-9.88004
▁terminal	-9.88005
▁fault	-9.88005
▁coating	-9.88007
▁classifi	-9.88009
▁hearing	-9.88009
▁dangerous	-9.88009
▁fuel	-9.88011
▁1971	-9.88018
▁liberty	-9.88019
▁guardian	-9.88021
▁normative	-9.88021
▁sociology	-9.88023
minee	-9.88023
▁theories	-9.88025
▁subordinate	-9.88025
▁differential	-9.88034
▁rank	-9.88037
nisa	-9.88039
▁lotter	-9.88045
▁cultivation	-9.88048
▁interaction	-9.88048
▁variation	-9.8806
▁naval	-9.88065
responsibilities	-9.88066
▁dissemination	-9.88066
▁clearance	-9.88072
▁colonial	-9.88076
▁concurrent	-9.88079
▁membership	-9.88087
▁reception	-9.88107
▁structural	-9.88108
▁grace	-9.8811
▁useful	-9.88123
▁safe	-9.88129
▁consultant	-9.88131
▁crime	-9.88166
▁deterioration	-9.88166
▁galnewa	-9.88166
▁harmony	-9.88166
▁precedent	-9.88166
elecommunication	-9.88171
▁defendant	-9.88176
▁disposition	-9.88188
▁sex	-9.8819
▁makeup	-9.88195
▁earth	-9.88206
▁territory	-9.88207
▁honour	-9.8821
▁nomination	-9.88224
▁computerization	-9.88271
▁toll	-9.88286
▁seniority	-9.88294
▁limitation	-9.883
▁myth	-9.88313
▁equality	-9.88325
▁respectively	-9.88344
▁meta	-9.88374
press	-9.88403
▁majority	-9.88408
▁reinforce	-9.88441
▁surety	-9.88453
officio	-9.88474
▁pair	-9.88482
▁confirmed	-9.88498
▁empowerment	-9.88554
▁cue	-9.88611
▁ante	-9.88611
▁utiliz	-9.88624
▁medals	-9.88647
▁elements	-9.88649
wela	-9.8872
▁gardening	-9.88727
▁accused	-9.88735
▁preserv	-9.88736
▁electric	-9.88748
▁load	-9.88755
▁parental	-9.88757
rs	-9.88798
▁consideration	-9.88834
▁spirits	-9.88906
▁now	-9.88986
▁agr	-9.89017
▁equivalents	-9.89164
▁locations	-9.89164
▁applicants	-9.89164
▁instances	-9.89184
▁citizens	-9.89425
▁th	-9.8947
▁essays	-9.89685
▁reasons	-9.89707
▁commemorate	-9.89893
ination	-9.89935
ally	-9.90139
▁tapes	-9.90208
▁covered	-9.90305
▁evaluat	-9.90412
▁rental	-9.90487
▁lighting	-9.90524
▁11-	-9.90591
▁pages	-9.90747
▁leaders	-9.90762
min	-9.90781
▁lives	-9.9091
▁goals	-9.90997
gy	-9.91428
▁bas	-9.91437
men	-9.91439
▁facilitate	-9.91554
▁tri	-9.91807
mman	-9.92078
ill	-9.92147
▁rec	-9.92204
▁testimon	-9.92566
▁imp	-9.92918
▁05.	-9.9303
maha	-9.9304
▁pot	-9.9326
ff	-9.93676
aru	-9.93702
rm	-9.93812
▁councils	-9.93826
▁heading	-9.94
▁rang	-9.94217
ip	-9.94365
ator	-9.94418
▁log	-9.9446
▁col	-9.94635
▁manufactur	-9.94702
▁60	-9.94774
▁cinema	-9.95464
▁whi	-9.95514
going	-9.95639
state	-9.96073
media	-9.96107
70	-9.9613
▁fe	-9.96144
▁outd	-9.96402
tances	-9.96477
gar	-9.96838
ement	-9.96865
gala	-9.96884
rd	-9.97227
▁assign	-9.97372
pp	-9.97562
dom	-9.97572
gi	-9.98163
taining	-9.98324
go	-9.98443
25	-9.98454
ception	-9.98579
▁cont	-9.98684
▁2013.	-9.98734
▁facilitat	-9.98894
lation	-9.98909
▁sur	-9.99076
▁reason	-9.99079
cultural	-9.99135
▁determine	-9.99408
house	-9.99484
▁naturalis	-9.99699
▁li	-9.99721
▁buddha	-9.99724
ize	-9.99825
▁measure	-9.99836
script	-9.99956
nuwara	-10.0007
movable	-10.0007
residential	-10.0007
head	-10.0013
ethnic	-10.0018
marketing	-10.002
wide	-10.002
economic	-10.0021
"""	-10.0027
order	-10.0028
▁commitment	-10.0029
▁difference	-10.0036
▁minute	-10.0037
▁fine	-10.0037
▁essay	-10.0038
▁remark	-10.0038
▁expense	-10.005
gen	-10.0062
phone	-10.0064
▁producer	-10.0086
▁2.2	-10.0104
▁quo	-10.0111
centric	-10.0119
ali	-10.0131
▁appoint	-10.0141
▁build	-10.0149
▁blu	-10.0157
unch	-10.0166
/2014	-10.017
▁generat	-10.0174
rit	-10.0179
▁observ	-10.0191
▁null	-10.0194
▁suppli	-10.0194
▁laten	-10.0205
archy	-10.0207
▁own	-10.0211
▁specifi	-10.0212
▁liquid	-10.0213
▁ambigu	-10.0214
▁marine	-10.0216
▁reject	-10.0217
▁causa	-10.0225
q	-10.0225
▁defam	-10.0228
covenant	-10.0229
▁absurd	-10.0229
▁ancillary	-10.0229
▁belief	-10.0229
▁blank	-10.0229
▁closing	-10.0229
▁cluster	-10.0229
▁composite	-10.0229
▁conciliation	-10.0229
▁consecutive	-10.0229
▁convergent	-10.0229
▁dishonour	-10.0229
▁distress	-10.0229
▁disturbance	-10.0229
▁emancipation	-10.0229
▁enactment	-10.0229
▁exercise	-10.0229
▁exposure	-10.0229
▁fellowship	-10.0229
▁invention	-10.0229
▁judgment	-10.0229
▁jutice	-10.0229
▁manifest	-10.0229
▁overdraft	-10.0229
▁pictorial	-10.0229
▁prerogative	-10.0229
▁qualitative	-10.0229
▁resolution	-10.0229
▁sampling	-10.0229
▁scheduling	-10.0229
▁shock	-10.0229
▁streaming	-10.0229
▁sufficient	-10.0229
▁surveillance	-10.0229
▁unqualified	-10.0229
▁unusual	-10.0229
▁wellawaya	-10.0229
▁ascertain	-10.0229
▁concert	-10.0229
▁crisis	-10.0229
▁dedication	-10.0229
▁orphan	-10.0229
▁uncertain	-10.0229
▁clean	-10.0229
▁female	-10.0229
▁large	-10.0229
▁pasala	-10.0229
▁suggestion	-10.0229
▁utility	-10.0229
▁proxy	-10.0229
▁pirith	-10.0229
▁malice	-10.0229
▁royal	-10.0229
▁compound	-10.0229
▁indemnity	-10.0229
▁caveat	-10.0229
▁legitimate	-10.0229
▁ballot	-10.0229
▁pending	-10.0229
▁strict	-10.0229
▁libel	-10.0229
▁enrichment	-10.0229
▁unreasonable	-10.0229
▁climate	-10.0229
▁requisite	-10.023
▁eligible	-10.023
▁omission	-10.023
▁celebrate	-10.023
▁delegation	-10.023
▁speed	-10.023
▁viewership	-10.023
▁recall	-10.023
▁earnings	-10.023
▁suffer	-10.0231
▁blindness	-10.0231
▁distance	-10.0231
▁solving	-10.0231
▁backward	-10.0231
▁export	-10.0231
▁legislature	-10.0231
▁passara	-10.0231
▁beneficiary	-10.0232
▁monopoly	-10.0232
▁near	-10.0232
▁suspension	-10.0232
▁distinct	-10.0232
▁wish	-10.0232
▁agenda	-10.0232
▁automat	-10.0232
▁undertaken	-10.0233
▁unconditional	-10.0233
▁discourse	-10.0233
▁entries	-10.0233
▁organisation	-10.0233
▁cancellation	-10.0234
▁benevolent	-10.0234
▁sentimental	-10.0234
▁competence	-10.0234
▁loose	-10.0234
▁unpaid	-10.0235
▁treatment	-10.0235
depth	-10.0235
▁undivided	-10.0235
▁maturity	-10.0236
▁publisher	-10.0236
▁consultation	-10.0237
▁stability	-10.0239
▁proposed	-10.024
▁demarcation	-10.0241
▁systematic	-10.0241
▁bak	-10.0242
▁renewal	-10.0243
▁mother	-10.0243
▁spot	-10.0243
reach	-10.0245
▁phenomen	-10.0247
▁enti	-10.0247
▁farm	-10.0248
▁commerce	-10.0248
▁deficit	-10.0248
▁derivative	-10.0248
▁didactic	-10.0248
▁foster	-10.0248
▁propriet	-10.0248
▁integrated	-10.0248
▁synthesis	-10.0248
▁wheel	-10.025
▁conformity	-10.0253
▁guilty	-10.0255
▁treaty	-10.0255
▁offices	-10.0256
▁roman	-10.0256
▁receiver	-10.0257
clusive	-10.0258
▁sep	-10.0259
▁efficiently	-10.026
▁population	-10.026
▁incorporation	-10.026
▁entertain	-10.0263
born	-10.0263
▁won	-10.0266
marital	-10.0266
▁past	-10.0267
▁continuity	-10.0271
avuru	-10.0275
▁anthropolog	-10.0279
▁organic	-10.0283
▁dict	-10.0283
▁effectively	-10.0284
▁context	-10.0284
les	-10.0295
▁earned	-10.0299
▁consequences	-10.0304
▁mandate	-10.0305
similarly	-10.0309
▁tracking	-10.0313
▁chancellor	-10.0317
▁belonging	-10.0332
▁figures	-10.0334
▁diseases	-10.0334
▁drugs	-10.0334
▁printer	-10.0337
▁parts	-10.0345
iii	-10.0351
▁thought	-10.0352
▁prima	-10.0355
▁communal	-10.0357
▁tort	-10.0362
▁officials	-10.0363
side	-10.0364
▁socialization	-10.0365
▁drawing	-10.0375
ko	-10.0384
▁released	-10.0388
▁duration	-10.0398
▁executor	-10.04
tte	-10.0402
▁sensational	-10.0406
asana	-10.0406
▁warranty	-10.0409
▁casting	-10.0409
▁allocate	-10.0414
sation	-10.0417
▁differences	-10.0425
▁minutes	-10.0425
▁fines	-10.0425
▁theatre	-10.0446
▁manage	-10.0447
sine	-10.0447
▁talents	-10.0456
▁particulars	-10.0456
▁lectures	-10.0456
▁movable	-10.0459
▁200	-10.048
andi	-10.0485
▁kind	-10.0491
▁05-	-10.0523
▁conditioning	-10.0537
agala	-10.0547
▁stamped	-10.0554
▁overt	-10.0563
▁ku	-10.057
▁encourag	-10.0575
set	-10.0587
▁ar	-10.0596
▁reviewing	-10.0598
▁lankans	-10.0609
▁importan	-10.0623
ib	-10.0627
gal	-10.0633
▁animat	-10.0639
▁van	-10.0651
▁died	-10.0657
rage	-10.0657
▁newspapers	-10.0703
▁val	-10.0726
hi	-10.0726
uda	-10.0782
▁abu	-10.081
87	-10.0825
▁mu	-10.0828
▁instruments	-10.0836
▁rath	-10.0837
▁formula	-10.0845
divided	-10.0851
itur	-10.086
▁barr	-10.0875
▁read	-10.0888
▁returns	-10.0893
print	-10.09
▁estimat	-10.0904
▁religions	-10.0925
04	-10.0933
▁mon	-10.0972
junction	-10.0993
hal	-10.0993
non	-10.0997
▁tr	-10.0997
▁worth	-10.102
▁causes	-10.1022
though	-10.1023
rix	-10.1041
rent	-10.1051
78	-10.1065
uru	-10.1072
gu	-10.1128
▁leg	-10.1142
▁jaya	-10.1161
▁impe	-10.1167
▁10,	-10.1168
▁levels	-10.118
till	-10.1197
▁pe	-10.12
.12.2014	-10.1204
nayaka	-10.1209
got	-10.1213
▁investigat	-10.1226
alism	-10.124
term	-10.1285
▁hi	-10.1296
▁kal	-10.131
dia	-10.1324
▁ke	-10.1363
che	-10.1378
wewa	-10.1385
▁licenses	-10.1385
tim	-10.1386
rom	-10.1416
▁numbers	-10.1444
▁indicat	-10.1462
▁met	-10.1467
school	-10.1475
air	-10.1488
86	-10.1496
wala	-10.1499
▁2015.	-10.1536
▁ya	-10.1538
▁mor	-10.1572
▁accordingly	-10.1591
ductive	-10.1596
ged	-10.1615
tu	-10.162
▁idea	-10.1636
gram	-10.1637
▁artist	-10.1637
anama	-10.1643
viru	-10.1654
▁rana	-10.1656
▁errors	-10.1659
graduate	-10.166
train	-10.1666
tangible	-10.1666
siri	-10.1672
theatre	-10.1674
generation	-10.1674
assist	-10.1684
paid	-10.1685
style	-10.1686
after	-10.1686
zonal	-10.1688
progress	-10.1688
2012	-10.1689
development	-10.169
▁proposal	-10.1691
ground	-10.1693
information	-10.1696
▁pooja	-10.1701
▁citizen	-10.1702
▁kin	-10.1702
▁installment	-10.1707
▁park	-10.1709
▁recommendation	-10.1716
▁complaint	-10.1717
▁detail	-10.172
▁prize	-10.1734
▁opera	-10.1735
▁ensur	-10.174
▁3.4	-10.1753
▁approv	-10.1759
▁levy	-10.1761
▁recover	-10.1767
▁offici	-10.1779
fulness	-10.1779
▁proportion	-10.1787
▁similar	-10.1801
▁exp	-10.1811
amy	-10.1812
▁belong	-10.1814
▁extend	-10.1814
▁ta	-10.1819
▁mater	-10.183
▁apprais	-10.1832
▁positiv	-10.1834
▁margin	-10.1834
▁verb	-10.1837
▁economics	-10.1843
▁update	-10.1845
▁difficult	-10.1853
▁region	-10.1858
▁beat	-10.1862
▁settle	-10.187
▁deduct	-10.1874
▁collect	-10.1879
▁consign	-10.188
▁01.01.201	-10.1881
▁demarcat	-10.1881
live	-10.1882
▁stop	-10.1884
▁recognize	-10.1884
▁announce	-10.1887
▁vindicat	-10.1888
▁discretion	-10.1889
▁narrat	-10.189
▁hybrid	-10.1891
▁appear	-10.1891
▁strength	-10.1891
▁apprentice	-10.1892
truction	-10.1893
siastic	-10.1895
▁broad	-10.1895
▁abroad	-10.1895
nuptial	-10.1895
saturday	-10.1895
slfrs	-10.1895
▁31/12/201	-10.1895
▁advantage	-10.1895
▁affidavit	-10.1895
▁applicable	-10.1895
▁aspect	-10.1895
▁assitant	-10.1895
▁bankruptcy	-10.1895
▁burden	-10.1895
▁canvass	-10.1895
▁christ	-10.1895
▁conclusion	-10.1895
▁conveyance	-10.1895
▁denomination	-10.1895
▁devolution	-10.1895
▁dream	-10.1895
▁empirical	-10.1895
▁evolution	-10.1895
▁fabrication	-10.1895
▁foot	-10.1895
▁holistic	-10.1895
▁hypothetical	-10.1895
▁identical	-10.1895
▁impairment	-10.1895
▁necessity	-10.1895
▁nugedolawatt	-10.1895
▁olympic	-10.1895
▁paradigm	-10.1895
▁possibility	-10.1895
▁quick	-10.1895
▁railway	-10.1895
▁reflex	-10.1895
▁removal	-10.1895
▁resignation	-10.1895
▁routine	-10.1895
▁sacrifice	-10.1895
▁secrecy	-10.1895
▁significance	-10.1895
▁supervisor	-10.1895
▁technician	-10.1895
▁tobacco	-10.1895
▁traffic	-10.1895
▁uninterrupted	-10.1895
▁unlimited	-10.1895
▁updating	-10.1895
▁withdrawal	-10.1895
▁antenna	-10.1895
▁cartoon	-10.1895
▁cell	-10.1895
▁discovery	-10.1895
▁fittings	-10.1895
▁gratification	-10.1895
▁kurunagala	-10.1895
▁married	-10.1895
▁perpetu	-10.1895
▁prompt	-10.1895
▁supra	-10.1895
▁unique	-10.1895
▁worship	-10.1895
▁appellate	-10.1895
▁contingencies	-10.1895
▁ultra	-10.1895
▁wilful	-10.1895
▁"8.2.	-10.1895
▁cloth	-10.1895
▁storage	-10.1895
▁tickets	-10.1895
▁wellbeing	-10.1895
▁declaratory	-10.1895
▁output	-10.1895
www	-10.1895
▁drain	-10.1895
▁breakdown	-10.1895
▁patent	-10.1895
▁unsound	-10.1895
▁extent	-10.1895
▁volume	-10.1895
▁encumbrance	-10.1895
▁oct	-10.1895
▁artificial	-10.1895
▁taste	-10.1895
▁effectual	-10.1896
▁mortis	-10.1896
▁admir	-10.1896
gammana	-10.1896
▁outcome	-10.1896
▁obligatory	-10.1896
.11.2011	-10.1896
▁inquiries	-10.1896
▁failure	-10.1896
▁residence	-10.1896
▁admissible	-10.1896
▁rajagiriya	-10.1896
▁greeting	-10.1896
▁stimulus	-10.1896
▁sudden	-10.1896
▁dispar	-10.1896
rcen	-10.1896
▁cease	-10.1896
▁comedy	-10.1896
▁imposed	-10.1896
▁violation	-10.1896
▁derive	-10.1896
▁securities	-10.1896
▁descen	-10.1896
▁confine	-10.1896
▁acknowledgement	-10.1896
▁objectivity	-10.1896
▁legitimacy	-10.1896
▁defens	-10.1897
▁desert	-10.1897
apon	-10.1897
▁town	-10.1897
▁consequential	-10.1897
▁wheelers	-10.1897
▁suppliers	-10.1897
▁communities	-10.1897
▁wave	-10.1897
▁suspend	-10.1897
.09.2014	-10.1897
▁broker	-10.1897
▁nervous	-10.1897
▁exhaust	-10.1897
▁quit	-10.1898
▁mistake	-10.1898
▁restitution	-10.1898
▁dubb	-10.1898
▁proposition	-10.1898
▁explosion	-10.1898
▁escape	-10.1899
▁cooperation	-10.1899
▁fire	-10.1899
▁conversion	-10.1899
▁competency	-10.1899
▁disposable	-10.1899
▁plot	-10.19
▁archive	-10.19
▁excus	-10.19
▁decline	-10.1901
▁wall	-10.1901
▁undisclosed	-10.1902
▁device	-10.1902
▁renovation	-10.1902
▁reliability	-10.1902
▁propaganda	-10.1902
▁accent	-10.1902
▁ngo	-10.1902
▁wire	-10.1902
▁fax	-10.1903
▁bonus	-10.1903
▁defective	-10.1903
▁discretionary	-10.1904
▁certified	-10.1904
mulla	-10.1906
▁restraint	-10.1906
▁adoption	-10.1907
▁span	-10.1907
tus	-10.1909
▁36	-10.1909
▁claimant	-10.191
▁boundary	-10.1911
▁attachment	-10.1911
▁remedial	-10.1913
▁reply	-10.1913
▁suspense	-10.1913
▁automatic	-10.1914
▁negligent	-10.1914
▁merchant	-10.1915
▁candidate	-10.1915
▁pluralism	-10.1915
▁faith	-10.1916
▁puwath	-10.1918
▁accurate	-10.1918
▁glossaries	-10.1918
▁ibbagamuwa	-10.1918
▁kekirawa	-10.1918
▁shift	-10.1918
▁satisfaction	-10.1918
▁beginning	-10.1919
▁delict	-10.1919
etic	-10.192
▁adaptation	-10.192
▁employer	-10.192
uge	-10.192
▁ecc	-10.1921
▁monarch	-10.1921
▁integrity	-10.1921
▁earn	-10.1921
▁payee	-10.1921
▁hard	-10.1922
▁exc	-10.1923
▁examine	-10.1923
▁summon	-10.1924
▁accessory	-10.1925
▁prosecution	-10.1925
▁native	-10.1926
▁put	-10.1927
▁allegation	-10.1931
▁missionary	-10.1931
▁commun	-10.1931
▁revealed	-10.1934
▁ultimate	-10.1937
▁effectiveness	-10.1938
▁revised	-10.1942
▁autonom	-10.1943
▁appendi	-10.1944
▁1.2.2	-10.1944
▁consensus	-10.1947
▁indicators	-10.195
▁stationery	-10.195
▁emp	-10.1957
▁closure	-10.1958
▁subjective	-10.1963
▁voter	-10.1963
▁adopted	-10.1965
▁66	-10.1967
▁look	-10.1967
kulam	-10.1968
▁courts	-10.1975
▁ski	-10.1975
atory	-10.1976
▁allow	-10.1982
▁games	-10.1986
▁pursu	-10.1997
▁dev	-10.1999
▁consistency	-10.2002
▁keeper	-10.2005
iness	-10.2013
▁specialist	-10.2015
▁mala	-10.2024
giriya	-10.2034
▁enable	-10.2038
ite	-10.2041
▁racial	-10.2042
▁taxable	-10.2042
thematic	-10.2046
▁accidental	-10.2056
▁tail	-10.2056
(2)	-10.206
▁version	-10.2061
▁finding	-10.2065
getting	-10.2065
logue	-10.2068
▁offering	-10.2087
▁poojas	-10.2094
▁ideas	-10.2096
▁taxation	-10.2101
join	-10.2104
▁ei	-10.2117
▁16-	-10.2118
▁4.2	-10.212
▁doctors	-10.2122
apur	-10.2123
▁communicat	-10.213
bu	-10.2142
▁regi	-10.2161
hira	-10.2168
dum	-10.2171
▁capitaliz	-10.2182
▁siri	-10.2193
duction	-10.2196
▁viru	-10.2205
▁dys	-10.2242
▁mas	-10.2244
▁cart	-10.2255
▁calling	-10.2256
meter	-10.2271
ticism	-10.2286
communication	-10.2293
▁raja	-10.2294
▁eu	-10.2298
ster	-10.2313
▁leas	-10.2317
▁assigne	-10.2331
▁sol	-10.2356
▁alleg	-10.239
endi	-10.2403
▁ti	-10.2416
▁allocations	-10.2428
▁lessons	-10.2428
onment	-10.2457
▁07.	-10.2469
▁flag	-10.2473
▁sl	-10.2489
antha	-10.2504
08	-10.2508
▁opened	-10.2513
amma	-10.2514
cul	-10.2521
▁fl	-10.2522
▁facts	-10.2544
▁13.	-10.2599
▁sheets	-10.2619
▁discussions	-10.2619
3)	-10.2622
▁pra	-10.2628
racy	-10.2642
was	-10.2654
hand	-10.2668
▁penalt	-10.2689
▁valued	-10.2702
▁involve	-10.2704
▁2.2.	-10.2709
▁pri	-10.2724
▁impri	-10.2737
▁stri	-10.2763
ranga	-10.2768
ture	-10.2777
▁opening	-10.281
disclosed	-10.2823
test	-10.2831
▁fi	-10.2845
▁jum	-10.2845
char	-10.2848
▁sections	-10.2854
▁claims	-10.2854
shop	-10.2887
annu	-10.2893
rv	-10.2908
position	-10.291
▁mediate	-10.2912
▁disc	-10.2928
vert	-10.2929
▁ne	-10.2934
▁amounted	-10.2942
▁capture	-10.2947
arum	-10.2958
▁images	-10.2973
lag	-10.2974
▁dates	-10.298
27	-10.2985
▁dialogues	-10.3013
bus	-10.3035
▁bound	-10.3039
▁ana	-10.3042
▁studios	-10.3053
▁warrants	-10.3058
▁recita	-10.3083
▁rev	-10.3084
rious	-10.3086
stra	-10.3093
▁jobs	-10.3094
▁"4	-10.3107
omy	-10.3112
▁corporations	-10.3119
dp	-10.3125
.10	-10.3134
tation	-10.3158
ber	-10.3161
▁reg	-10.3179
▁vet	-10.3181
▁deal	-10.3181
▁promis	-10.3185
ometer	-10.3198
2.	-10.3204
equ	-10.3249
▁cap	-10.3254
subsequently	-10.3271
▁directing	-10.3286
▁tran	-10.3294
▁id	-10.3294
▁you	-10.3313
▁interactiv	-10.3322
ender	-10.3343
ten	-10.3349
ariya	-10.3377
ump	-10.3383
old	-10.3384
▁wild	-10.3392
▁preserve	-10.3408
ba	-10.3409
lease	-10.3417
▁adult	-10.3418
▁abet	-10.3427
▁sav	-10.344
ivity	-10.3457
oy	-10.3463
▁tables	-10.3463
▁procedures	-10.3466
phon	-10.3466
▁evaluate	-10.3507
▁gang	-10.3512
22	-10.3524
▁med	-10.3536
▁ten	-10.3542
▁formulate	-10.355
▁hu	-10.3565
ution	-10.3576
pla	-10.36
dated	-10.3609
ops	-10.3611
▁jo	-10.3624
well	-10.3628
division	-10.3628
ways	-10.3634
▁chat	-10.366
hoc	-10.3661
mission	-10.3662
4.	-10.3667
determination	-10.3671
suwa	-10.3673
28	-10.3676
conscious	-10.3676
writer	-10.3678
correct	-10.3682
registerd	-10.3684
▁trend	-10.3684
allowances	-10.3684
ond	-10.3685
verbal	-10.3685
section	-10.3686
visual	-10.3687
point	-10.3687
making	-10.3688
among	-10.3688
▁governor	-10.3688
foreign	-10.3688
finance	-10.3688
committee	-10.3689
board	-10.3689
▁gather	-10.3689
rate	-10.3691
▁dynamic	-10.3691
since	-10.3695
through	-10.3698
▁siva	-10.3698
▁doctor	-10.37
▁instance	-10.3706
▁solution	-10.3707
centered	-10.3711
fee	-10.3711
▁premise	-10.3711
action	-10.3718
▁enterprise	-10.3721
▁applicant	-10.3724
▁computers	-10.3724
▁gate	-10.3737
zation	-10.3744
▁sw	-10.3746
▁retir	-10.3748
▁learn	-10.3753
▁location	-10.3757
▁asia	-10.3763
▁teach	-10.3763
pitiya	-10.3764
▁commu	-10.3766
▁enabl	-10.3769
▁convention	-10.3769
▁requirement	-10.377
▁3.3	-10.3772
▁track	-10.3775
▁garden	-10.3776
▁equivalent	-10.3782
▁specification	-10.3786
▁submit	-10.3793
▁designer	-10.3795
▁counsel	-10.3795
▁sue	-10.3797
▁adopt	-10.3797
▁3.2	-10.3798
▁confirm	-10.3801
programmes	-10.3802
▁sponsor	-10.3804
▁surveyor	-10.3822
▁virtu	-10.3828
▁attest	-10.383
▁optic	-10.3835
▁port	-10.3836
▁receive	-10.3837
▁emotion	-10.384
onomy	-10.3841
▁amendment	-10.3841
▁gover	-10.3843
mana	-10.3848
▁buil	-10.385
▁commence	-10.3852
ected	-10.3852
roga	-10.3854
rough	-10.3856
▁guilt	-10.3858
▁binar	-10.386
▁possessor	-10.3868
▁kat	-10.3871
watta	-10.3871
▁negligen	-10.3873
vity	-10.3873
▁divers	-10.3876
▁"1.2.	-10.3877
lock	-10.3879
aragama	-10.3881
▁trait	-10.3881
▁televis	-10.3883
▁exhibit	-10.3883
▁syllabus	-10.3886
▁alter	-10.3886
▁again	-10.3888
▁nava	-10.389
partite	-10.389
companie	-10.3892
▁deficienc	-10.3892
▁radi	-10.3893
hibition	-10.3893
▁arch	-10.3893
▁temporal	-10.3893
▁behavio	-10.3894
▁absor	-10.3894
uku	-10.3894
arian	-10.3894
▁turn	-10.3895
▁winn	-10.3895
▁quota	-10.3895
▁plaint	-10.3895
quilib	-10.3895
▁blame	-10.3895
▁phrase	-10.3895
.06.2014	-10.3895
walbotale	-10.3895
▁accreditation	-10.3895
▁akuressa	-10.3895
▁anxiety	-10.3895
▁apparatus	-10.3895
▁appoinment	-10.3895
▁apportion	-10.3895
▁balangoda	-10.3895
▁certify	-10.3895
▁chamber	-10.3895
▁chapter	-10.3895
▁condemn	-10.3895
▁deprivation	-10.3895
▁dishonest	-10.3895
▁dormant	-10.3895
▁easement	-10.3895
▁ejectment	-10.3895
▁encounter	-10.3895
▁enjoy	-10.3895
▁equatorial	-10.3895
▁extreme	-10.3895
▁food	-10.3895
▁fruit	-10.3895
▁hierarchical	-10.3895
▁imbalance	-10.3895
▁installation	-10.3895
▁installed	-10.3895
▁intimacy	-10.3895
▁inventories	-10.3895
▁irrigation	-10.3895
▁magistrate	-10.3895
▁mainstream	-10.3895
▁neglect	-10.3895
▁obsolete	-10.3895
▁peremptory	-10.3895
▁prescriptive	-10.3895
▁propagation	-10.3895
▁quarantine	-10.3895
▁rectify	-10.3895
▁restrospective	-10.3895
▁rigid	-10.3895
▁scatter	-10.3895
▁servant	-10.3895
▁servien	-10.3895
▁smooth	-10.3895
▁superiendent	-10.3895
▁theoretical	-10.3895
▁topographic	-10.3895
▁treason	-10.3895
▁unauthorised	-10.3895
▁unrepresented	-10.3895
▁uplift	-10.3895
▁utilitarian	-10.3895
▁widow	-10.3895
▁japan	-10.3895
▁lyric	-10.3895
▁pradesh	-10.3895
▁pupil	-10.3895
▁valuable	-10.3895
▁what	-10.3895
friday	-10.3895
▁possible	-10.3895
▁slide	-10.3895
▁accelerat	-10.3895
▁convict	-10.3895
▁actress	-10.3895
▁entrusted	-10.3895
▁federal	-10.3895
▁quarr	-10.3895
▁selling	-10.3895
▁assests	-10.3895
▁elite	-10.3895
▁evict	-10.3895
▁pecuniary	-10.3895
▁prescription	-10.3895
▁trace	-10.3895
sphere	-10.3895
▁queen	-10.3895
▁constant	-10.3895
▁admit	-10.3895
▁purview	-10.3895
▁dissolution	-10.3895
▁detain	-10.3895
▁pili	-10.3895
▁nisi	-10.3895
▁dress	-10.3895
▁evil	-10.3895
▁sick	-10.3895
▁literal	-10.3895
▁paternal	-10.3895
▁craftsmen	-10.3896
▁chronological	-10.3896
▁procur	-10.3896
▁authoritarian	-10.3896
▁nominal	-10.3896
▁discontinu	-10.3896
▁adventure	-10.3896
▁controller	-10.3896
▁advocacy	-10.3896
▁pilgrimage	-10.3896
▁dissenting	-10.3896
▁horana	-10.3896
pongal	-10.3896
▁vault	-10.3896
▁martial	-10.3896
▁omni	-10.3896
▁consumption	-10.3896
▁conscience	-10.3896
▁immunization	-10.3896
▁substitution	-10.3896
▁epistem	-10.3896
▁licensing	-10.3896
▁mihira	-10.3896
▁assize	-10.3896
▁sabha	-10.3896
▁fisher	-10.3896
▁deaf	-10.3896
▁prudent	-10.3896
gamuwa	-10.3896
▁bribery	-10.3896
▁industries	-10.3896
▁operator	-10.3896
▁input	-10.3896
▁wimala	-10.3896
▁ministers	-10.3896
▁punctual	-10.3896
▁fields	-10.3896
▁oppress	-10.3896
▁filing	-10.3897
▁resistance	-10.3897
▁stoppage	-10.3897
▁ceiling	-10.3897
▁multilateral	-10.3897
▁monast	-10.3897
▁compassion	-10.3897
▁arbitration	-10.3897
▁pronounce	-10.3897
▁partition	-10.3898
ibility	-10.3898
▁priest	-10.3898
▁numerical	-10.3898
ordination	-10.3898
▁levi	-10.3898
▁bodies	-10.3898
▁lord	-10.3898
▁testimonial	-10.3898
▁complementary	-10.3898
▁antecedent	-10.3898
▁devise	-10.3898
▁telegraph	-10.3898
▁slow	-10.3898
▁fitness	-10.3898
▁ward	-10.3898
▁cater	-10.3898
▁allotment	-10.3898
▁planned	-10.3899
qui	-10.3899
▁katha	-10.3899
factual	-10.3899
curricul	-10.39
▁termination	-10.39
▁exposition	-10.39
▁magnet	-10.39
kumar	-10.39
▁mandatory	-10.39
▁demonstration	-10.39
▁leaf	-10.39
▁postponement	-10.39
▁silence	-10.3901
▁appearance	-10.3901
▁brand	-10.3901
▁characteristic	-10.3901
▁deadline	-10.3901
▁2005	-10.3902
▁safety	-10.3902
▁vendor	-10.3902
▁deport	-10.3903
▁thir	-10.3903
▁contempt	-10.3903
▁reciprocal	-10.3903
▁connot	-10.3903
▁modulation	-10.3903
▁appreciation	-10.3903
gress	-10.3903
▁mention	-10.3904
▁preview	-10.3904
▁compression	-10.3904
▁otherwise	-10.3904
▁avoidance	-10.3904
▁singer	-10.3905
▁twin	-10.3905
▁dysfunction	-10.3905
▁preventive	-10.3905
▁computation	-10.3905
▁contingency	-10.3905
▁1.2.3	-10.3905
▁amortization	-10.3906
▁manipulation	-10.3906
▁recoverable	-10.3907
▁journalistic	-10.3907
▁diagnos	-10.3908
▁headline	-10.3908
▁excellency	-10.3908
▁kiri	-10.3909
▁pressure	-10.391
▁authorization	-10.3911
▁succeeding	-10.3911
▁surviving	-10.3911
▁gold	-10.3912
▁lab	-10.3913
ateur	-10.3913
▁govt	-10.3913
spite	-10.3914
▁3.6	-10.3916
▁rejection	-10.3916
▁spous	-10.3917
▁mono	-10.3917
▁shortage	-10.3918
▁successful	-10.3918
▁label	-10.3918
▁constitute	-10.392
▁authenticity	-10.392
pathy	-10.3922
▁prote	-10.3922
▁heredit	-10.3922
▁illeg	-10.3923
▁dominion	-10.3923
▁fast	-10.3923
▁globalization	-10.3923
▁abridged	-10.3924
▁chandra	-10.3924
▁matugama	-10.3924
▁watch	-10.3924
▁blood	-10.3924
▁mapalagama	-10.3924
▁nugasevana	-10.3924
▁penetration	-10.3924
▁rathnapura	-10.3924
▁assurance	-10.3924
▁sumathi	-10.3924
▁privy	-10.3924
ibus	-10.3924
▁vested	-10.3925
▁implication	-10.3925
▁calculation	-10.3926
▁hot	-10.3926
▁commentary	-10.3926
▁weight	-10.3927
▁sensory	-10.3929
▁imperialism	-10.393
▁beneficial	-10.3931
▁eng	-10.3932
▁binary	-10.3934
▁shooting	-10.3938
eering	-10.394
▁lists	-10.394
▁difficulty	-10.3942
mini	-10.3944
▁privat	-10.3945
▁liberal	-10.3946
extensive	-10.3948
8.	-10.3948
emption	-10.3949
▁jana	-10.3954
▁matrimonial	-10.3958
kara	-10.3962
▁employed	-10.3963
▁stakeholders	-10.3963
▁plantation	-10.3963
▁politics	-10.3964
tension	-10.3964
▁proceeds	-10.3964
salawa	-10.3964
▁updated	-10.3965
▁exit	-10.3966
▁measured	-10.397
▁appraisal	-10.3973
▁vernacular	-10.3974
▁fiction	-10.3974
▁soft	-10.3974
▁train	-10.3979
▁treat	-10.3981
▁learned	-10.3983
▁metal	-10.3987
erial	-10.3991
dimensional	-10.3993
▁79	-10.3994
▁sec	-10.3994
▁painting	-10.3994
▁token	-10.3996
▁matrimoni	-10.3997
olen	-10.4
plication	-10.4005
▁dependants	-10.4008
▁recipients	-10.4008
▁progressive	-10.4009
▁unofficial	-10.401
▁dr	-10.4015
katu	-10.4016
▁pleading	-10.4018
pping	-10.4023
▁audi	-10.4023
▁polar	-10.4024
▁oriented	-10.4025
▁carrier	-10.4028
▁bid	-10.4028
household	-10.4032
▁transferor	-10.4034
▁graphical	-10.4034
▁meal	-10.4044
cope	-10.4046
▁mastery	-10.4046
▁dealing	-10.405
▁core	-10.4052
▁trainees	-10.4053
▁3.3.	-10.4065
▁socialist	-10.4066
80	-10.4068
▁excit	-10.4069
▁models	-10.4074
▁pow	-10.4075
ier	-10.4076
tique	-10.4078
thos	-10.4078
▁bidd	-10.4085
▁ports	-10.4098
▁3.4.	-10.4108
said	-10.4117
approximately	-10.4118
▁assisted	-10.4118
▁plead	-10.4119
▁stipulat	-10.4124
▁solutions	-10.4127
▁suwa	-10.4138
swor	-10.414
▁determination	-10.4141
▁degrad	-10.4142
▁hoc	-10.4144
▁cer	-10.4145
copa	-10.4154
▁gee	-10.4158
▁fer	-10.4168
▁side	-10.4174
front	-10.4176
▁tangible	-10.4182
▁trip	-10.4194
pen	-10.4198
▁manufactured	-10.4203
▁bl	-10.4203
▁generation	-10.4212
sanda	-10.4213
alla	-10.4218
▁symbolic	-10.4222
▁traveler	-10.4236
▁39	-10.4243
▁pla	-10.4254
▁ethn	-10.426
avan	-10.4265
ign	-10.427
▁frauds	-10.4281
▁5-	-10.4283
▁pin	-10.4283
▁writers	-10.4287
▁structured	-10.4301
preservation	-10.4303
mmunity	-10.4312
declared	-10.4312
kka	-10.4313
▁90	-10.4314
▁distill	-10.4315
▁atheis	-10.4327
▁poster	-10.4329
▁banker	-10.4332
▁dot	-10.4333
▁formats	-10.4335
▁substantial	-10.4351
▁reduce	-10.4358
▁syn	-10.4362
▁ill	-10.4365
▁minded	-10.4374
▁themes	-10.4385
▁adulter	-10.4396
etha	-10.4398
▁divi	-10.4405
sitha	-10.442
may	-10.4423
▁debate	-10.4432
▁mil	-10.4438
▁economical	-10.4445
▁clic	-10.4446
mant	-10.4449
▁consult	-10.4456
drawn	-10.4457
▁labourer	-10.4466
▁clients	-10.4468
sequence	-10.4472
▁sessions	-10.4472
bate	-10.4481
▁oya	-10.4487
ika	-10.4495
itude	-10.4505
▁morale	-10.4526
quality	-10.453
▁ban	-10.453
▁del	-10.4549
naya	-10.456
▁gen	-10.4561
▁lend	-10.4563
ily	-10.4577
▁(5	-10.4578
pace	-10.4595
71	-10.4601
▁ele	-10.461
▁investigations	-10.4611
▁nations	-10.4616
▁sal	-10.468
tier	-10.4701
▁equipments	-10.4706
▁films	-10.4722
▁round	-10.473
9.	-10.4732
▁aims	-10.4753
▁adjustments	-10.4756
vation	-10.4782
▁ji	-10.4794
tar	-10.4799
▁pur	-10.4825
version	-10.4832
nka	-10.4848
▁pos	-10.4849
▁neur	-10.4928
▁cinemat	-10.4969
holder	-10.4972
▁projection	-10.4976
▁sources	-10.5003
▁hos	-10.5027
stage	-10.5045
▁fu	-10.5053
▁schedules	-10.5053
▁appeals	-10.5055
que	-10.5062
▁che	-10.5076
acre	-10.5091
iance	-10.5097
59	-10.511
ound	-10.5123
▁14.	-10.5132
mic	-10.5144
war	-10.5162
stain	-10.517
anka	-10.5191
▁until	-10.5193
diment	-10.5197
▁cor	-10.5197
▁lea	-10.5199
▁pul	-10.521
▁dramas	-10.522
▁telecasts	-10.5244
equal	-10.5268
tail	-10.5282
▁involv	-10.5296
▁sat	-10.5303
▁rents	-10.5318
▁surveying	-10.5326
▁tolera	-10.5344
▁cann	-10.5347
18	-10.5353
▁marks	-10.5361
adjustment	-10.5389
▁reput	-10.5391
05	-10.5393
active	-10.5419
▁5.2	-10.5426
lingual	-10.5436
vit	-10.549
▁ego	-10.5495
rogation	-10.5508
▁structures	-10.5528
cial	-10.553
▁tabula	-10.5552
▁finalize	-10.5604
▁pick	-10.5624
▁ds	-10.5626
nai	-10.5628
56	-10.5635
▁determin	-10.5636
▁consultan	-10.5671
log	-10.5694
inter	-10.5698
▁simul	-10.5757
▁encourage	-10.5775
▁reduc	-10.5827
logist	-10.5874
▁axi	-10.5884
och	-10.5902
hab	-10.5908
lama	-10.5927
list	-10.5935
▁sew	-10.5941
▁gr	-10.5952
hna	-10.5961
▁execut	-10.5981
▁realiz	-10.5983
▁ho	-10.5991
ondon	-10.5991
payment	-10.5997
jerathn	-10.5998
▁her	-10.6005
nik	-10.601
▁alphabet	-10.6028
wana	-10.6033
scribe	-10.6048
alai	-10.6049
thi	-10.6058
hasa	-10.6068
ken	-10.6075
gree	-10.6084
tage	-10.6089
culture	-10.6091
ude	-10.6103
ipulation	-10.6107
96	-10.6118
▁geograph	-10.6123
port	-10.6129
nate	-10.6132
factor	-10.6145
▁approximate	-10.6146
tuesday	-10.6149
monday	-10.6149
kanda	-10.6153
related	-10.6163
racial	-10.6173
mbo	-10.6174
▁agreements	-10.6176
text	-10.6178
pow	-10.6179
gov	-10.618
regulation	-10.618
significant	-10.618
setting	-10.6181
▁server	-10.6182
direction	-10.6182
discount	-10.6182
review	-10.6183
link	-10.6185
wise	-10.6186
ansa	-10.6186
policies	-10.6186
step	-10.6186
material	-10.6187
tenant	-10.6187
awareness	-10.6187
badulla	-10.6188
treasury	-10.6188
building	-10.6189
advance	-10.6189
behaviour	-10.6189
rupavahini	-10.6189
local	-10.6189
news	-10.619
book	-10.619
community	-10.619
based	-10.6191
establishment	-10.6192
▁lexic	-10.6193
mean	-10.6193
ensure	-10.6196
▁occasion	-10.6196
ivi	-10.6199
▁trainee	-10.62
▁disease	-10.6203
▁figure	-10.6203
▁drug	-10.6203
siva	-10.6204
▁translator	-10.6204
mination	-10.6204
▁spirit	-10.6205
▁capita	-10.6213
▁practitioner	-10.6213
▁store	-10.6214
more	-10.6215
▁guideline	-10.622
nics	-10.6222
▁numer	-10.6222
▁entrepreneur	-10.6224
gue	-10.6226
also	-10.6232
display	-10.6238
ngton	-10.6243
learning	-10.6245
▁rat	-10.6246
duwa	-10.6249
affirm	-10.6249
take	-10.6252
▁acquir	-10.6254
▁liber	-10.6255
▁commit	-10.6261
▁employ	-10.6261
bad	-10.6264
▁wind	-10.6268
▁compli	-10.6272
2015	-10.6281
▁vari	-10.6286
ular	-10.6287
ordinate	-10.6289
▁discuss	-10.6291
lips	-10.6295
▁merc	-10.6299
rome	-10.6304
▁amend	-10.6308
▁regulat	-10.6312
orate	-10.6312
aug	-10.6314
▁2.1	-10.6316
▁concern	-10.6316
▁defer	-10.6321
▁render	-10.6321
▁critic	-10.6322
morph	-10.6322
dec	-10.633
▁sever	-10.6335
▁senat	-10.6341
siripa	-10.6343
ola	-10.6347
▁distribute	-10.6348
▁craft	-10.635
▁fulfil	-10.6353
▁mari	-10.6354
not	-10.6355
▁bandara	-10.6358
▁hom	-10.636
▁guru	-10.6362
▁cyber	-10.6362
orthy	-10.6364
▁terr	-10.6366
avy	-10.6366
▁ultimat	-10.6367
evident	-10.6368
▁translat	-10.6369
▁prefer	-10.6373
▁scrip	-10.6373
▁solemn	-10.6373
data	-10.6377
▁guarant	-10.6379
▁obligatio	-10.638
▁confess	-10.638
▁disseminat	-10.6381
▁motivat	-10.6382
▁situat	-10.6382
▁prohibit	-10.6382
▁fragment	-10.6382
▁combin	-10.6382
▁amortiz	-10.6383
▁oblig	-10.6383
▁transform	-10.6383
▁magi	-10.6385
▁registr	-10.6386
▁grow	-10.6386
▁intent	-10.6387
rovision	-10.6388
▁compensat	-10.6389
▁endorse	-10.6389
fficiency	-10.639
▁impuls	-10.639
▁secure	-10.6392
▁absent	-10.6393
▁desir	-10.6393
▁prejudic	-10.6393
▁aware	-10.6394
textual	-10.6394
historic	-10.6394
hole	-10.6394
▁techno	-10.6395
sensitiv	-10.6395
▁stereo	-10.6395
▁kelaniya	-10.6395
▁metropoli	-10.6395
.06.2011	-10.6395
clerical	-10.6395
dehiattakandiya	-10.6395
naissance	-10.6395
tsunami	-10.6395
▁1982	-10.6395
▁2016.	-10.6395
▁accolades	-10.6395
▁administer	-10.6395
▁advertiser	-10.6395
▁ambassador	-10.6395
▁anamorphic	-10.6395
▁anonymous	-10.6395
▁catharsis	-10.6395
▁census	-10.6395
▁ceremonial	-10.6395
▁compromis	-10.6395
▁concomitant	-10.6395
▁controvers	-10.6395
▁correspondence	-10.6395
▁deceased	-10.6395
▁defray	-10.6395
▁delimitation	-10.6395
▁dodamgoda	-10.6395
▁eight	-10.6395
▁elaborat	-10.6395
▁enlarge	-10.6395
▁expansion	-10.6395
▁explanatory	-10.6395
▁folklore	-10.6395
▁freight	-10.6395
▁gampola	-10.6395
▁glossary	-10.6395
▁gossip	-10.6395
▁guild	-10.6395
▁handicraft	-10.6395
▁hardware	-10.6395
▁homogenization	-10.6395
▁hygien	-10.6395
▁hypothec	-10.6395
▁illustration	-10.6395
▁inauguration	-10.6395
▁infringement	-10.6395
▁instantaneous	-10.6395
▁intermediate	-10.6395
▁landlord	-10.6395
▁meegahakiula	-10.6395
▁mirror	-10.6395
▁necessities	-10.6395
▁negotiable	-10.6395
▁night	-10.6395
▁nucle	-10.6395
▁obstacle	-10.6395
▁oriental	-10.6395
▁orthodox	-10.6395
▁pelendagoda	-10.6395
▁permissive	-10.6395
▁precedence	-10.6395
▁precept	-10.6395
▁prestige	-10.6395
▁privacy	-10.6395
▁procedural	-10.6395
▁protocol	-10.6395
▁provocat	-10.6395
▁pseudo	-10.6395
▁puisne	-10.6395
▁puttlam	-10.6395
▁receiving	-10.6395
▁redress	-10.6395
▁redundan	-10.6395
▁relevanc	-10.6395
▁reluctant	-10.6395
▁repugnant	-10.6395
▁reservation	-10.6395
▁retarded	-10.6395
▁revocation	-10.6395
▁riparian	-10.6395
▁saints	-10.6395
▁saturation	-10.6395
▁scurrilous	-10.6395
▁semantic	-10.6395
▁spontaneous	-10.6395
▁straight	-10.6395
▁subsidence	-10.6395
▁subsidies	-10.6395
▁subsidy	-10.6395
▁tabloid	-10.6395
▁unenforceable	-10.6395
▁unified	-10.6395
▁unimpeachable	-10.6395
▁unjutifiable	-10.6395
▁unliquidated	-10.6395
▁unnecessar	-10.6395
▁vicarious	-10.6395
▁virgin	-10.6395
▁vocal	-10.6395
▁voluntarily	-10.6395
▁watupitiwala	-10.6395
▁zero	-10.6395
slaughter	-10.6395
▁assesment	-10.6395
▁driving	-10.6395
▁murder	-10.6395
▁paramount	-10.6395
▁plenary	-10.6395
▁pseudonym	-10.6395
▁remittance	-10.6395
▁salvage	-10.6395
▁semiotic	-10.6395
▁spatial	-10.6395
▁timber	-10.6395
▁udanaya	-10.6395
▁amalgamat	-10.6395
▁arrest	-10.6395
▁bargain	-10.6395
▁bonorum	-10.6395
▁catch	-10.6395
▁chemist	-10.6395
▁physiolog	-10.6395
▁pornograph	-10.6395
▁poverty	-10.6395
▁scann	-10.6395
▁tracing	-10.6395
▁vincul	-10.6395
▁dialog	-10.6395
▁poison	-10.6395
▁dedicated	-10.6395
▁pinkam	-10.6395
▁prevail	-10.6395
▁segment	-10.6395
▁sitting	-10.6395
▁suppressio	-10.6395
▁sweet	-10.6395
▁technologi	-10.6395
▁trick	-10.6395
wattha	-10.6395
▁coalition	-10.6395
▁heart	-10.6395
▁mileage	-10.6395
▁tamper	-10.6395
▁unsatisfied	-10.6395
▁wood	-10.6395
▁plurality	-10.6395
▁abatement	-10.6395
▁democratization	-10.6395
▁mesne	-10.6395
▁slander	-10.6395
▁liquidated	-10.6395
▁operates	-10.6395
▁redeemable	-10.6395
madam	-10.6395
▁accredited	-10.6395
▁famous	-10.6395
▁perahettiya	-10.6395
potentia	-10.6395
▁accomplish	-10.6395
▁correspondent	-10.6395
cient	-10.6395
▁auctioneer	-10.6395
▁pirate	-10.6395
▁sympath	-10.6395
altitude	-10.6395
▁pleni	-10.6395
▁tilt	-10.6395
▁shape	-10.6395
fresh	-10.6395
▁radical	-10.6395
impaired	-10.6396
abhi	-10.6396
▁reimbursement	-10.6396
disqualification	-10.6396
▁fallac	-10.6396
▁pipeline	-10.6396
▁contraven	-10.6396
▁chanting	-10.6396
▁listener	-10.6396
▁adolescent	-10.6396
▁estoppel	-10.6396
▁thrift	-10.6396
▁undue	-10.6396
▁alternate	-10.6396
▁ruling	-10.6396
▁toddy	-10.6396
mtef	-10.6396
▁venture	-10.6396
emy	-10.6396
▁eliminat	-10.6396
▁unrealistic	-10.6396
▁championship	-10.6396
▁matrilineal	-10.6396
▁librari	-10.6396
▁county	-10.6396
▁fringe	-10.6396
▁spare	-10.6396
▁subtanti	-10.6396
▁remand	-10.6396
▁hanguranketha	-10.6396
lux	-10.6396
pila	-10.6396
▁condominium	-10.6396
▁infant	-10.6396
▁interpreters	-10.6396
▁listening	-10.6396
▁irregularities	-10.6396
▁readiness	-10.6396
▁postmodern	-10.6396
▁quotient	-10.6396
▁acquittance	-10.6396
korale	-10.6396
▁example	-10.6396
▁season	-10.6396
▁bilateral	-10.6396
▁unincorporated	-10.6396
▁precision	-10.6397
▁tremen	-10.6397
▁saivane	-10.6397
▁fetish	-10.6397
▁ordinary	-10.6397
▁spoil	-10.6397
therefore	-10.6397
ihala	-10.6397
▁erotic	-10.6397
▁abey	-10.6397
▁despatch	-10.6397
▁secular	-10.6397
▁productivity	-10.6397
▁expand	-10.6397
▁griev	-10.6397
▁flash	-10.6397
▁impact	-10.6397
▁expertise	-10.6397
▁cruel	-10.6397
thaip	-10.6397
▁favour	-10.6397
▁kott	-10.6397
/2009	-10.6397
▁pedagogical	-10.6397
▁batta	-10.6397
▁passport	-10.6397
▁limb	-10.6397
emphasi	-10.6397
▁suspicious	-10.6398
otype	-10.6398
▁possess	-10.6398
▁mortal	-10.6398
▁preparatory	-10.6398
▁plate	-10.6398
▁2014/31	-10.6398
▁overview	-10.6398
▁squatter	-10.6398
▁cutting	-10.6398
▁nuwaraeliya	-10.6399
▁woman	-10.6399
▁embody	-10.6399
▁genetic	-10.6399
▁earnest	-10.6399
▁window	-10.6399
▁residuary	-10.6399
▁seller	-10.6399
▁wine	-10.6399
▁spread	-10.6399
ody	-10.6399
▁repeat	-10.6399
▁adjournment	-10.6399
▁1999	-10.6399
▁solidarity	-10.64
▁china	-10.64
▁ridi	-10.64
epf	-10.64
▁aggressive	-10.64
▁manu	-10.64
▁madh	-10.64
▁apprenticeship	-10.64
▁aberra	-10.6401
▁citizenship	-10.6401
▁revaluation	-10.6401
▁expectancy	-10.6401
▁colony	-10.6401
▁recoveries	-10.6401
▁anticipation	-10.6402
▁encroachment	-10.6402
▁predicti	-10.6402
▁boom	-10.6402
▁contrary	-10.6402
▁quotation	-10.6402
▁assimilat	-10.6402
▁assert	-10.6402
▁autonomous	-10.6403
▁feeble	-10.6403
▁matri	-10.6403
▁caption	-10.6403
▁vacancies	-10.6403
league	-10.6403
▁illustrated	-10.6404
▁esp	-10.6404
▁speaker	-10.6404
▁vul	-10.6404
▁contour	-10.6404
▁multicultural	-10.6404
▁poetic	-10.6405
▁favourable	-10.6405
singhe	-10.6405
▁soma	-10.6405
▁preca	-10.6405
▁realistic	-10.6405
▁mining	-10.6405
▁mens	-10.6405
▁adhere	-10.6406
▁anecdotal	-10.6406
kurun	-10.6406
▁silva	-10.6406
▁imitation	-10.6406
07/	-10.6406
▁embar	-10.6407
▁indent	-10.6407
ponent	-10.6408
▁dependent	-10.6408
▁entity	-10.6408
▁vital	-10.6409
▁oligopol	-10.6409
▁combination	-10.6409
▁fragmentation	-10.6409
▁waiver	-10.6409
▁upset	-10.6409
▁humanistic	-10.6409
▁marxis	-10.6409
▁bearer	-10.6409
▁abandoned	-10.6409
▁converter	-10.641
▁coll	-10.641
▁strat	-10.641
▁leve	-10.641
▁confession	-10.641
▁240	-10.6411
▁attainment	-10.6411
▁conven	-10.6411
▁phon	-10.6411
▁certainty	-10.6411
▁auditorium	-10.6411
▁trut	-10.6412
▁pill	-10.6412
▁withhold	-10.6412
▁excesses	-10.6413
▁pool	-10.6413
genital	-10.6414
▁"3.	-10.6414
▁gene	-10.6415
▁prohibition	-10.6415
▁intrinsic	-10.6415
▁icon	-10.6416
runk	-10.6416
allur	-10.6417
stead	-10.6417
▁diversion	-10.6417
▁sublim	-10.6417
▁yo	-10.6418
▁kathir	-10.6418
▁91	-10.6418
▁prescribed	-10.6418
▁supervised	-10.6418
▁pledge	-10.642
▁nil	-10.642
fusion	-10.642
▁decentraliz	-10.642
▁44	-10.6421
▁privi	-10.6423
▁ambiguity	-10.6423
▁commodity	-10.6424
▁optional	-10.6424
▁residual	-10.6424
▁chairmanship	-10.6424
▁examiner	-10.6424
▁sara	-10.6424
▁committal	-10.6425
▁atmosphere	-10.6425
▁domicile	-10.6425
▁voidable	-10.6425
▁kit	-10.6427
▁retire	-10.6427
▁ven	-10.6427
▁transferee	-10.6429
▁rod	-10.643
torri	-10.6432
▁wo	-10.6432
eragala	-10.6433
▁ambagamuwa	-10.6433
▁chairperson	-10.6433
▁kuliyapitiya	-10.6433
▁nawagampura	-10.6433
▁rhythm	-10.6433
▁parcel	-10.6433
▁moment	-10.6433
saka	-10.6433
▁cognizable	-10.6433
▁designate	-10.6434
▁quadr	-10.6434
▁neurosis	-10.6434
▁accumulation	-10.6435
▁contradictory	-10.6435
▁classic	-10.6436
▁aspiration	-10.6437
hlet	-10.6437
▁avenue	-10.6438
▁misstatement	-10.6439
▁physic	-10.6439
name	-10.6439
▁drawer	-10.644
▁tourism	-10.6441
▁psychic	-10.6442
▁conceal	-10.6442
▁passive	-10.6442
ula	-10.6445
▁8.2.	-10.6447
▁probate	-10.6448
ssum	-10.6448
▁driver	-10.6449
wila	-10.6449
▁dealer	-10.6451
▁tongue	-10.6451
▁counselling	-10.6453
orem	-10.6453
▁overlap	-10.6454
▁agit	-10.6455
▁comput	-10.6456
▁restriction	-10.6457
▁tx	-10.6457
.10.2011-	-10.6459
▁diya	-10.6459
▁repaired	-10.646
▁dispens	-10.646
▁env	-10.6461
ration	-10.6461
▁facie	-10.6462
▁viewer	-10.6462
▁acceptor	-10.6466
▁bailable	-10.6467
▁pensionable	-10.647
▁1.2.4	-10.6471
▁wit	-10.6474
launch	-10.6474
55	-10.6474
▁young	-10.6477
▁donat	-10.6477
▁pater	-10.648
▁virtue	-10.6483
▁heroin	-10.6483
▁amended	-10.6484
▁executed	-10.6485
▁components	-10.6485
▁keeping	-10.649
▁reputed	-10.6493
▁informative	-10.6495
▁must	-10.6495
rathn	-10.6498
▁concentration	-10.6499
▁folio	-10.6499
▁thiruva	-10.6499
▁false	-10.6499
▁pleasure	-10.6499
▁soap	-10.6499
▁wealth	-10.65
▁poet	-10.65
▁charity	-10.6503
▁dialectic	-10.6504
apart	-10.6505
▁niv	-10.6508
▁mut	-10.651
rebelli	-10.651
▁agree	-10.6512
uka	-10.6512
rise	-10.6512
andhi	-10.6516
▁patriarch	-10.6517
▁optical	-10.6518
▁contractor	-10.652
gery	-10.6521
▁stationary	-10.6523
▁compose	-10.6523
▁winding	-10.6525
otation	-10.6528
▁refu	-10.6532
▁hali	-10.6535
trol	-10.6535
▁recovered	-10.6535
▁stay	-10.6536
▁bilingualism	-10.6538
▁disclosures	-10.6544
dorsement	-10.6546
▁construct	-10.6547
▁sponsored	-10.6547
ption	-10.6548
fortun	-10.6561
lapitiya	-10.6567
▁aut	-10.657
analytic	-10.6572
ridge	-10.6573
▁33	-10.6574
ferential	-10.6576
titution	-10.6577
▁(1)	-10.6578
▁accession	-10.6579
▁summ	-10.6583
dying	-10.6587
▁dem	-10.6588
▁respondent	-10.6592
▁occasions	-10.6599
▁presenter	-10.66
▁lexicograph	-10.6602
▁translators	-10.6603
▁contractors	-10.6605
▁decid	-10.6613
hn	-10.6614
▁placement	-10.6615
dramatic	-10.6618
▁workers	-10.6631
▁disburse	-10.6634
▁reserved	-10.6635
bra	-10.6636
▁inception	-10.6637
▁guid	-10.6642
▁gov	-10.6644
▁assigned	-10.6647
▁vana	-10.6648
▁surveyors	-10.6663
▁23-	-10.6663
▁dynamics	-10.6663
▁mentally	-10.6685
▁debited	-10.6689
▁participate	-10.6694
▁km	-10.6702
hetoric	-10.6702
isc	-10.6707
bha	-10.6708
▁worker	-10.671
mobil	-10.6711
adi	-10.6713
▁08-	-10.6717
▁operas	-10.6723
shall	-10.6723
▁parks	-10.6724
▁proposals	-10.6724
▁incu	-10.673
idle	-10.6748
icide	-10.6752
▁pen	-10.6765
▁nic	-10.6772
▁geographic	-10.6772
▁graduate	-10.6776
▁alphabetic	-10.6776
▁remarks	-10.6785
▁commitments	-10.6785
tory	-10.6794
▁presid	-10.6799
osis	-10.6807
▁remit	-10.6813
▁meter	-10.6815
▁ran	-10.682
eur	-10.6821
duru	-10.6822
▁signal	-10.6832
▁ensured	-10.6835
tho	-10.6836
▁experts	-10.6846
▁journalists	-10.6846
▁synta	-10.6867
inner	-10.6868
ows	-10.6879
sonance	-10.6884
▁lesse	-10.6893
ndi	-10.6906
▁celebrations	-10.6908
▁abrogat	-10.6915
rdh	-10.6916
▁topic	-10.692
dian	-10.692
▁cot	-10.6927
nthara	-10.6927
▁actionable	-10.6936
ature	-10.6936
rasa	-10.6943
▁pollut	-10.6944
▁declare	-10.6952
▁matur	-10.6958
.05.2014	-10.6959
▁risks	-10.697
▁holders	-10.6972
feasance	-10.6987
▁spli	-10.6988
▁audition	-10.6997
97	-10.7013
amic	-10.702
▁today	-10.7026
▁recordings	-10.7031
▁tone	-10.7042
▁seed	-10.7066
nial	-10.7077
lot	-10.7088
▁navigat	-10.7096
▁mai	-10.7096
▁gains	-10.7096
▁modes	-10.7102
tant	-10.7104
▁38,	-10.7108
known	-10.711
13	-10.7115
▁06.	-10.7142
▁09.	-10.7148
anda	-10.7157
▁representatives	-10.7159
▁mora	-10.7165
▁territori	-10.717
gle	-10.7174
ector	-10.7193
▁male	-10.7199
▁chi	-10.7199
▁ball	-10.7206
▁muthuma	-10.7218
icket	-10.7231
table	-10.724
city	-10.7249
▁occupan	-10.7266
▁forest	-10.7287
▁situations	-10.7288
▁king	-10.7295
▁acquit	-10.7299
called	-10.7301
cre	-10.7346
cover	-10.7362
40	-10.7391
▁reporter	-10.7393
tence	-10.7418
▁geo	-10.7422
▁mar	-10.745
etf	-10.7462
wara	-10.7472
▁investigati	-10.7509
▁turpi	-10.751
07	-10.7515
utha	-10.7519
▁lega	-10.7544
▁agents	-10.7551
▁categor	-10.7551
path	-10.7557
llicit	-10.7582
piri	-10.7598
▁accountants	-10.7618
▁sala	-10.762
asa	-10.7649
4.3	-10.7659
▁31.12.201	-10.7671
▁tru	-10.7683
▁covers	-10.7684
▁messages	-10.7685
▁rap	-10.7721
▁logo	-10.7721
▁charged	-10.775
gan	-10.7753
▁roles	-10.7753
ima	-10.7778
nage	-10.7789
▁showing	-10.779
▁attribute	-10.7821
▁halls	-10.7822
▁signs	-10.7828
▁explain	-10.7829
endo	-10.7859
▁mahawe	-10.7864
▁balanced	-10.7889
anamal	-10.7896
phasi	-10.7925
determined	-10.7945
structure	-10.7946
▁sincer	-10.7968
worthy	-10.7981
ati	-10.7987
▁ration	-10.803
▁collaborat	-10.804
▁insight	-10.8066
▁imper	-10.811
attu	-10.813
▁achiev	-10.8144
uttala	-10.8214
29	-10.8245
▁gran	-10.826
▁increas	-10.8287
puls	-10.8323
aries	-10.8328
▁educ	-10.8328
▁67	-10.8339
02	-10.8348
▁provider	-10.8367
▁mat	-10.8386
igama	-10.8425
▁soci	-10.8439
▁cli	-10.8441
gnation	-10.8499
▁fan	-10.8499
▁dist	-10.8525
▁mute	-10.8563
kumb	-10.8599
mma	-10.8604
evi	-10.8616
▁comp	-10.8636
▁son	-10.8682
lec	-10.8683
11	-10.8747
iber	-10.8794
▁know	-10.8801
▁5.3	-10.8817
cide	-10.8825
▁far	-10.8872
nger	-10.8891
gul	-10.8943
lli	-10.8965
tern	-10.8967
anton	-10.8983
gregation	-10.8993
apper	-10.9018
cular	-10.9041
▁jur	-10.9053
▁tw	-10.9061
daya	-10.9062
ression	-10.907
gag	-10.9088
▁fr	-10.9094
tatis	-10.9111
▁scal	-10.9124
never	-10.9159
▁lak	-10.916
▁big	-10.9168
member	-10.9176
tive	-10.9194
▁cess	-10.9202
boo	-10.9206
.8	-10.9226
off	-10.9237
▁conserv	-10.9241
oman	-10.9256
▁communic	-10.9272
83	-10.928
tended	-10.9283
nana	-10.9288
hiru	-10.9306
▁intens	-10.9308
pet	-10.9315
▁tate	-10.9319
▁needle	-10.932
lusion	-10.9324
programme	-10.9326
23	-10.9338
▁waste	-10.9343
llow	-10.9345
ogy	-10.935
pot	-10.9365
abis	-10.9365
formation	-10.9369
85	-10.9373
guration	-10.9384
payments	-10.9402
igam	-10.9404
▁activ	-10.9411
dden	-10.9439
ept	-10.9442
operation	-10.9453
▁repair	-10.9458
▁syll	-10.9465
help	-10.9466
construct	-10.9478
intentional	-10.9482
jaya	-10.9483
organis	-10.9483
thursday	-10.9483
wednesday	-10.9483
siththi	-10.9489
▁thr	-10.9489
facilitat	-10.9492
generat	-10.9494
craft	-10.9495
(1)	-10.9496
▁cogn	-10.9501
break	-10.9501
oriented	-10.9501
amendment	-10.9501
treat	-10.9502
load	-10.9502
34	-10.9505
keeper	-10.9505
face	-10.9508
chancellor	-10.9508
utiliz	-10.951
organization	-10.9511
establish	-10.9513
sexual	-10.9514
matara	-10.9514
cycle	-10.9515
play	-10.9515
representation	-10.9516
composition	-10.9516
authorized	-10.9516
decrease	-10.9516
polonnaruwa	-10.9516
owner	-10.9516
voice	-10.9516
petition	-10.9517
▁circumstance	-10.9517
▁elder	-10.9517
▁decade	-10.9517
seminars	-10.9517
when	-10.9518
july	-10.9518
mannar	-10.9518
identified	-10.9518
wil	-10.9518
kilinochchi	-10.9519
trincomalee	-10.9519
puttalam	-10.952
▁accus	-10.952
cause	-10.952
semi	-10.952
anim	-10.952
implementing	-10.952
second	-10.952
word	-10.9521
january	-10.9521
benefit	-10.9521
insurance	-10.9521
batticaloa	-10.9521
summary	-10.9521
written	-10.9521
planning	-10.9522
charge	-10.9522
cross	-10.9522
property	-10.9522
capital	-10.9522
analysis	-10.9522
film	-10.9523
director	-10.9523
ampara	-10.9523
research	-10.9523
department	-10.9523
kandy	-10.9523
cash	-10.9523
management	-10.9523
project	-10.9524
plant	-10.9524
language	-10.9524
officers	-10.9524
class	-10.9524
hur	-10.9525
rev	-10.9526
interest	-10.9526
▁corp	-10.9527
▁trailer	-10.9528
year	-10.9528
most	-10.9529
▁veri	-10.9529
▁recipient	-10.9531
galle	-10.9533
fair	-10.9534
▁overhead	-10.9535
▁game	-10.9536
lp	-10.9536
▁donor	-10.9541
▁dependant	-10.9542
legal	-10.9542
▁outla	-10.9543
06	-10.9544
▁consequence	-10.9546
▁element	-10.9547
▁instruct	-10.9548
incidental	-10.9549
▁linkage	-10.9552
polar	-10.9553
abilities	-10.9555
▁sport	-10.9559
26	-10.9563
▁publish	-10.9567
consistency	-10.9569
▁deduction	-10.957
total	-10.9573
factory	-10.9574
ball	-10.9575
▁disclosure	-10.9582
▁instructor	-10.9583
▁settl	-10.9585
▁releas	-10.9585
credit	-10.9586
operational	-10.9587
▁borrow	-10.9595
▁demon	-10.9596
talawa	-10.9598
compos	-10.9598
▁respond	-10.9602
fit	-10.9609
▁accord	-10.961
ulous	-10.9612
▁think	-10.9614
mass	-10.9616
rational	-10.9617
litera	-10.9622
hour	-10.9623
trust	-10.9624
▁tro	-10.9626
herein	-10.9628
▁explo	-10.9631
▁symmetr	-10.9635
.09.2011	-10.9638
▁recruit	-10.9641
▁sacr	-10.9641
▁reveal	-10.9652
▁undis	-10.9656
▁pop	-10.9656
▁incur	-10.9656
▁benefici	-10.9657
▁refer	-10.9658
venue	-10.9661
▁dispos	-10.9661
bata	-10.9663
▁probat	-10.9667
plicit	-10.9669
▁imparti	-10.9669
▁artiste	-10.9671
▁simpl	-10.9675
▁entitle	-10.9675
moral	-10.9676
▁profession	-10.9677
▁theatr	-10.968
expressi	-10.968
▁abridge	-10.968
▁affiliate	-10.9681
cription	-10.9683
▁constitu	-10.9683
▁medal	-10.9685
cam	-10.9688
▁methodologi	-10.9689
aesthetic	-10.9692
▁deput	-10.9694
▁paint	-10.9696
ensive	-10.97
▁accre	-10.9701
▁-20	-10.9702
▁pluralis	-10.9703
▁delinquen	-10.9704
▁mov	-10.9704
▁commodit	-10.9705
▁gener	-10.9705
▁angl	-10.9705
▁complain	-10.9706
chchi	-10.9707
▁lite	-10.9708
▁restrain	-10.9709
vila	-10.9709
▁slu	-10.9709
▁solutio	-10.9712
▁exempt	-10.9713
▁adjudicat	-10.9713
▁profess	-10.9713
▁detect	-10.9713
▁discre	-10.9714
▁possessio	-10.9714
▁appreciat	-10.9714
▁manipulat	-10.9714
▁renovat	-10.9714
▁prosecut	-10.9714
▁conform	-10.9715
▁exam	-10.9715
▁invest	-10.9716
▁exceptio	-10.9716
easant	-10.9717
▁compress	-10.9717
ificat	-10.9717
▁deploy	-10.9719
▁encroach	-10.9719
▁solicit	-10.972
▁postpone	-10.972
▁convert	-10.972
▁spec	-10.972
tatutory	-10.9721
▁adju	-10.9721
▁magn	-10.9723
▁aggress	-10.9723
scape	-10.9723
▁pub	-10.9723
ubric	-10.9723
lony	-10.9723
▁blind	-10.9724
▁flexib	-10.9724
▁revise	-10.9724
▁patron	-10.9724
▁stabili	-10.9725
▁penden	-10.9725
▁defend	-10.9726
▁confi	-10.9726
nquiry	-10.9726
▁luna	-10.9726
▁pedagog	-10.9726
pura	-10.9727
▁enforce	-10.9727
muwa	-10.9727
gramme	-10.9728
.07.2014	-10.9728
▁begin	-10.9728
02.	-10.9728
▁resident	-10.9728
▁auction	-10.9728
▁narrow	-10.9728
▁mahiyanga	-10.9729
▁chronic	-10.9729
▁stipend	-10.9729
.12.31	-10.9729
1/200	-10.9729
consolidation	-10.9729
franchise	-10.9729
gratia	-10.9729
jewardana	-10.9729
kuruwita	-10.9729
madulla	-10.9729
nikaweratiya	-10.9729
senehasak	-10.9729
taneous	-10.9729
thilaka	-10.9729
▁abscond	-10.9729
▁acknowledgment	-10.9729
▁acquaint	-10.9729
▁aforesaid	-10.9729
▁aggrieved	-10.9729
▁aluminum	-10.9729
▁annulment	-10.9729
▁appliance	-10.9729
▁appurtenan	-10.9729
▁archaeology	-10.9729
▁asynchron	-10.9729
▁auxiliary	-10.9729
▁baggage	-10.9729
▁battery	-10.9729
▁beauty	-10.9729
▁believe	-10.9729
▁bifurcation	-10.9729
▁catalogue	-10.9729
▁catholic	-10.9729
▁centrifugal	-10.9729
▁clarification	-10.9729
▁concord	-10.9729
▁conducive	-10.9729
▁conspicuous	-10.9729
▁convergence	-10.9729
▁corresponding	-10.9729
▁counterfoil	-10.9729
▁counterpart	-10.9729
▁dancing	-10.9729
▁defraud	-10.9729
▁disadvantage	-10.9729
▁dislocation	-10.9729
▁draughts	-10.9729
▁economis	-10.9729
▁egalitarian	-10.9729
▁epitome	-10.9729
▁erroneous	-10.9729
▁excellent	-10.9729
▁facsimile	-10.9729
▁felicitate	-10.9729
▁fluctuation	-10.9729
▁frustration	-10.9729
▁grassroot	-10.9729
▁hallucination	-10.9729
▁handwriting	-10.9729
▁hatton	-10.9729
▁hemispher	-10.9729
▁illiteracy	-10.9729
▁impoverish	-10.9729
▁improper	-10.9729
▁inadequacy	-10.9729
▁insolven	-10.9729
▁intuition	-10.9729
▁irrecoverab	-10.9729
▁jazz	-10.9729
▁kachchatheevu	-10.9729
▁kanthale	-10.9729
▁kotmale	-10.9729
▁leisure	-10.9729
▁length	-10.9729
▁litig	-10.9729
▁livestock	-10.9729
▁loudspeaker	-10.9729
▁madurawela	-10.9729
▁manimandapam	-10.9729
▁manjari	-10.9729
▁medieval	-10.9729
▁meritocra	-10.9729
▁metaphor	-10.9729
▁misprision	-10.9729
▁negombo	-10.9729
▁nurses	-10.9729
▁obedience	-10.9729
▁obscenity	-10.9729
▁perfomance	-10.9729
▁permissible	-10.9729
▁pharmac	-10.9729
▁polyandr	-10.9729
▁pragmatis	-10.9729
▁prerequisite	-10.9729
▁puduma	-10.9729
▁relinquish	-10.9729
▁relocation	-10.9729
▁reservoir	-10.9729
▁resolved	-10.9729
▁retrenchment	-10.9729
▁scarcity	-10.9729
▁scrap	-10.9729
▁shelter	-10.9729
▁shroff	-10.9729
▁slogan	-10.9729
▁spectator	-10.9729
▁stanford	-10.9729
▁statistical	-10.9729
▁stereotype	-10.9729
▁surgeries	-10.9729
▁suspect	-10.9729
▁tertiary	-10.9729
▁thailand	-10.9729
▁thaipongal	-10.9729
▁thaksalawa	-10.9729
▁treasure	-10.9729
▁unalienable	-10.9729
▁unavoidable	-10.9729
▁uncertifi	-10.9729
▁uncommunicated	-10.9729
▁unconteted	-10.9729
▁uncorroborated	-10.9729
▁undefended	-10.9729
▁undischarged	-10.9729
▁unditurbed	-10.9729
▁unfettered	-10.9729
▁unissued	-10.9729
▁unjust	-10.9729
▁unmarried	-10.9729
▁unnatural	-10.9729
▁unsecured	-10.9729
▁unwarranted	-10.9729
▁usufructuary	-10.9729
▁vaviniya	-10.9729
▁vexatious	-10.9729
▁vibration	-10.9729
▁vigilance	-10.9729
▁walapone	-10.9729
▁welagedara	-10.9729
▁wharf	-10.9729
adarsha	-10.9729
welimada	-10.9729
▁2014/32	-10.9729
▁3.7.3	-10.9729
▁arithmetic	-10.9729
▁canteen	-10.9729
▁consort	-10.9729
▁depict	-10.9729
▁diminish	-10.9729
▁gregarious	-10.9729
▁invigilat	-10.9729
▁kinesthe	-10.9729
▁left	-10.9729
▁mislead	-10.9729
▁packet	-10.9729
▁predominan	-10.9729
▁repudiat	-10.9729
▁shadow	-10.9729
▁surpass	-10.9729
▁suzerain	-10.9729
▁tournament	-10.9729
manushya	-10.9729
udupila	-10.9729
▁"03.	-10.9729
▁approbat	-10.9729
▁arbitrary	-10.9729
▁certification	-10.9729
▁compellable	-10.9729
▁conspiracy	-10.9729
▁credibility	-10.9729
▁defalcat	-10.9729
▁delirium	-10.9729
▁digitis	-10.9729
▁divorce	-10.9729
▁endeavo	-10.9729
▁evade	-10.9729
▁expose	-10.9729
▁folder	-10.9729
▁hoarding	-10.9729
▁immigra	-10.9729
▁judiciary	-10.9729
▁longitudinal	-10.9729
▁mobilizing	-10.9729
▁primitive	-10.9729
▁repl	-10.9729
▁sergeant	-10.9729
▁sleep	-10.9729
▁stipendiary	-10.9729
▁stranger	-10.9729
▁syndication	-10.9729
▁urbran	-10.9729
▁versus	-10.9729
▁athletic	-10.9729
▁chemical	-10.9729
▁database	-10.9729
▁dhamma	-10.9729
▁famine	-10.9729
▁metropolitan	-10.9729
▁receptive	-10.9729
▁rectification	-10.9729
▁reversal	-10.9729
definite	-10.9729
equivoca	-10.9729
indulgen	-10.9729
sanguin	-10.9729
▁amenities	-10.9729
▁descendant	-10.9729
▁dictionary	-10.9729
▁essence	-10.9729
▁manorial	-10.9729
▁perahera	-10.9729
▁pitch	-10.9729
▁trutee	-10.9729
▁unprotected	-10.9729
▁vacate	-10.9729
▁volle	-10.9729
▁aborigin	-10.9729
▁allottee	-10.9729
▁eternal	-10.9729
▁galgamuwa	-10.9729
▁monoton	-10.9729
▁relax	-10.9729
▁alpha	-10.9729
▁conniv	-10.9729
▁inattenti	-10.9729
▁mineral	-10.9729
▁stunt	-10.9729
bart	-10.9729
kantale	-10.9729
phren	-10.9729
▁modif	-10.9729
.11.2014	-10.9729
sophist	-10.9729
▁champert	-10.9729
▁consistently	-10.9729
▁korea	-10.9729
▁malaysia	-10.9729
▁sedition	-10.9729
▁sensing	-10.9729
kosgama	-10.9729
luwa	-10.9729
nihil	-10.9729
▁empathy	-10.9729
▁pauper	-10.9729
▁teleconferenc	-10.9729
appella	-10.9729
▁celiba	-10.9729
▁letting	-10.9729
▁notarial	-10.9729
tagonis	-10.9729
▁chairs	-10.9729
▁terminus	-10.9729
cific	-10.9729
▁biblio	-10.9729
▁conspirator	-10.9729
▁kebithigollewa	-10.9729
▁tank	-10.9729
▁vertical	-10.9729
typical	-10.9729
▁guess	-10.9729
▁trivial	-10.9729
▁differentiation	-10.9729
▁homosexual	-10.9729
▁thoro	-10.9729
▁burn	-10.9729
▁hydrophobia	-10.9729
▁gestalt	-10.9729
▁merge	-10.9729
▁shortcomings	-10.9729
▁volu	-10.9729
awaka	-10.9729
▁betting	-10.9729
▁negotiations	-10.9729
▁quetion	-10.9729
▁tribal	-10.9729
▁alarm	-10.9729
▁obliterat	-10.9729
rassment	-10.9729
▁despot	-10.9729
▁synerg	-10.9729
sahana	-10.9729
deepaval	-10.9729
▁pardon	-10.9729
▁neighbourhood	-10.9729
▁wife	-10.9729
▁constrain	-10.9729
oshin	-10.9729
▁apartment	-10.9729
▁mood	-10.9729
▁predece	-10.9729
▁clima	-10.9729
shopping	-10.9729
▁deceit	-10.9729
▁reinstate	-10.9729
melior	-10.9729
▁extrapolat	-10.9729
▁intimation	-10.9729
▁root	-10.9729
▁sculpture	-10.9729
▁premature	-10.9729
▁forecast	-10.9729
▁mcr	-10.9729
▁tactic	-10.9729
▁persua	-10.9729
▁comprehension	-10.9729
▁unskilled	-10.9729
▁ailment	-10.9729
▁literate	-10.9729
▁abeyrathn	-10.9729
▁acquisitive	-10.9729
awanella	-10.9729
▁sensitivity	-10.9729
▁exclusion	-10.9729
▁informants	-10.9729
▁overdue	-10.9729
▁cohabit	-10.9729
▁gambl	-10.9729
▁jubilee	-10.9729
▁superimpos	-10.9729
▁surcharge	-10.9729
▁chalk	-10.9729
cognition	-10.9729
▁cardinal	-10.9729
▁morawewa	-10.9729
▁bursar	-10.9729
▁pawn	-10.9729
▁feminis	-10.9729
▁anomal	-10.9729
▁carriage	-10.9729
▁annoy	-10.9729
bedda	-10.9729
▁shine	-10.9729
▁surgery	-10.9729
brow	-10.9729
▁damn	-10.9729
▁commutation	-10.9729
▁versa	-10.9729
▁spectac	-10.9729
▁"10	-10.9729
▁diyaniya	-10.9729
▁masterpiece	-10.9729
▁metamorph	-10.9729
▁constituency	-10.973
▁eradicat	-10.973
▁compact	-10.973
▁coordinators	-10.973
▁mutilat	-10.973
▁renounce	-10.973
▁drill	-10.973
▁transparency	-10.973
▁alimony	-10.973
bharath	-10.973
ield	-10.973
▁incompatible	-10.973
binet	-10.973
▁floor	-10.973
▁solvent	-10.973
▁ignorance	-10.973
▁unau	-10.973
▁precise	-10.973
nsibility	-10.973
▁spoliat	-10.973
sooriya	-10.973
▁visibility	-10.973
▁axiom	-10.973
▁deliberate	-10.973
▁dictator	-10.973
▁2014-2016	-10.973
aluth	-10.973
▁isolate	-10.973
▁transgress	-10.973
▁digest	-10.973
▁firm	-10.973
▁suicide	-10.973
jatha	-10.973
▁eccentric	-10.973
amble	-10.973
▁lunama	-10.9731
▁interruption	-10.9731
▁hiring	-10.9731
▁proximate	-10.9731
▁usual	-10.9731
▁accrue	-10.9731
▁coated	-10.9731
hearsa	-10.9731
▁defi	-10.9731
▁attitudinal	-10.9731
▁imperative	-10.9731
▁dharma	-10.9731
▁abandonment	-10.9731
▁proclaim	-10.9731
▁ambula	-10.9731
▁inclusion	-10.9731
▁disclaim	-10.9731
▁replace	-10.9731
▁compel	-10.9731
▁humour	-10.9731
▁rajatha	-10.9731
▁highlight	-10.9731
▁vihara	-10.9731
▁dispers	-10.9731
▁geometr	-10.9731
▁proved	-10.9731
▁finger	-10.9731
▁trainers	-10.9731
▁nsb	-10.9731
▁renunciation	-10.9732
▁unanimous	-10.9732
▁resumption	-10.9732
▁enumerator	-10.9732
▁survivor	-10.9732
▁chastise	-10.9732
▁demur	-10.9732
▁transnational	-10.9732
▁"1.2.6	-10.9732
▁intervention	-10.9732
▁deviant	-10.9732
▁tutela	-10.9732
▁demographic	-10.9732
▁truteeship	-10.9732
▁retardation	-10.9732
▁enumeration	-10.9732
▁inferiority	-10.9732
▁decisive	-10.9732
▁viharaya	-10.9732
▁creativity	-10.9732
▁absorben	-10.9732
ikama	-10.9732
▁suborn	-10.9733
▁nawa	-10.9733
▁prejudicial	-10.9733
▁elevation	-10.9733
▁interdict	-10.9733
▁parish	-10.9733
▁pendency	-10.9733
▁baby	-10.9733
theep	-10.9734
▁evasi	-10.9734
lihini	-10.9734
▁faithful	-10.9734
▁ramb	-10.9734
▁stimulation	-10.9734
▁partisan	-10.9734
▁bureaucra	-10.9734
▁exemplary	-10.9734
5,0	-10.9734
▁corpus	-10.9734
▁10.30	-10.9734
▁4.3.	-10.9734
▁tutorial	-10.9734
▁remainder	-10.9734
▁voy	-10.9734
▁pride	-10.9735
▁destitute	-10.9735
▁inches	-10.9735
▁blog	-10.9735
▁77	-10.9735
▁68	-10.9736
▁minu	-10.9736
▁hill	-10.9736
▁attet	-10.9736
▁fill	-10.9736
▁desk	-10.9736
▁upload	-10.9736
▁2007	-10.9737
▁potet	-10.9737
▁reallocation	-10.9737
▁restoration	-10.9737
▁gun	-10.9738
▁impulsive	-10.9738
▁flu	-10.9738
avar	-10.9738
graphi	-10.9738
▁million	-10.9738
▁advisor	-10.9738
▁speculative	-10.9738
▁chun	-10.9738
▁fantasy	-10.9738
▁occurr	-10.9738
▁enforceable	-10.9739
▁illness	-10.9739
▁detach	-10.9739
▁conju	-10.9739
▁hybridization	-10.9739
▁predica	-10.9739
▁gainful	-10.9739
▁utmo	-10.974
▁density	-10.974
▁parol	-10.974
▁fear	-10.974
▁ideation	-10.974
▁unmatured	-10.9741
▁spur	-10.9741
▁nega	-10.9741
ivu	-10.9742
▁reorganization	-10.9742
▁undeclared	-10.9742
▁multiplex	-10.9743
▁authoriz	-10.9743
▁galvaniz	-10.9743
aji	-10.9743
dina	-10.9743
▁gland	-10.9743
▁cashier	-10.9743
▁slot	-10.9743
▁detrimental	-10.9744
▁unconscious	-10.9744
like	-10.9744
▁adjudication	-10.9744
▁contributory	-10.9744
▁architecture	-10.9744
▁traverse	-10.9744
ruthan	-10.9745
▁encouragement	-10.9745
▁milk	-10.9745
▁terminolog	-10.9745
▁verse	-10.9745
▁pedro	-10.9746
▁resonance	-10.9746
▁replacement	-10.9747
▁xd	-10.9747
▁secur	-10.9747
▁truth	-10.9748
▁prospective	-10.9748
▁actio	-10.9748
▁alienate	-10.9748
▁boil	-10.9748
▁metes	-10.9749
▁lib	-10.9749
▁beam	-10.9749
▁premeditated	-10.9749
▁calculated	-10.9749
▁multiplexer	-10.9749
▁regiment	-10.9749
itarian	-10.975
presence	-10.9751
kinesi	-10.9751
▁honorari	-10.9752
▁universita	-10.9752
consul	-10.9752
▁mutin	-10.9752
▁exemption	-10.9752
▁remission	-10.9753
▁insatia	-10.9753
▁email	-10.9753
▁cameraman	-10.9753
▁typography	-10.9754
▁tenor	-10.9754
▁magic	-10.9754
▁coding	-10.9754
▁merci	-10.9754
hani	-10.9755
▁grama	-10.9755
▁careless	-10.9756
▁175	-10.9756
▁inert	-10.9756
▁mandam	-10.9757
▁personification	-10.9757
▁slave	-10.9758
▁seek	-10.9758
▁157	-10.9758
▁equalization	-10.9758
▁liable	-10.9758
▁stale	-10.9758
▁spelling	-10.9759
▁contrast	-10.976
tarian	-10.976
▁misde	-10.976
▁01.01.2012	-10.976
▁64	-10.9761
square	-10.9761
▁warming	-10.9762
▁reprint	-10.9762
mmar	-10.9762
tapping	-10.9763
▁prose	-10.9763
▁marxist	-10.9764
▁correlate	-10.9764
consol	-10.9764
▁liberation	-10.9765
▁mariner	-10.9765
▁minimiz	-10.9766
▁denotati	-10.9766
rgency	-10.9766
▁learner	-10.9766
▁mystic	-10.9767
atiyana	-10.9767
▁bell	-10.9769
▁preci	-10.9769
wathi	-10.9769
▁modulat	-10.977
▁cultivat	-10.977
▁buyer	-10.977
▁gest	-10.9772
▁immoral	-10.9772
▁partial	-10.9772
nct	-10.9772
▁deter	-10.9772
▁nullity	-10.9772
▁comes	-10.9772
▁civilian	-10.9773
mulation	-10.9774
▁bungalows	-10.9777
▁rupees	-10.9777
▁specialised	-10.9778
▁insan	-10.9778
▁isuru	-10.9779
▁gurukula	-10.978
▁owe	-10.9781
acher	-10.9781
▁chance	-10.9781
valence	-10.9782
▁cup	-10.9782
▁objectionable	-10.9782
▁delegated	-10.9782
▁entitled	-10.9783
▁adolescence	-10.9784
▁esteem	-10.9784
▁exculpat	-10.9784
▁pronunciation	-10.9784
▁efficac	-10.9784
▁resigned	-10.9784
▁drop	-10.9784
▁colonization	-10.9784
▁authenticated	-10.9784
▁fraction	-10.9784
trate	-10.9784
▁anticipated	-10.9785
▁pillaiya	-10.9785
▁defamatory	-10.9785
▁apprehension	-10.9786
▁exploration	-10.9786
▁assume	-10.9787
akam	-10.9787
▁separately	-10.9787
▁reflection	-10.9788
▁facto	-10.9791
wait	-10.9793
itia	-10.9793
▁wrongfully	-10.9793
▁deployment	-10.9794
eiling	-10.9794
▁lessor	-10.9796
▁tile	-10.9797
▁impartial	-10.9797
▁cancell	-10.9798
drama	-10.9798
▁warning	-10.9799
▁edit	-10.9801
onym	-10.9802
▁affi	-10.9802
ttam	-10.9802
elle	-10.9803
▁confiscate	-10.9803
▁movie	-10.9803
▁authoris	-10.9805
tories	-10.9805
▁synd	-10.9806
▁joy	-10.9807
▁lecturer	-10.9808
epura	-10.9809
▁delinquent	-10.9809
▁comity	-10.9809
▁5.1	-10.981
▁distinguishing	-10.981
▁successor	-10.9811
▁furnishing	-10.9811
▁jure	-10.9813
▁herd	-10.9813
▁digan	-10.9815
▁canon	-10.9816
▁rote	-10.9818
▁standardization	-10.9818
.09.2011-	-10.982
▁complexity	-10.982
thala	-10.9821
▁sacred	-10.9821
▁chil	-10.9822
▁depository	-10.9823
symmetrical	-10.9824
▁thank	-10.9826
vice	-10.9827
▁graph	-10.9827
▁appealable	-10.9828
▁regulate	-10.9828
▁senate	-10.983
escap	-10.983
gahaw	-10.9831
thra	-10.9831
▁spo	-10.9832
sensitization	-10.9835
▁terra	-10.9835
▁cultur	-10.9836
▁govern	-10.9836
▁apolog	-10.9837
▁pain	-10.9838
▁opposite	-10.9838
▁kun	-10.9841
erence	-10.9841
earing	-10.9842
▁commen	-10.9842
cepti	-10.9843
chromatic	-10.9844
nagoda	-10.9844
▁transmitt	-10.9844
▁inherit	-10.9849
▁3.5.	-10.9853
▁scene	-10.9856
▁depositor	-10.9858
▁discussed	-10.9858
formative	-10.9858
▁buy	-10.9858
▁fable	-10.986
▁sizes	-10.986
▁scholars	-10.986
▁physically	-10.9863
▁emigra	-10.9863
▁borrowing	-10.9864
wella	-10.9864
▁impo	-10.9865
▁kota	-10.9866
sembl	-10.9867
▁generate	-10.9869
liness	-10.9871
▁meda	-10.9871
spiration	-10.9876
▁availab	-10.9876
▁abstraction	-10.9876
▁cada	-10.9879
▁memorial	-10.9881
▁copyright	-10.9882
▁popul	-10.9882
▁bodhi	-10.9882
▁how	-10.9883
▁hind	-10.9883
▁lawfully	-10.9887
▁5.4	-10.9889
nena	-10.9893
▁"12	-10.9894
▁attested	-10.9895
▁plur	-10.9896
▁machinery	-10.9897
▁gathered	-10.9897
▁secured	-10.9897
▁habitua	-10.9899
▁hor	-10.9904
▁"2.	-10.9905
▁analogy	-10.9906
▁mea	-10.9913
▁spoke	-10.9913
▁refundable	-10.9914
ianism	-10.992
▁dean	-10.992
▁ampl	-10.9924
▁coh	-10.9925
▁nerv	-10.9925
▁ella	-10.9928
▁tree	-10.9932
90	-10.9934
▁ago	-10.9934
▁transitional	-10.9935
idity	-10.9936
raise	-10.9936
▁longer	-10.9936
▁financing	-10.9937
▁conce	-10.9937
lique	-10.9941
▁elders	-10.9945
vag	-10.9946
▁deductions	-10.9946
▁linkages	-10.9946
▁overheads	-10.9946
▁decades	-10.9946
▁circumstances	-10.9946
▁corps	-10.9946
▁trailers	-10.9947
▁piyas	-10.9947
▁sola	-10.995
kki	-10.995
,57	-10.995
▁washing	-10.9951
admin	-10.9953
▁vend	-10.9954
▁validation	-10.9963
▁artistes	-10.9963
▁saleable	-10.9963
▁say	-10.9964
maduwa	-10.9965
activate	-10.9965
broke	-10.9966
proportionate	-10.9969
entrepreneurship	-10.9972
▁sithth	-10.9974
▁liberat	-10.9977
lash	-10.9978
▁thursday	-10.998
▁wednesday	-10.998
▁processes	-10.9981
▁handle	-10.9982
tribution	-10.9982
▁5.5	-10.9986
▁dissen	-10.9987
entry	-10.9992
acity	-10.9992
penalties	-10.9994
▁symp	-10.9995
cultur	-10.9996
▁animal	-10.9998
▁aboli	-10.9998
▁caste	-11.0003
strial	-11.0006
schools	-11.0006
▁induction	-11.0008
▁assa	-11.0012
sena	-11.0013
▁devi	-11.0014
capitation	-11.0019
▁congr	-11.0022
▁levying	-11.0028
▁34	-11.0032
▁cots	-11.0032
▁crafts	-11.0033
▁servers	-11.0034
▁21-	-11.0045
▁discharged	-11.0049
▁div	-11.0051
▁promoter	-11.0069
interveni	-11.0077
▁fit	-11.0081
▁sessional	-11.0082
▁tuesday	-11.0082
▁monday	-11.0085
▁figurati	-11.0086
▁kanda	-11.0088
▁theft	-11.0092
▁conductor	-11.0096
aneswary	-11.0098
▁relativ	-11.0104
zzle	-11.0106
▁ves	-11.0121
▁gree	-11.0122
▁specifications	-11.0122
▁governors	-11.0123
▁trends	-11.0123
▁bear	-11.0128
host	-11.0129
,04	-11.013
traction	-11.0132
▁hedonis	-11.0135
▁designers	-11.0135
narama	-11.014
ogam	-11.0142
▁cosmo	-11.0144
erty	-11.0151
▁tant	-11.0152
▁generalization	-11.0157
ury	-11.0171
▁expedit	-11.0172
uence	-11.0173
mascul	-11.0181
▁karat	-11.0183
egama	-11.0191
only	-11.0197
juror	-11.0198
▁melancholi	-11.0202
ugan	-11.0203
▁chatte	-11.0204
▁unv	-11.0206
dium	-11.0208
▁subscrib	-11.021
▁conservati	-11.0221
angala	-11.0224
/08/0	-11.0226
▁existential	-11.0228
tatement	-11.024
▁lan	-11.0244
ival	-11.0264
han	-11.0276
herit	-11.0287
▁veni	-11.0295
dasa	-11.0317
▁contraction	-11.0319
loqu	-11.0323
▁upgrad	-11.0339
▁feed	-11.0353
▁did	-11.0358
▁tre	-11.0368
▁vir	-11.0385
▁24.04.201	-11.0392
reconcile	-11.0393
▁awa	-11.0394
mandapam	-11.0401
ugal	-11.0404
exter	-11.0405
tching	-11.0413
amil	-11.0418
▁bene	-11.0422
gee	-11.0424
▁intentional	-11.0427
▁poo	-11.0431
ulate	-11.0437
▁graded	-11.0442
ganga	-11.0459
protective	-11.0465
▁indicate	-11.0489
▁distract	-11.0499
▁seize	-11.0525
hum	-11.0533
lue	-11.0544
peration	-11.0544
ition	-11.0562
vidu	-11.0566
▁coincide	-11.0582
▁melod	-11.0605
2002	-11.0606
▁sug	-11.0613
psychos	-11.062
▁overcom	-11.0634
▁je	-11.0646
▁interdependenc	-11.0664
▁attract	-11.0668
mulated	-11.0672
▁wije	-11.0696
▁mobilize	-11.0712
umour	-11.0719
chargers	-11.0754
▁cru	-11.0758
mitt	-11.0776
anger	-11.0778
ssary	-11.0815
▁cede	-11.0831
255	-11.0864
▁ado	-11.088
dependence	-11.089
▁organis	-11.0932
▁individualiz	-11.0945
selv	-11.0972
▁capabilit	-11.0979
brevi	-11.1009
rang	-11.1017
▁endur	-11.1074
fare	-11.1084
▁integrati	-11.1085
count	-11.1123
repute	-11.1162
▁22.04.201	-11.1216
chief	-11.1284
▁solid	-11.1306
▁aqu	-11.1394
place	-11.1475
▁uphold	-11.1486
contextualiz	-11.1486
ebra	-11.1489
▁confederat	-11.1514
nadee	-11.1528
tude	-11.1557
▁restructur	-11.1591
thesis	-11.1598
▁fra	-11.1622
tuwa	-11.1642
andwi	-11.168
▁adjudge	-11.1685
ttala	-11.1703
▁repe	-11.1735
anayake	-11.1759
olation	-11.1781
▁sama	-11.1807
.08.2015	-11.1811
▁retract	-11.1849
▁neuro	-11.1853
▁ortho	-11.1855
.04.2011	-11.1862
omic	-11.1927
▁disclose	-11.1963
uity	-11.198
▁conjunct	-11.2029
formulat	-11.204
79	-11.2051
▁idio	-11.2057
iviti	-11.2064
ella	-11.2106
▁pessimis	-11.2138
▁altruis	-11.2138
▁truan	-11.2157
rict	-11.228
▁loo	-11.2341
▁prema	-11.2357
▁199	-11.2357
▁nade	-11.2363
props	-11.2383
affection	-11.2388
▁contextual	-11.2395
▁syno	-11.2476
▁divide	-11.2485
▁demi	-11.2515
▁connect	-11.2523
▁augment	-11.2526
33	-11.253
▁attain	-11.2534
annel	-11.2559
▁deep	-11.2564
▁158	-11.2699
icated	-11.27
aria	-11.2711
apid	-11.2755
perish	-11.2849
imony	-11.2852
trial	-11.2877
grade	-11.2906
▁acquitta	-11.293
09	-11.2935
▁occup	-11.2977
eye	-11.3048
▁interpret	-11.3087
▁retribut	-11.32
▁import	-11.3205
.10.2011	-11.3228
bewa	-11.323
comparable	-11.3234
▁recou	-11.3236
▁organ	-11.3266
▁muthu	-11.3269
▁ecolog	-11.3291
ngular	-11.3296
feudal	-11.3333
aiming	-11.3334
rma	-11.3351
rivi	-11.3454
▁hel	-11.3475
▁defeas	-11.3499
▁31.05.201	-11.3556
fences	-11.3558
iyar	-11.357
pathi	-11.3586
▁dysph	-11.3587
tax	-11.3609
76	-11.3651
tillery	-11.37
anthi	-11.37
gnostic	-11.3721
▁ethno	-11.3725
▁saiva	-11.3793
99	-11.3805
▁susi	-11.381
▁dogma	-11.3829
▁ineffective	-11.3834
activity	-11.3836
ndo	-11.3872
54	-11.393
aimed	-11.3948
▁existentialis	-11.3962
metric	-11.3978
cast	-11.3985
nake	-11.399
▁dig	-11.4005
▁pric	-11.4078
▁mortgag	-11.4139
uzz	-11.4143
iyana	-11.4158
▁interven	-11.4187
kuda	-11.42
▁disburs	-11.4205
cosm	-11.4209
▁utilis	-11.4222
suit	-11.4225
▁harmoni	-11.4249
▁lith	-11.4252
▁agnati	-11.4256
▁ancest	-11.4271
uthu	-11.4273
beer	-11.4281
▁cheer	-11.4288
grant	-11.4308
sibl	-11.4328
abolis	-11.435
▁referent	-11.4367
▁electr	-11.4374
▁mob	-11.4377
learn	-11.4381
hold	-11.4383
sight	-11.4386
aternity	-11.4391
▁kula	-11.4402
jury	-11.4405
corporation	-11.4407
determin	-11.441
▁proceed	-11.4418
signi	-11.4423
urb	-11.4429
statements	-11.4433
center	-11.4437
map	-11.4443
▁botan	-11.4452
light	-11.4464
▁politic	-11.4474
how	-11.4478
dited	-11.4481
igal	-11.4482
validation	-11.4486
refundable	-11.4486
machinery	-11.4486
memorial	-11.4486
bodhi	-11.4486
copyright	-11.4486
availab	-11.4486
▁dialect	-11.4487
view	-11.4491
vana	-11.4494
concentration	-11.4497
folio	-11.4497
thiruva	-11.4497
respondent	-11.4497
soap	-11.4497
physic	-11.4497
false	-11.4498
wealth	-11.4498
pleasure	-11.4499
placement	-11.4499
valuation	-11.45
hanging	-11.45
mahawe	-11.4501
38	-11.4502
vernacular	-11.4503
fiction	-11.4504
equivalent	-11.4504
closure	-11.4504
product	-11.4505
low	-11.4506
lateral	-11.4507
doctors	-11.4507
collect	-11.4508
settlement	-11.4509
organic	-11.451
observ	-11.451
soft	-11.4511
protect	-11.4512
present	-11.4512
2014	-11.4512
accused	-11.4512
utop	-11.4512
context	-11.4513
surety	-11.4513
public	-11.4514
settled	-11.4514
▁emi	-11.4514
claim	-11.4515
birth	-11.4515
confidence	-11.4515
phase	-11.4515
kind	-11.4516
discipline	-11.4516
issuance	-11.4516
empowerment	-11.4516
▁furnish	-11.4517
focal	-11.4517
kaluthara	-11.4517
purchas	-11.4517
promot	-11.4518
right	-11.4518
client	-11.4518
imprest	-11.4518
orientation	-11.4519
therap	-11.4519
look	-11.4519
anuradhapura	-11.4519
gampaha	-11.452
identification	-11.452
compil	-11.452
follow	-11.452
matale	-11.452
functional	-11.452
▁scholar	-11.452
drive	-11.452
▁2014/2	-11.452
mullaitivu	-11.452
urban	-11.4521
discussion	-11.4521
acceptance	-11.4521
introduction	-11.4521
vocational	-11.4521
recommendations	-11.4521
sheet	-11.4521
popular	-11.4521
practice	-11.4521
recovery	-11.4521
youth	-11.4521
magazine	-11.4521
occupation	-11.4521
prepar	-11.4521
ratnapura	-11.4521
▁anthropo	-11.4522
permanent	-11.4522
focus	-11.4522
2017	-11.4522
assessment	-11.4522
disable	-11.4522
broadcast	-11.4522
studio	-11.4522
scholarships	-11.4523
professional	-11.4523
teaching	-11.4523
nals	-11.4523
audio	-11.4523
university	-11.4523
secretary	-11.4523
application	-11.4523
license	-11.4523
details	-11.4523
world	-11.4523
teledrama	-11.4523
jaffna	-11.4523
technology	-11.4523
first	-11.4524
commercial	-11.4524
party	-11.4524
record	-11.4524
examination	-11.4524
business	-11.4524
standard	-11.4524
students	-11.4524
security	-11.4524
trade	-11.4525
internal	-11.4525
process	-11.4525
activities	-11.4525
number	-11.4525
religious	-11.4525
system	-11.4525
integration	-11.4525
▁recogniz	-11.4525
free	-11.4525
money	-11.4525
construction	-11.4526
arrangement	-11.4527
life	-11.4528
three	-11.4528
financi	-11.4528
donation	-11.4528
medium	-11.4529
66	-11.453
▁component	-11.453
creat	-11.4532
▁quarter	-11.4533
▁stakeholder	-11.4533
allocation	-11.4534
cheque	-11.4537
delivery	-11.4538
key	-11.4539
water	-11.454
motor	-11.4541
▁alert	-11.4543
independence	-11.4543
3.7	-11.4543
▁transmit	-11.4544
variance	-11.4544
▁participant	-11.4544
▁emolument	-11.4545
facilitation	-11.4549
liability	-11.455
formulation	-11.455
▁gratu	-11.4551
some	-11.4551
block	-11.4553
graded	-11.4554
recurrent	-11.4554
avur	-11.4555
150	-11.4557
▁append	-11.4558
editing	-11.4559
▁challeng	-11.4559
▁size	-11.4561
cated	-11.4563
75	-11.4565
▁esca	-11.4568
▁practic	-11.4569
force	-11.457
▁scen	-11.4572
made	-11.4575
▁attribut	-11.4582
pense	-11.4582
▁keep	-11.4584
▁revis	-11.4585
▁polyg	-11.4586
cost	-11.4587
▁indicator	-11.459
▁shan	-11.4595
gap	-11.4596
▁distinguish	-11.4596
akshi	-11.4597
nsorship	-11.4598
stitute	-11.46
menc	-11.4601
▁shoot	-11.4606
ciplinary	-11.4607
▁confiscat	-11.4608
▁lodg	-11.4613
iliya	-11.4614
volve	-11.4616
clude	-11.4616
vestigation	-11.4617
▁anticipat	-11.4623
tration	-11.4628
make	-11.4633
▁vest	-11.4635
▁counsell	-11.4635
opical	-11.4636
▁schem	-11.4637
ograph	-11.4637
▁incurr	-11.4639
▁dat	-11.464
▁luc	-11.4645
▁suspens	-11.4651
ngue	-11.4653
▁residu	-11.4656
served	-11.4656
title	-11.4659
▁immor	-11.4662
▁atmospher	-11.4662
▁domicil	-11.4662
▁approximat	-11.4662
▁examin	-11.4665
▁urge	-11.4667
▁renew	-11.4668
▁mechanic	-11.4668
dav	-11.4669
▁absolut	-11.4669
▁nativ	-11.4669
▁crimin	-11.467
▁constructiv	-11.4671
▁collectiv	-11.4672
▁minim	-11.4674
liber	-11.4675
camp	-11.4676
amou	-11.4677
▁supervise	-11.4677
conceptualiz	-11.4682
▁3.5	-11.4684
▁amplifi	-11.4684
▁yati	-11.4684
▁cancel	-11.4686
▁remedi	-11.4687
▁licen	-11.4687
▁typograph	-11.4688
▁propose	-11.4689
▁portra	-11.469
▁excellenc	-11.4691
▁prescribe	-11.4693
▁sundr	-11.4693
▁temporar	-11.4694
▁contemp	-11.4695
▁option	-11.4698
▁olig	-11.4699
▁commo	-11.4699
▁waive	-11.4701
▁delegate	-11.4703
akum	-11.4704
tainment	-11.4705
▁temp	-11.4705
ject	-11.4706
tiate	-11.4707
▁trail	-11.4707
▁benevolen	-11.4708
▁mechani	-11.4708
▁probabilit	-11.4709
▁speak	-11.4709
▁ordina	-11.471
hibit	-11.471
▁forget	-11.471
▁specif	-11.471
rako	-11.4711
▁celebr	-11.4712
▁addict	-11.4712
kku	-11.4712
▁occur	-11.4713
▁incorpor	-11.4713
▁reductio	-11.4713
▁separatio	-11.4713
achment	-11.4713
hief	-11.4713
▁donatio	-11.4714
▁demonstrat	-11.4715
▁circulat	-11.4715
▁signifi	-11.4715
▁petit	-11.4716
▁recommend	-11.4716
▁provis	-11.4716
▁unemploy	-11.4718
▁speculati	-11.4718
▁emergen	-11.4718
olving	-11.4718
▁adjourn	-11.4719
▁admissi	-11.472
▁exempl	-11.472
▁punish	-11.472
▁complement	-11.472
▁depart	-11.472
elective	-11.4721
▁rehabilitati	-11.4721
▁seria	-11.4721
rupt	-11.4721
▁alcohol	-11.4721
artisan	-11.4722
▁emoti	-11.4722
/31	-11.4722
▁legitima	-11.4722
▁differ	-11.4723
plex	-11.4723
▁scandal	-11.4723
tractors	-11.4723
sequential	-11.4724
▁eligib	-11.4724
▁threat	-11.4724
▁responsi	-11.4724
attaram	-11.4724
▁imitat	-11.4725
▁frequen	-11.4725
juta	-11.4725
dharmas	-11.4725
▁proxim	-11.4725
▁contradict	-11.4726
achron	-11.4726
elope	-11.4726
▁repri	-11.4727
▁extrover	-11.4727
▁irregular	-11.4727
itorial	-11.4727
quisition	-11.4727
▁judic	-11.4727
▁hanguranket	-11.4727
refo	-11.4727
▁arbit	-11.4727
piece	-11.4727
01/2010	-11.4727
▁advent	-11.4727
▁cult	-11.4728
▁reimburs	-11.4728
ligence	-11.4728
▁disqualif	-11.4728
▁amorti	-11.4728
▁negotiat	-11.4728
atisfied	-11.4729
▁chasti	-11.4729
▁concurrence	-11.4729
vidiy	-11.4729
▁rectifi	-11.4729
▁enlighten	-11.4729
▁gymnas	-11.4729
▁negativis	-11.4729
▁teleprompt	-11.4729
▁tetament	-11.4729
.04.2014	-11.4729
9427	-11.4729
arisanam	-11.4729
awardhana	-11.4729
ayubowewa	-11.4729
changam	-11.4729
chcheri	-11.4729
dactylology	-11.4729
daughter	-11.4729
emancipate	-11.4729
galenbindunuwewa	-11.4729
hearted	-11.4729
hurubuhuti	-11.4729
jayawardhanapura	-11.4729
kalabhushana	-11.4729
krishna	-11.4729
manthurai	-11.4729
medawachchiya	-11.4729
mighty	-11.4729
paramitha	-11.4729
pocket	-11.4729
psychiatr	-11.4729
ransirimal	-11.4729
recurring	-11.4729
sarisara	-11.4729
stigmati	-11.4729
thirasara	-11.4729
thirukkovil	-11.4729
variate	-11.4729
vijayanantha	-11.4729
▁"9411-23001	-11.4729
▁2014.01.14	-11.4729
▁adequacy	-11.4729
▁adversar	-11.4729
▁aeronautical	-11.4729
▁affiliation	-11.4729
▁akkaraipattu	-11.4729
▁ambalangoda	-11.4729
▁ambalantota	-11.4729
▁apprehend	-11.4729
▁archaeological	-11.4729
▁attractiveness	-11.4729
▁autobiographies	-11.4729
▁autobiography	-11.4729
▁babbling	-11.4729
▁bachelor	-11.4729
▁balancing	-11.4729
▁bangadeniya	-11.4729
▁bangkok	-11.4729
▁boutique	-11.4729
▁boycott	-11.4729
▁bulathsinhala	-11.4729
▁burglary	-11.4729
▁camcorder	-11.4729
▁catalyst	-11.4729
▁catastrophe	-11.4729
▁cathartic	-11.4729
▁circusmtance	-11.4729
▁clergy	-11.4729
▁cochannel	-11.4729
▁competitor	-11.4729
▁concrete	-11.4729
▁consumable	-11.4729
▁consummate	-11.4729
▁converging	-11.4729
▁currencies	-11.4729
▁demolition	-11.4729
▁denominate	-11.4729
▁depreciated	-11.4729
▁deprive	-11.4729
▁derecognized	-11.4729
▁despair	-11.4729
▁destroy	-11.4729
▁diagonal	-11.4729
▁diffiden	-11.4729
▁diligent	-11.4729
▁dimbulagala	-11.4729
▁diminution	-11.4729
▁discriminate	-11.4729
▁disfigur	-11.4729
▁disgrace	-11.4729
▁disobedien	-11.4729
▁dispauper	-11.4729
▁dispossess	-11.4729
▁disputant	-11.4729
▁dissimilar	-11.4729
▁divergent	-11.4729
▁drunken	-11.4729
▁embassies	-11.4729
▁embassy	-11.4729
▁encashment	-11.4729
▁equivalence	-11.4729
▁escheat	-11.4729
▁escrow	-11.4729
▁exterior	-11.4729
▁extraneous	-11.4729
▁falsification	-11.4729
▁fencing	-11.4729
▁fight	-11.4729
▁fraternal	-11.4729
▁galewatta	-11.4729
▁ganesha	-11.4729
▁gaveshi	-11.4729
▁genuine	-11.4729
▁headquarter	-11.4729
▁height	-11.4729
▁husband	-11.4729
▁idiosyncra	-11.4729
▁illiterate	-11.4729
▁imbecil	-11.4729
▁incompetenc	-11.4729
▁injuria	-11.4729
▁intelligent	-11.4729
▁interquartile	-11.4729
▁introversion	-11.4729
▁introvert	-11.4729
▁katugastota	-11.4729
▁kokavil	-11.4729
▁kothmale	-11.4729
▁laminat	-11.4729
▁laughter	-11.4729
▁littoral	-11.4729
▁magnificence	-11.4729
▁maharagama	-11.4729
▁majest	-11.4729
▁maladapt	-11.4729
▁mallavi	-11.4729
▁meerigama	-11.4729
▁midwife	-11.4729
▁minuwangoda	-11.4729
▁moderator	-11.4729
▁multimodal	-11.4729
▁multiplier	-11.4729
▁naught	-11.4729
▁nautical	-11.4729
▁negotitaion	-11.4729
▁niladari	-11.4729
▁notified	-11.4729
▁notwithstanding	-11.4729
▁nuisance	-11.4729
▁nuncupative	-11.4729
▁nuptiae	-11.4729
▁obscene	-11.4729
▁oddusud	-11.4729
▁opportunis	-11.4729
▁oppose	-11.4729
▁ornamental	-11.4729
▁outflow	-11.4729
▁outsourcing	-11.4729
▁pedestrian	-11.4729
▁persecution	-11.4729
▁persistence	-11.4729
▁philanthrop	-11.4729
▁philosophical	-11.4729
▁pithy	-11.4729
▁pragmatic	-11.4729
▁premiere	-11.4729
▁preponderance	-11.4729
▁propagate	-11.4729
▁quartile	-11.4729
▁reconvey	-11.4729
▁reconvict	-11.4729
▁reliably	-11.4729
▁removed	-11.4729
▁reprobat	-11.4729
▁rescind	-11.4729
▁rugby	-11.4729
▁salutary	-11.4729
▁scaffolding	-11.4729
▁scenario	-11.4729
▁scintilla	-11.4729
▁scrutiny	-11.4729
▁seethawaka	-11.4729
▁servitus	-11.4729
▁shuffle	-11.4729
▁simplified	-11.4729
▁sinistral	-11.4729
▁sisilasa	-11.4729
▁spindle	-11.4729
▁statitics	-11.4729
▁stenographers	-11.4729
▁streamline	-11.4729
▁subpoena	-11.4729
▁subsitence	-11.4729
▁sudasuna	-11.4729
▁suffrage	-11.4729
▁superficiaru	-11.4729
▁tactile	-11.4729
▁tainted	-11.4729
▁tandard	-11.4729
▁taxiderm	-11.4729
▁teldeniya	-11.4729
▁thambuththegama	-11.4729
▁thanthirimale	-11.4729
▁thavalama	-11.4729
▁thunukkai	-11.4729
▁transgenic	-11.4729
▁typology	-11.4729
▁udugama	-11.4729
▁unascertain	-11.4729
▁uncontrollable	-11.4729
▁underwriting	-11.4729
▁undesirable	-11.4729
▁undoubted	-11.4729
▁unicameral	-11.4729
▁unprivileged	-11.4729
▁unseaworthy	-11.4729
▁unvalued	-11.4729
▁unwholesome	-11.4729
▁vadamaradchi	-11.4729
▁vasamtham	-11.4729
▁vasantham	-11.4729
▁verified	-11.4729
▁villein	-11.4729
▁visithuru	-11.4729
▁vocabulary	-11.4729
▁voluntas	-11.4729
▁walapane	-11.4729
▁walasmulla	-11.4729
▁wandering	-11.4729
▁wattegama	-11.4729
▁weaknesses	-11.4729
▁zoom	-11.4729
8880	-11.4729
▁behind	-11.4729
▁defeat	-11.4729
▁dothak	-11.4729
▁gopuram	-11.4729
▁paraphras	-11.4729
▁pencil	-11.4729
▁qualify	-11.4729
▁qualities	-11.4729
▁unexp	-11.4729
belligeren	-11.4729
controvert	-11.4729
triangle	-11.4729
▁attenuat	-11.4729
▁betray	-11.4729
▁contagion	-11.4729
▁couples	-11.4729
▁dalton	-11.4729
▁deflorati	-11.4729
▁deniyaya	-11.4729
▁derelict	-11.4729
▁devotion	-11.4729
▁dilatory	-11.4729
▁disbelie	-11.4729
▁dismantle	-11.4729
▁eidetic	-11.4729
▁elucidat	-11.4729
▁figment	-11.4729
▁germany	-11.4729
▁gomarankadaw	-11.4729
▁gutenberg	-11.4729
▁harvest	-11.4729
▁hazard	-11.4729
▁hegemon	-11.4729
▁hermeneutic	-11.4729
▁heterogene	-11.4729
▁imperfect	-11.4729
▁indifference	-11.4729
▁invetigat	-11.4729
▁messaging	-11.4729
▁mimetic	-11.4729
▁mongol	-11.4729
▁negotio	-11.4729
▁newsletter	-11.4729
▁occult	-11.4729
▁patrimon	-11.4729
▁patriot	-11.4729
▁pecun	-11.4729
▁perceptual	-11.4729
▁philolog	-11.4729
▁polpit	-11.4729
▁primarily	-11.4729
▁puritan	-11.4729
▁ravish	-11.4729
▁reckless	-11.4729
▁repatriat	-11.4729
▁sabot	-11.4729
▁sampath	-11.4729
▁solitary	-11.4729
▁storming	-11.4729
▁supernumera	-11.4729
▁synchron	-11.4729
▁telecommut	-11.4729
▁teletype	-11.4729
▁tidiness	-11.4729
▁titular	-11.4729
▁trauma	-11.4729
▁verbatim	-11.4729
▁victim	-11.4729
▁violate	-11.4729
.10.2015	-11.4729
.12.2011-	-11.4729
commissioned	-11.4729
durangam	-11.4729
haraskada	-11.4729
▁acoustic	-11.4729
▁additive	-11.4729
▁bastard	-11.4729
▁crop	-11.4729
▁decisory	-11.4729
▁dignitar	-11.4729
▁disregar	-11.4729
▁dummy	-11.4729
▁excisable	-11.4729
▁fool	-11.4729
▁grocer	-11.4729
▁handicap	-11.4729
▁horror	-11.4729
▁intuitiv	-11.4729
▁multilingualism	-11.4729
▁prolix	-11.4729
▁refine	-11.4729
▁saddha	-11.4729
▁steadiness	-11.4729
rambaw	-11.4729
▁distraint	-11.4729
▁droit	-11.4729
▁evangelical	-11.4729
▁measuring	-11.4729
▁proctor	-11.4729
▁supernatural	-11.4729
▁tranfer	-11.4729
▁unesco	-11.4729
▁hetero	-11.4729
▁module	-11.4729
▁verify	-11.4729
▁22.08	-11.4729
▁collegia	-11.4729
▁conglomerate	-11.4729
▁disallow	-11.4729
▁hunu	-11.4729
▁inherent	-11.4729
▁nuga	-11.4729
▁seduce	-11.4729
▁senanayake	-11.4729
▁terrorism	-11.4729
▁vendita	-11.4729
▁vox	-11.4729
▁butcher	-11.4729
▁calender	-11.4729
▁entomolog	-11.4729
▁mirac	-11.4729
▁refresher	-11.4729
▁satisfactor	-11.4729
▁slida	-11.4729
▁temperament	-11.4729
▁embrace	-11.4729
▁maho	-11.4729
▁pregnan	-11.4729
▁sequest	-11.4729
▁thiha	-11.4729
▁usurp	-11.4729
▁familiar	-11.4729
iguity	-11.4729
panpadu	-11.4729
▁acquiesce	-11.4729
▁choreograph	-11.4729
▁countersign	-11.4729
▁dull	-11.4729
▁implied	-11.4729
eswaram	-11.4729
▁erudit	-11.4729
▁kopay	-11.4729
convenience	-11.4729
▁fascinati	-11.4729
▁mammal	-11.4729
▁properties	-11.4729
▁stereoscopic	-11.4729
▁telematic	-11.4729
▁uncashed	-11.4729
582	-11.4729
▁agony	-11.4729
▁burial	-11.4729
▁cropping	-11.4729
▁superfl	-11.4729
▁corporal	-11.4729
▁periph	-11.4729
▁adulterated	-11.4729
▁mallawapitiya	-11.4729
▁amban	-11.4729
▁effe	-11.4729
▁elected	-11.4729
▁obsessi	-11.4729
▁adduce	-11.4729
▁incidents	-11.4729
▁query	-11.4729
fox	-11.4729
▁articulat	-11.4729
▁brick	-11.4729
▁brigad	-11.4729
▁freeze	-11.4729
▁albin	-11.4729
▁likeness	-11.4729
etype	-11.4729
turbed	-11.4729
▁rebut	-11.4729
▁voting	-11.4729
▁cine	-11.4729
▁extract	-11.4729
▁narrowcast	-11.4729
▁vassal	-11.4729
ophy	-11.4729
pathirana	-11.4729
▁agriculturist	-11.4729
▁dock	-11.4729
▁utter	-11.4729
▁libellous	-11.4729
▁calligraph	-11.4729
▁neolithic	-11.4729
▁uncovenanted	-11.4729
▁antiquit	-11.4729
▁muscle	-11.4729
▁encod	-11.4729
▁inflation	-11.4729
▁adulterine	-11.4729
▁aristocra	-11.4729
▁welikanda	-11.4729
▁resort	-11.4729
▁suthar	-11.4729
▁anchor	-11.4729
▁differentiate	-11.4729
▁inculcat	-11.4729
▁landlocked	-11.4729
▁terminable	-11.4729
▁warehouse	-11.4729
▁eelam	-11.4729
▁hathara	-11.4729
▁videograph	-11.4729
▁consular	-11.4729
▁tune	-11.4729
:40,	-11.4729
▁ecumeni	-11.4729
▁jaff	-11.4729
tringas	-11.4729
▁lift	-11.4729
vedika	-11.4729
▁regitration	-11.4729
▁3.1.3.	-11.4729
▁perseverat	-11.4729
▁resume	-11.4729
unagar	-11.4729
▁naaga	-11.4729
▁cemeter	-11.4729
▁convinc	-11.4729
rajathasara	-11.4729
vienna	-11.4729
▁disinheri	-11.4729
▁palali	-11.4729
▁danger	-11.4729
▁testify	-11.4729
▁patrici	-11.4729
▁spice	-11.4729
▁prayer	-11.4729
▁daha	-11.4729
wagon	-11.4729
▁3.1.1.	-11.4729
▁geological	-11.4729
▁amicable	-11.4729
▁dissol	-11.4729
▁revival	-11.4729
definable	-11.4729
▁riot	-11.4729
▁auteur	-11.4729
prehensi	-11.4729
rruption	-11.4729
▁shipping	-11.4729
munai	-11.4729
▁framing	-11.4729
▁relay	-11.4729
▁fascis	-11.4729
▁adjacent	-11.4729
▁fingerprint	-11.473
rinking	-11.473
▁spiral	-11.473
▁viscer	-11.473
▁amnes	-11.473
▁apparent	-11.473
▁remind	-11.473
▁futurist	-11.473
▁equation	-11.473
▁interior	-11.473
redeem	-11.473
▁monogam	-11.473
▁recess	-11.473
▁carnal	-11.473
▁coach	-11.473
▁surface	-11.473
▁prabha	-11.473
hakmana	-11.473
▁scholastic	-11.473
▁"24	-11.473
▁nominis	-11.473
▁meteorological	-11.473
titious	-11.473
▁asiriya	-11.473
mbps	-11.473
▁anesthe	-11.473
▁salvation	-11.473
▁rupa	-11.473
ctures	-11.473
▁lobby	-11.473
▁somn	-11.473
▁procla	-11.473
▁nbd	-11.473
famili	-11.473
▁immatur	-11.473
▁tyran	-11.473
▁antinom	-11.473
disagree	-11.473
▁vulgar	-11.473
▁1989	-11.473
▁precoci	-11.473
▁mines	-11.473
▁bambalapitiya	-11.473
▁23.07.2014	-11.473
▁enthusias	-11.473
▁narcotics	-11.473
gestion	-11.473
rusted	-11.473
▁conclud	-11.473
▁kinetic	-11.473
▁delgoda	-11.4731
▁mercenar	-11.4731
etiology	-11.4731
▁extroversion	-11.4731
▁homogeneous	-11.4731
mogeni	-11.4731
▁wick	-11.4731
▁repos	-11.4731
▁vici	-11.4731
▁quadratic	-11.4731
▁pokuna	-11.4731
▁castration	-11.4731
▁tete	-11.4731
▁moderation	-11.4731
yamba	-11.4731
▁hypertext	-11.4731
▁toxic	-11.4731
▁ascendance	-11.4731
▁omnipotence	-11.4731
▁adject	-11.4731
▁expir	-11.4731
▁diachron	-11.4731
▁restatement	-11.4731
twice	-11.4731
▁costume	-11.4731
▁adhesi	-11.4731
▁elapse	-11.4731
▁belt	-11.4731
934	-11.4731
▁leasehold	-11.4731
▁quem	-11.4731
▁implicit	-11.4731
0.00	-11.4731
chariyar	-11.4732
maze	-11.4732
▁chose	-11.4732
▁ltd	-11.4732
mouth	-11.4732
▁unconstitution	-11.4732
▁url	-11.4732
▁spurious	-11.4732
▁avant	-11.4732
▁airforce	-11.4732
▁gunase	-11.4732
▁reformatory	-11.4732
▁gallant	-11.4732
▁loyal	-11.4732
▁retriction	-11.4732
▁overrid	-11.4732
▁apperception	-11.4732
▁bribe	-11.4732
▁fertil	-11.4732
▁benchmark	-11.4732
,12	-11.4732
▁proced	-11.4732
▁operated	-11.4732
▁bright	-11.4733
▁abundan	-11.4733
▁megalo	-11.4733
▁3.1.2.	-11.4733
▁abdicat	-11.4733
▁enrolment	-11.4733
▁vivekanada	-11.4733
hick	-11.4733
▁neutralised	-11.4733
tariat	-11.4733
▁fanatic	-11.4733
▁garage	-11.4733
▁threaten	-11.4733
crypt	-11.4733
apattu	-11.4733
▁enroll	-11.4733
▁referee	-11.4733
featur	-11.4733
▁affirmed	-11.4733
▁annum	-11.4733
▁enlist	-11.4734
▁decod	-11.4734
▁motu	-11.4734
▁mahatt	-11.4734
▁disrupti	-11.4734
▁munda	-11.4734
▁bulk	-11.4734
▁entail	-11.4734
▁polygamous	-11.4734
▁audible	-11.4734
▁feasib	-11.4734
▁recapitulation	-11.4734
▁scandalous	-11.4734
▁quash	-11.4734
▁reconstitution	-11.4734
▁1986	-11.4734
caf	-11.4734
▁lunatic	-11.4734
▁matching	-11.4734
▁temporalities	-11.4735
fermented	-11.4735
▁6.5.1	-11.4735
▁absentee	-11.4735
udesa	-11.4735
▁illumination	-11.4735
▁descending	-11.4735
▁dupe	-11.4735
▁obstruction	-11.4735
opi	-11.4735
▁1990	-11.4735
hera	-11.4735
21.0	-11.4735
▁dislike	-11.4735
▁bhoomi	-11.4735
▁tang	-11.4735
▁kann	-11.4735
▁enjoin	-11.4736
▁humanitarian	-11.4736
arrack	-11.4736
▁alcoholic	-11.4736
▁bott	-11.4736
▁hostilit	-11.4736
▁polytechnic	-11.4736
▁31.12.2015	-11.4736
▁decreta	-11.4736
▁6.5.	-11.4736
▁barbari	-11.4736
▁divert	-11.4737
haramaya	-11.4737
▁mahi	-11.4737
▁rash	-11.4737
conditioned	-11.4737
▁bati	-11.4737
▁multiplic	-11.4737
▁handbook	-11.4737
praxi	-11.4737
▁rival	-11.4737
jja	-11.4737
▁rubric	-11.4737
▁intra	-11.4737
rasinghe	-11.4738
dharan	-11.4738
▁flexible	-11.4738
▁determinant	-11.4738
capsul	-11.4738
▁527	-11.4738
▁readability	-11.4738
▁dogmatic	-11.4738
demic	-11.4738
▁unanim	-11.4738
▁plastic	-11.4738
loom	-11.4738
▁clock	-11.4738
▁pagan	-11.4738
▁adjust	-11.4738
1,8	-11.4738
▁laz	-11.4739
▁eminent	-11.4739
▁malevolent	-11.4739
▁prominent	-11.4739
kson	-11.4739
▁6.25	-11.4739
▁deconstruction	-11.474
mbara	-11.474
▁vagrant	-11.474
yagama	-11.474
▁tranship	-11.474
▁cheat	-11.4741
▁pubic	-11.4741
▁solemnization	-11.4741
▁psychopath	-11.4741
idious	-11.4741
▁geni	-11.4741
rithm	-11.4741
nawarathn	-11.4741
▁5.55	-11.4742
utela	-11.4742
timate	-11.4742
▁kinship	-11.4743
▁electro	-11.4743
▁nex	-11.4743
edict	-11.4743
▁raid	-11.4743
▁visualize	-11.4743
▁secu	-11.4743
▁unfit	-11.4743
▁impersonal	-11.4743
▁problematic	-11.4743
▁resettlement	-11.4743
▁reconstruction	-11.4743
▁privity	-11.4743
▁48	-11.4743
▁barter	-11.4744
uristic	-11.4744
▁20.12.2014	-11.4744
eller	-11.4744
▁bodi	-11.4744
ndum	-11.4744
verge	-11.4745
▁imaginative	-11.4745
▁multipartite	-11.4745
▁conque	-11.4745
▁facility	-11.4745
▁kokk	-11.4745
▁mahawa	-11.4745
▁addiction	-11.4746
found	-11.4746
▁introspective	-11.4746
vehera	-11.4746
kuna	-11.4746
gahak	-11.4746
naita	-11.4746
▁210	-11.4746
eutic	-11.4747
▁sail	-11.4747
▁unknown	-11.4747
▁deface	-11.4747
▁incurable	-11.4747
▁praise	-11.4747
▁depot	-11.4747
▁subordination	-11.4747
▁lunugam	-11.4748
▁1988	-11.4749
▁consultum	-11.4749
▁obvi	-11.4749
olla	-11.4749
▁ascetic	-11.475
▁storyteller	-11.475
▁palm	-11.475
▁surre	-11.475
▁latency	-11.475
hore	-11.475
▁bull	-11.4751
▁deleted	-11.4751
▁temper	-11.4751
▁stru	-11.4751
▁vex	-11.4751
▁fail	-11.4751
▁vivi	-11.4752
▁solicitor	-11.4753
▁newsbreak	-11.4753
▁investor	-11.4753
.11.	-11.4753
▁delibera	-11.4753
▁egotis	-11.4753
▁fulfilment	-11.4753
▁desirable	-11.4754
▁compliment	-11.4754
165	-11.4754
ensation	-11.4754
▁vindicative	-11.4754
▁mutable	-11.4754
▁10.00	-11.4755
2/0	-11.4755
▁tare	-11.4755
▁determinable	-11.4756
custom	-11.4756
▁volitional	-11.4756
▁recent	-11.4756
vakka	-11.4756
▁syllabuses	-11.4756
lature	-11.4757
▁detection	-11.4757
▁tourist	-11.4757
▁arous	-11.4757
▁mitigate	-11.4757
▁profane	-11.4757
▁quaet	-11.4757
▁modernization	-11.4758
sput	-11.4758
▁dramatis	-11.4758
iograph	-11.4758
▁swear	-11.4758
mediatization	-11.4758
▁placa	-11.4758
▁comply	-11.4759
▁homo	-11.4759
▁syndicate	-11.4759
urious	-11.4759
▁priorities	-11.4759
▁multiplication	-11.476
▁vela	-11.476
▁197	-11.476
/13	-11.476
▁samar	-11.4761
▁youthful	-11.4761
▁brother	-11.4762
▁undertake	-11.4762
▁handling	-11.4762
▁superintendant	-11.4763
▁wate	-11.4763
▁196	-11.4763
▁authorisation	-11.4763
▁exact	-11.4764
▁1995	-11.4764
▁satir	-11.4765
▁memor	-11.4766
▁optimization	-11.4766
▁curia	-11.4766
xii	-11.4766
legibility	-11.4767
▁stopp	-11.4767
hz	-11.4767
▁solemnly	-11.4767
▁marginalization	-11.4768
▁lass	-11.4769
outstation	-11.477
▁severity	-11.477
brass	-11.4771
▁referen	-11.4771
▁traitor	-11.4772
▁later	-11.4772
▁grass	-11.4773
▁utmot	-11.4773
▁expiry	-11.4774
▁portray	-11.4774
▁compen	-11.4774
▁revert	-11.4775
▁denuwara	-11.4775
arachchi	-11.4776
conscientious	-11.4777
▁probationary	-11.4777
▁207	-11.4777
▁silen	-11.4778
spring	-11.4778
ariyar	-11.4778
▁"1.2.4	-11.4778
▁computerized	-11.4778
chot	-11.4779
▁223	-11.4779
▁triable	-11.478
pplicant	-11.478
haya	-11.478
rately	-11.478
▁resist	-11.4781
nella	-11.4781
▁unemployment	-11.4782
▁exile	-11.4783
▁consignation	-11.4784
▁pedant	-11.4784
rift	-11.4784
▁mart	-11.4785
▁53	-11.4786
▁reside	-11.4786
raga	-11.4787
▁bite	-11.4787
▁demo	-11.4788
▁deliverable	-11.4789
feoff	-11.4791
▁evidentia	-11.4792
▁depress	-11.4792
▁hospitalization	-11.4793
▁naive	-11.4793
urant	-11.4793
▁facilitator	-11.4793
▁liquidation	-11.4794
▁legitimiz	-11.4794
▁mill	-11.4794
▁dub	-11.4795
▁indecen	-11.4795
manship	-11.4795
▁mul	-11.4796
▁obit	-11.4796
ordial	-11.4797
▁coact	-11.4799
mahawatta	-11.48
▁outlet	-11.48
▁successive	-11.48
▁vide	-11.4801
▁france	-11.4803
▁nulli	-11.4803
▁presidential	-11.4803
▁counterf	-11.4803
▁wager	-11.4803
▁cybern	-11.4804
▁rerum	-11.4805
▁introspecti	-11.4806
▁contin	-11.4806
▁mole	-11.4807
▁porter	-11.4809
▁51	-11.481
▁mace	-11.481
▁lucid	-11.4813
lastic	-11.4813
▁amus	-11.4813
consideration	-11.4813
▁waw	-11.4814
▁fairness	-11.4814
▁conative	-11.4817
goc	-11.4817
▁repay	-11.4819
▁restor	-11.4819
▁nanthi	-11.482
1956	-11.482
▁passage	-11.482
▁jan	-11.482
▁letha	-11.4822
▁conscript	-11.4823
cution	-11.4823
▁hypocrit	-11.4827
teous	-11.4829
viation	-11.483
▁cab	-11.4833
▁halo	-11.4834
lish	-11.4835
▁mw	-11.4835
▁tea	-11.4836
crony	-11.4836
uvion	-11.4837
0-11	-11.4838
▁pag	-11.4839
ault	-11.4839
▁deem	-11.484
▁deck	-11.4841
▁uncha	-11.4842
▁package	-11.4842
354	-11.4842
▁phonetic	-11.4843
▁gce	-11.4844
▁venditio	-11.4845
ththara	-11.4846
remoni	-11.4846
▁delineati	-11.4847
ikka	-11.4848
▁allot	-11.4848
▁germ	-11.4848
match	-11.485
▁dance	-11.4854
▁reformation	-11.4857
dsng	-11.4858
▁weli	-11.4862
kshina	-11.4862
▁humanist	-11.4865
▁exclusively	-11.4868
▁periodically	-11.4868
▁polygam	-11.4868
bandaragama	-11.4869
▁vadd	-11.4871
tota	-11.4872
▁livery	-11.4875
▁sadis	-11.4878
ady	-11.4878
cursion	-11.4878
▁explosi	-11.4878
▁2.3	-11.4878
amarako	-11.4879
osaic	-11.4879
iyagama	-11.4879
orting	-11.488
enunciation	-11.4883
▁abor	-11.4887
▁sender	-11.4887
▁merchan	-11.489
▁shir	-11.4891
▁mend	-11.4894
▁gratui	-11.4898
curator	-11.491
▁cum	-11.4912
▁concubin	-11.4912
69.	-11.4914
advert	-11.4915
eop	-11.4917
inister	-11.4918
corro	-11.4924
▁morpholog	-11.493
uffer	-11.4931
variant	-11.4934
▁love	-11.4934
simil	-11.4934
tensi	-11.4938
▁mess	-11.4946
▁extin	-11.4951
▁committ	-11.4951
jayala	-11.4956
▁bequ	-11.4957
▁neurotic	-11.4963
▁chang	-11.4965
ovar	-11.497
9.30	-11.4975
▁consensu	-11.4983
04/2014	-11.4988
▁demontra	-11.4992
▁jayathi	-11.5002
57	-11.5004
▁botanic	-11.5013
ndala	-11.5016
cho	-11.5022
67	-11.5043
▁hingu	-11.5054
nish	-11.5065
▁ride	-11.5071
sonic	-11.5074
▁layer	-11.5088
ibi	-11.5097
vitha	-11.5116
329	-11.5121
verity	-11.5128
numeric	-11.5129
nantha	-11.5139
few	-11.5142
anthana	-11.5158
▁simulat	-11.5159
▁carr	-11.5162
14.1	-11.5165
▁sma	-11.5172
syllable	-11.5176
dawa	-11.5184
▁chrom	-11.519
▁egocentri	-11.5199
▁faci	-11.5203
scree	-11.5214
gious	-11.522
▁quote	-11.5223
diwela	-11.5224
harmonic	-11.5231
▁ancestr	-11.5232
▁pada	-11.5246
2.4	-11.5249
weekend	-11.5251
▁cheerful	-11.5255
▁4.4	-11.5258
▁emergenc	-11.5267
▁phonograph	-11.5273
▁rob	-11.5275
▁gall	-11.5282
asters	-11.5297
atitude	-11.5305
1.09.2015.	-11.5316
▁interacti	-11.5328
rasi	-11.533
▁hypnoti	-11.5335
▁dependenc	-11.5339
wel	-11.535
▁quantifi	-11.5387
commercialised	-11.5405
297	-11.5438
89	-11.5439
▁repayment	-11.5466
▁collusi	-11.5468
▁remembara	-11.5469
62	-11.5475
▁deont	-11.5479
▁kar	-11.5491
▁cartograph	-11.5491
ukka	-11.5496
highway	-11.5503
rik	-11.551
entia	-11.5517
▁sociometr	-11.5534
legible	-11.5557
ndawa	-11.5558
thuhara	-11.5567
▁insur	-11.5579
iff	-11.5649
cesser	-11.5673
combat	-11.5689
poth	-11.5696
▁countercultur	-11.5704
holy	-11.5741
pti	-11.5746
▁refut	-11.5774
tensive	-11.5795
lake	-11.5799
institutionalist	-11.5804
▁agnos	-11.5805
▁marginaliz	-11.5812
46	-11.5833
pleas	-11.5853
buddhab	-11.5881
teful	-11.5883
▁segregat	-11.5952
gging	-11.596
inocula	-11.6049
simulation	-11.6067
dola	-11.6088
6.00	-11.6104
▁regularize	-11.6121
hanthi	-11.6127
▁autocrat	-11.6162
▁parap	-11.6221
temporary	-11.6235
▁retri	-11.6236
