<unk>	0
<s>	0
</s>	0
ம்	-3.97851
.	-4.01011
்	-4.12479
க்	-4.31809
ப்	-4.44788
,	-4.47196
▁	-4.72495
▁மற்றும்	-4.83776
ு	-4.86356
ச்	-4.89795
"	-4.91861
கள்	-4.92968
த்	-4.99943
▁"	-5.06429
ும்	-5.18257
ான	-5.35388
ல்	-5.48143
)	-5.54908
ின்	-5.56398
▁(	-5.6467
ை	-5.71757
ி	-5.84061
▁நிகழ்ச்சி	-5.86551
ன	-5.88416
ய	-5.8885
து	-5.91425
▁கல்வி	-5.99761
க	-5.99824
▁:	-6.02273
▁ஆம்	-6.02931
வ	-6.03254
▁திட்டம்	-6.06765
களின்	-6.13622
களை	-6.15016
ம	-6.17865
ில்	-6.20592
▁-	-6.2225
▁சமூக	-6.28233
▁தேசிய	-6.34703
த	-6.34882
யை	-6.35421
▁சேவை	-6.36334
ன்	-6.37259
▁நிதி	-6.37344
த்த	-6.39145
ங்கள்	-6.40591
▁பயிற்சி	-6.42554
ப்பட்ட	-6.43434
யின்	-6.43473
▁அரச	-6.4448
-	-6.45312
▁தொடர்பாடல்	-6.45529
க்கு	-6.46753
▁நடவடிக்கை	-6.49345
யில்	-6.49742
த்தின்	-6.49801
ா	-6.5005
▁கடன்	-6.53294
▁கணக்கு	-6.538
ல	-6.55674
ர	-6.57445
யும்	-6.58292
▁பெயர்	-6.58849
▁பிரிவு	-6.59014
ர்	-6.59184
மான	-6.60089
▁சட்ட	-6.60226
க்க	-6.60819
▁ப	-6.61442
▁கொள்கை	-6.6226
▁நிகழ்ச்சித்	-6.62905
வு	-6.63147
▁2011	-6.63261
▁செய்தி	-6.6429
ப்பு	-6.65075
மை	-6.65731
▁அறிக்கை	-6.6656
▁சட்டம்	-6.66756
▁பாடசாலை	-6.67356
ப	-6.70497
த்தில்	-6.71918
ந்த	-6.7437
▁2012	-6.74689
ுக்கான	-6.74881
▁செலவு	-6.76898
▁சபை	-6.78293
▁உரிமை	-6.78363
▁உதவி	-6.78536
▁அ	-6.7869
யான	-6.80559
▁ஆண்டு	-6.83263
▁பொது	-6.83321
க்கான	-6.83828
▁இந்த	-6.84047
தல்	-6.84206
ாக	-6.84354
▁கீழ்	-6.84446
▁குழு	-6.8647
ப்ப	-6.87091
▁முறை	-6.87113
ால்	-6.88002
▁காணி	-6.88484
ற்	-6.8893
ற்ற	-6.89427
ே	-6.89703
ிய	-6.89749
▁மொழி	-6.90252
ுக்கு	-6.90851
நிலை	-6.91946
▁இலங்கை	-6.9274
த்தல்	-6.94201
▁செய்தல்	-6.94271
▁அபிவிருத்தி	-6.97356
▁வலய	-6.97388
▁திகதி	-6.977
களுக்கு	-6.98505
த்தை	-6.98952
▁பிரதேச	-6.9967
ுதல்	-6.99907
▁மூலம்	-7.00428
▁ஊடக	-7.01186
▁விசேட	-7.01426
▁கொடுப்பனவு	-7.0294
ாளர்	-7.03448
களில்	-7.03549
களும்	-7.03595
▁முகவரி	-7.03739
▁ரணவிரு	-7.04524
▁த	-7.05418
ுள்ள	-7.05508
▁தொலைக்காட்சி	-7.05966
த்திற்கு	-7.06418
▁தொழில்	-7.06423
▁நிலை	-7.07299
▁பணிப்பாளர்	-7.07524
வர்	-7.07613
வும்	-7.09233
▁இராணுவ	-7.09389
▁ம	-7.09647
▁வரவு	-7.09842
தி	-7.10398
▁தகவல்	-7.11028
▁வழக்கு	-7.11117
▁திரு	-7.11683
மாக	-7.12442
▁க	-7.12919
▁ஆண்டில்	-7.13199
▁அதிகார	-7.13503
த்திட்டம்	-7.14653
▁வேலை	-7.1501
சார்	-7.15517
▁தொடர்ப	-7.15875
▁அல்லது	-7.16199
▁மதுவரி	-7.162
கள	-7.16416
ட	-7.16724
▁நடத்தை	-7.18016
▁அரசாங்க	-7.18145
▁பதவி	-7.18593
▁ஆய்வு	-7.18951
▁போது	-7.19047
▁ந	-7.19285
▁ஒளிபரப்பு	-7.19425
▁அரசகரும	-7.19618
▁புதிய	-7.19747
▁வரி	-7.1989
▁இ	-7.20325
▁கலாசார	-7.20345
▁உத்தியோகத்தர்	-7.21174
வாதம்	-7.21551
/	-7.22152
:	-7.23068
▁முறைமை	-7.23293
▁பொறுப்பு	-7.24042
▁நிகழ்ச்சிகள்	-7.24113
▁முதல்	-7.24141
▁வகையில்	-7.25077
▁தர	-7.26156
ச	-7.26658
▁சோதனை	-7.26714
▁தமிழ்	-7.26865
▁மேலதிக	-7.27533
▁மாதிரி	-7.28028
▁தொழில்நுட்ப	-7.2855
▁எண்ணிக்கை	-7.2855
அ	-7.29264
க்கும்	-7.29438
▁நிலையம்	-7.29564
▁மாவட்ட	-7.29732
▁இந்து	-7.29842
▁செய்யப்பட்ட	-7.30151
முறை	-7.31105
▁நேர	-7.31591
▁மதிப்பீடு	-7.32324
ாத	-7.32553
▁படி	-7.32661
லை	-7.32756
▁பணி	-7.32872
▁வழங்க	-7.32954
▁–	-7.33398
▁வழங்குதல்	-7.33503
வை	-7.33552
த்து	-7.33552
▁வரை	-7.34205
▁றணவிரு	-7.34362
▁பதிவு	-7.3534
▁கால	-7.35967
▁அலுவலகம்	-7.36235
▁உறுதி	-7.36397
▁வருமானம்	-7.38165
▁மாகாண	-7.3854
டை	-7.39233
▁ஒரு	-7.39965
வி	-7.40266
▁ஏனைய	-7.40448
▁பணம்	-7.4079
▁அடிப்படை	-7.40984
ங்க	-7.41152
▁பின்வரும்	-7.41608
▁ச	-7.41914
▁உத்தியோகத்தர்கள	-7.41927
▁கோட்பாடு	-7.42643
ுள்ளது	-7.42752
▁மொழிகள்	-7.42774
▁2014	-7.42884
▁விற்பனை	-7.43752
மும்	-7.4429
▁கட்டளை	-7.45009
ஸ்	-7.45543
யாக	-7.46857
▁“	-7.47079
ப்படுத்தல்	-7.47297
▁அமைப்பு	-7.48014
இ	-7.48333
க்காக	-7.48347
▁செயற்பாட்டு	-7.48843
▁செலவின	-7.48966
▁விருத்தி	-7.49382
▁உள	-7.50071
கை	-7.50434
ோ	-7.50448
▁பாதுகாப்பு	-7.5061
▁கட்டுப்பாடு	-7.50676
▁கூட்டுத்தாபன	-7.50926
▁தொடர்பில	-7.51355
▁பிரதான	-7.51603
▁உடைமை	-7.51628
”	-7.5165
▁மேற்கொள்ள	-7.52186
▁இலக்க	-7.52216
ப்படுகின்றன	-7.52645
▁பற்றிய	-7.53096
▁திட்ட	-7.53505
▁உயர்	-7.54957
▁இரு	-7.54979
▁அமைச்சு	-7.55043
▁செயற்பாடு	-7.55059
▁கூட்டு	-7.55443
▁சர்வதேச	-7.56566
▁பெறுமதி	-7.56577
▁அளவு	-7.5692
▁சுகாதார	-7.5723
▁வி	-7.57403
▁தொலைபேசி	-7.57788
▁வேண்டிய	-7.58014
ினால்	-7.58597
▁கொள்வனவு	-7.59083
▁நடைமுறை	-7.59114
▁முகாமைத்துவ	-7.59438
▁தயாரிப்பு	-7.59587
0	-7.59646
▁தொகை	-7.61658
▁தயாரித்தல்	-7.61659
ுவதற்காக	-7.61694
யா	-7.62527
▁மீள்	-7.62806
▁துறை	-7.63032
▁சான்று	-7.63682
துடன்	-7.63977
டி	-7.64205
▁கற்றல்	-7.64296
▁சிறந்த	-7.64375
▁அனைத்து	-7.64551
ஆ	-7.65444
▁கொண்டு	-7.65707
▁சேவைகள்	-7.66915
▁வ	-7.6744
▁செயல்	-7.6755
▁வழங்கல்	-7.67693
▁இறுதி	-7.67753
ழ	-7.67892
▁மொத்த	-7.67921
▁பொதுக்	-7.68129
▁எல்லை	-7.68404
▁கூட்டுத்தாபனத்த	-7.68607
அலுவலக	-7.68901
▁அலுவலர்	-7.69075
▁உற்பத்தி	-7.69523
▁என்ற	-7.69947
2	-7.69947
▁வீரர்	-7.70346
▁பிரதி	-7.70545
▁ஆணைக்குழு	-7.70634
▁தடை	-7.70647
ண	-7.70696
▁குறிப்பு	-7.70754
களுக்காக	-7.70868
▁திறன்	-7.70926
ையும்	-7.71368
▁பகுப்பாய்வு	-7.71547
3	-7.717
க்கப்பட்ட	-7.71846
▁மேற்கொள்ளப்பட்ட	-7.72345
▁குறித்த	-7.72427
▁காட்சி	-7.72457
▁வருட	-7.72458
▁உள்ள	-7.72583
▁பின்னிணைப்பு	-7.7268
த்திரிகைத்தொழில்	-7.72681
கு	-7.7324
▁தொடர்பு	-7.73517
▁திணைக்கள	-7.73547
▁மொழிக்	-7.73686
▁நடவடிக்கைகள்	-7.73707
▁உறுப்பினர்	-7.7416
கம்	-7.74206
▁சுய	-7.7424
▁திணைக்களம்	-7.74525
▁31	-7.74532
ட்ட	-7.74534
ார்	-7.74637
க்கூடிய	-7.74769
ுடன்	-7.75059
ிருக்கவில்லை	-7.75411
▁அட்டவணை	-7.75651
▁மனித	-7.75669
▁பண	-7.75805
▁சார்ந்த	-7.75962
▁பல	-7.76197
▁அனுமதி	-7.76591
▁கலை	-7.76848
4	-7.76952
▁தொடர்பாக	-7.77358
ினை	-7.77458
▁விதி	-7.77694
▁மூல	-7.77864
▁கணக்காய்வு	-7.779
▁சான்றிதழ்	-7.78215
▁இசை	-7.78427
ரு	-7.78627
▁விளம்பரஞ்செய்தல	-7.78668
▁அலைவரிசை	-7.78698
▁தொடர்	-7.78768
▁வெளிநாட்டு	-7.78775
1	-7.78885
▁அமைச்சின	-7.7902
▁கணக்கீட்டு	-7.79224
▁கட்டணம்	-7.79409
▁பத்திரிகை	-7.79691
ங்களை	-7.80034
▁2015	-7.80256
▁கொடுப்பனவுகள்	-7.80274
▁ஆணையாளர்	-7.80326
▁முன்	-7.80397
வியல்	-7.80844
▁தரவு	-7.81443
▁ஆரம்ப	-7.81611
▁ரூபாய்	-7.81848
▁ஒப்பந்தம்	-7.81977
▁பெற்ற	-7.82049
▁பொருள்	-7.8238
ுநர்	-7.83122
▁விவரண	-7.83539
▁திணைக்களத்தின	-7.83642
▁சமய	-7.83894
▁செலவுகள்	-7.83936
று	-7.84172
▁பகுதி	-7.84371
▁பல்	-7.84997
▁இயக்க	-7.85085
▁உரிய	-7.85117
▁வருடாந்த	-7.85137
▁வங்கி	-7.8532
▁நிர்வாக	-7.85433
▁அதிகாரம்	-7.85635
▁தனி	-7.85943
▁நிறுவன	-7.86039
▁நாடகம்	-7.86058
▁ஏற்பாடு	-7.86245
5	-7.86264
▁பொருளாதார	-7.86503
n	-7.86755
ூ	-7.86775
▁திட்டங்கள்	-7.86995
▁நேரடி	-7.87162
▁வெளி	-7.87495
▁தெரிவு	-7.88522
▁பரீட்சை	-7.88545
யாளர்	-7.88754
▁1.	-7.88777
▁வாடகை	-7.88918
ிற்கு	-7.8913
ரை	-7.90001
▁2.	-7.90085
▁ஒப்பந்த	-7.90102
சி	-7.90131
▁விசாரணை	-7.90185
ளி	-7.90264
பி	-7.90346
▁உரித்து	-7.90701
▁இன	-7.91131
▁நகரம்	-7.91274
9	-7.91851
▁மீளாய்வு	-7.91948
▁கட்டுப்பாட்டு	-7.91956
▁சகல	-7.9198
▁எதிர்	-7.92014
▁திறைசேரி	-7.92043
ள்	-7.92091
▁நில	-7.9223
▁நிறுவனங்கள	-7.92598
ட்	-7.92646
▁வகை	-7.92678
ுகை	-7.93021
▁அறிவித்தல்	-7.93024
7	-7.93282
▁நிலைய	-7.93763
▁ஆ	-7.93821
▁சுருக்க	-7.9385
▁வர்த்தக	-7.93899
ங்களின்	-7.93901
▁அடிப்படையில்	-7.93983
▁பிணை	-7.94271
ள	-7.94301
▁துணை	-7.94755
▁திரைப்படம்	-7.94789
▁மீள	-7.95
ெ	-7.95016
வழி	-7.95122
க்குரிய	-7.95291
▁பராமரிப்பு	-7.95554
யற்ற	-7.95575
▁/	-7.95576
▁நியதிச்சட்ட	-7.95578
▁தேவையான	-7.95644
▁மத்திய	-7.95669
▁அறநெறிப்	-7.9587
▁நடைமுறைப்படுத்த	-7.95913
▁போட்டி	-7.96032
▁குடும்ப	-7.9616
▁தயாரிக்கப்பட்ட	-7.96246
ரி	-7.96419
▁ஊழியர்	-7.96914
▁கடமை	-7.96988
ப்படும்	-7.97177
▁ஊடாக	-7.97395
▁கௌரவ	-7.97397
▁ஒதுக்கீடு	-7.97442
டன்	-7.9747
▁ஆவண	-7.97615
▁அறிவு	-7.97704
▁உள்ளக	-7.97795
▁கல்விசார்	-7.97967
▁சொத்துக்கள்	-7.98167
ுள்	-7.98379
▁செயற்பாடுகள்	-7.98507
▁பி	-7.98705
▁கூட்ட	-7.98765
த்தினை	-7.98881
▁உப	-7.99293
▁உளவியல்	-7.99382
▁சொத்து	-7.9941
றை	-7.99492
▁செலுத்த	-7.99588
ாகும்	-8.00054
▁மீத	-8.00631
▁மிகை	-8.00739
▁வைத்திய	-8.01149
▁ஒலி	-8.01174
▁சனசமூக	-8.01231
னர்	-8.01539
▁3.	-8.01902
▁பிரிவின	-8.02106
▁இட	-8.02125
▁மாதம்	-8.0224
▁முடிவு	-8.02279
ங்களில்	-8.02836
an	-8.03178
▁சந்தை	-8.0322
▁தலைப்பு	-8.03244
▁பல்வேறு	-8.03246
ின்மை	-8.03256
▁பதிவேடு	-8.03265
▁நிறுவனம்	-8.03335
றி	-8.03343
▁செயலாளர்	-8.03397
ுக்காக	-8.03531
▁உடன்படிக்கை	-8.03596
▁என	-8.03641
▁வழி	-8.03681
▁வழங்கு	-8.04088
▁4.	-8.04194
▁குற்ற	-8.04724
யுடன்	-8.0482
▁ஆராய்ச்சி	-8.05169
▁வேதன	-8.05205
▁தேவை	-8.05233
▁கலந்துரையாடல்	-8.05343
▁உ	-8.05545
▁விளைவு	-8.05591
▁பொருட்கள்	-8.05798
த்திற்க	-8.05805
மா	-8.05816
▁மொத்தம்	-8.05879
▁மன	-8.06137
▁சிங்களம்	-8.06331
▁முன்னேற்றம்	-8.06395
▁5.	-8.06545
▁விலை	-8.06857
ியல்	-8.06875
▁சம	-8.06953
ஆம்	-8.07075
ோர்	-8.07114
▁நீதி	-8.07154
▁பா	-8.07174
▁பாராளுமன்ற	-8.07206
▁உறவு	-8.07259
ற	-8.07565
▁தீர்ப்பு	-8.07994
▁நா	-8.07999
▁முகாமைத்துவம்	-8.08192
▁வியாபார	-8.08733
▁மத	-8.08805
▁கருத்து	-8.08904
▁நீர்	-8.09111
▁குத்தகை	-8.09275
▁நேயர்	-8.09343
▁பிரகாரம்	-8.09346
▁எஸ்	-8.09705
▁செலவுத்திட்ட	-8.09872
கா	-8.1022
▁இணை	-8.1046
▁உள்ளூர்	-8.11424
▁போக்குவரத்து	-8.11428
▁காப்புறுதி	-8.11471
▁மொழித்	-8.11544
▁கொழும்பு	-8.11549
▁நடைபெற்ற	-8.11908
▁பெற்றுக்	-8.11944
▁பின்	-8.12015
மற்ற	-8.12358
▁அலுவலக	-8.12502
சு	-8.12555
▁விழா	-8.12671
▁குறை	-8.12683
▁செலவினம்	-8.12722
ப்பட்டது	-8.12795
▁வெளியீடு	-8.12842
▁இலக்கு	-8.12947
▁பயன்படுத்த	-8.13192
▁பெற	-8.13359
▁அமைவாக	-8.13592
▁செயலகம்	-8.13621
யம்	-8.1429
▁ஏ	-8.14414
▁சிறுவர்	-8.14427
▁அதன்	-8.14614
ந்து	-8.14915
▁காலம்	-8.15492
▁தலைவர்	-8.15666
▁ஆணை	-8.15677
▁ஆலோசனை	-8.15813
▁12	-8.16463
▁நியம	-8.16583
▁நிதியம்	-8.16816
ப்பட	-8.16937
மானது	-8.1699
▁தண்டனை	-8.17416
▁வழங்கப்பட்ட	-8.17504
ந	-8.17786
ுள்ளன	-8.17821
▁போன்ற	-8.17851
▁நிபந்தனை	-8.18049
▁கூற்று	-8.18051
▁ஞாபகார்த்த	-8.18086
▁ரீதியில	-8.18086
▁வேறு	-8.1809
▁இன்	-8.18111
▁சுங்க	-8.18514
ிலான	-8.18837
▁பத்திரம்	-8.18886
6	-8.19154
▁ஆகிய	-8.19446
▁மட்டம்	-8.19487
▁ஊடகம்	-8.1952
▁கணக்குகள்	-8.19549
▁வெகுசன	-8.19784
▁வெளியிட	-8.19853
▁பங்கு	-8.1989
▁நிறைவேற்ற	-8.19948
▁வள	-8.20077
▁இல்	-8.20231
▁மருத்துவ	-8.20297
களுக்கும்	-8.20503
▁விடய	-8.20508
ப்பட்டுள்ளன	-8.20511
▁பெற்றுக்கொள்ள	-8.20537
▁அதிகாரி	-8.20889
▁கல்வித்	-8.21344
ட்டி	-8.21512
▁தொகுதி	-8.21535
உ	-8.21862
▁செய்து	-8.21959
▁பணிகள்	-8.22174
▁வகுப்பு	-8.22637
யானது	-8.22742
▁அணுகுமுறை	-8.22814
▁பதுளை	-8.2287
ப்படுகின்றது	-8.22923
▁புத்தக	-8.22942
▁உபகரணங்கள்	-8.23172
▁மூலதன	-8.23293
இந்த	-8.23532
ிருந்த	-8.237
▁கொண்ட	-8.23705
▁மொழிப்	-8.23725
▁குறி	-8.23894
▁கூட்டுத்தாபனம்	-8.24107
த்திட்டங்கள்	-8.24176
னை	-8.24178
தும்	-8.24181
▁ஒலிபரப்பு	-8.24269
▁கற்கைநெறி	-8.24292
▁வருமான	-8.24392
▁செய்த	-8.24514
▁அவதானிக்கப்பட்ட	-8.25253
▁தொழிற்	-8.25283
▁டிசம்பர்	-8.25333
▁புலமைப்பரிசில்	-8.2539
▁பட்டியல்	-8.25573
த்திற்காக	-8.25593
▁திட்டமிடல்	-8.25659
▁மாற்ற	-8.26065
▁ஒழுக்க	-8.26076
▁திருத்த	-8.26101
ுடைய	-8.26346
▁கிராமிய	-8.26371
மி	-8.26569
▁இணங்க	-8.27712
▁விஷேட	-8.27723
▁நிவாரண	-8.27732
▁யுத்த	-8.27732
▁காணொளி	-8.27733
▁வர்ண	-8.27736
▁சம்பந்தப்பட்ட	-8.27745
▁எடுக்கப்பட்ட	-8.27757
▁மட்டக்களப்பு	-8.27797
▁அக	-8.27924
லி	-8.27926
8	-8.2805
▁கட்ட	-8.28428
▁செய்யும்	-8.28458
▁ஊனமுற்ற	-8.28654
▁செய்ய	-8.28807
ற்கான	-8.28919
▁முத்திரை	-8.28942
ப்பட்டுள்ளது	-8.2897
▁நாட்ட	-8.2899
▁செய்	-8.29066
படி	-8.29425
ணை	-8.29448
▁பிரச்சினை	-8.29587
▁செலுத்தப்பட	-8.29731
வதற்கான	-8.30018
▁சிறு	-8.30183
▁முழு	-8.3022
▁கல்லூரி	-8.30296
▁சுற்றறிக்கை	-8.30297
▁பங்களிப்பு	-8.30326
▁2013	-8.30332
▁அச்சு	-8.3038
▁03	-8.30383
▁உள்நாட்டு	-8.30424
▁கற்கை	-8.30426
▁இலக்கமுறை	-8.30443
▁அந்த	-8.30708
▁எம்	-8.30872
▁சாட்சி	-8.31032
ண்ட	-8.31035
▁நீதிமன்ற	-8.31056
▁இணைப்பு	-8.31084
▁சபையின	-8.31205
▁அனுமதிப்பத்திர	-8.31287
▁கே	-8.31367
ிட	-8.31692
▁பிள்ளை	-8.31697
க்கள்	-8.31716
▁கை	-8.31727
▁பயண	-8.31872
▁உலக	-8.31922
▁வார	-8.32819
▁ஆசிரியர்	-8.32894
▁சிகிச்சை	-8.32927
▁தனியார்	-8.32946
▁விடுமுறை	-8.32952
▁ஒருமைப்பாட்டு	-8.33014
▁முகாமை	-8.3306
▁மீதி	-8.33426
▁முற்பணக்	-8.33433
▁எழுத்து	-8.33434
▁திட்டத்தின்	-8.3374
▁02	-8.33919
▁நிலையான	-8.34038
டைய	-8.34067
▁ஆரம்பிக்கப்பட்ட	-8.34102
▁விதிகள்	-8.34202
▁அனுசரணை	-8.34525
யியல்	-8.34576
ணி	-8.34605
▁கிராமம்	-8.34677
▁விநியோக	-8.347
▁நன்மை	-8.34885
▁முயற்சி	-8.34953
▁தலைமை	-8.35324
தன்	-8.35611
▁இயற்கை	-8.3563
▁லீவு	-8.3563
▁திருமதி	-8.35631
▁போதிலும்	-8.35671
▁நிரந்தர	-8.35693
▁எடுப்பு	-8.35712
▁விபர	-8.35723
▁ஆண்டின்	-8.35753
▁அவர்களின்	-8.35853
▁கட்டமைப்பு	-8.35939
ஞ்	-8.36145
▁வழு	-8.36378
பு	-8.36443
▁கணினி	-8.36638
▁சீட்டு	-8.36711
▁ரூபவாஹினிக்	-8.36863
ுகின்ற	-8.36998
▁மைய	-8.37023
▁இணைந்து	-8.37162
ப்படி	-8.37192
▁நம்பிக்கை	-8.37211
▁இலக்கம்	-8.37275
▁கட்டளைச்	-8.37519
களைப்	-8.37641
▁ஐ	-8.37648
▁மாற்றம்	-8.37791
▁பணியாளர்	-8.37813
ரீதியான	-8.37925
க்கம்	-8.38076
▁1	-8.38372
▁குறியீடு	-8.38408
▁வாய்மொழி	-8.38408
▁கணக்காய்வாளர்	-8.38443
▁ஒவ்வொரு	-8.38448
▁5	-8.38476
▁14	-8.38528
▁நடப்பு	-8.38571
▁வட்டி	-8.38623
▁இடை	-8.3867
▁அனுப்ப	-8.38685
▁இருப்பு	-8.38712
▁ஆண்டிற்க	-8.3879
ொ	-8.38922
▁நிர்வாகம்	-8.38934
▁கடிதம்	-8.38951
ங்கு	-8.39332
▁எ	-8.39442
▁3	-8.39486
▁மு	-8.39511
களாக	-8.39511
ளை	-8.39583
ைப்	-8.39587
யினை	-8.39604
▁செயற்றிட்ட	-8.39667
▁அங்கீகரிக்க	-8.39856
டு	-8.39895
▁பட	-8.40016
▁கள	-8.40102
யிலான	-8.40277
▁கிராம	-8.40292
▁அடையாள	-8.4031
ப்படுத்து	-8.40491
▁வாழ்க்கை	-8.40496
▁நடைபெற்றது	-8.40624
▁வழிகாட்டல்	-8.40762
ுவதற்கு	-8.40862
▁4	-8.41094
▁நிலுவை	-8.412
▁தற்காலிக	-8.41265
▁நிலைமை	-8.41286
▁மரண	-8.41325
▁முன்ன	-8.41576
▁நிறைவு	-8.41617
தை	-8.41669
▁மக்கள	-8.42088
▁சம்பள	-8.42102
பட்ட	-8.42592
▁அரசு	-8.42653
▁ரூபவாஹினி	-8.42879
வர	-8.42882
i	-8.43075
▁தவறு	-8.4341
தர	-8.43541
▁பு	-8.43562
▁நிறைவேற்று	-8.43787
▁நடாத்த	-8.44043
ரிய	-8.44084
▁வலையமைப்பு	-8.44208
▁முகப்பு	-8.44293
▁வழிகாட்டி	-8.44324
▁படை	-8.44518
▁அமைச்சர்	-8.44587
▁நகர	-8.44621
▁சுதேச	-8.44639
▁தின	-8.44849
ைத்	-8.45001
▁முற்பணம்	-8.45015
▁விளம்பர	-8.45152
வில்	-8.45758
ப்படுத்தப்பட்ட	-8.45824
லும்	-8.45827
ஹ	-8.4596
த்திர	-8.45992
ிடம்	-8.4604
யர்	-8.46257
▁நிகழ்வு	-8.46687
▁சொல்	-8.46853
▁விருது	-8.47008
▁இல	-8.47109
▁மேற்பார்வை	-8.47195
▁01	-8.47228
▁யாழ்ப்பாணம்	-8.47336
▁நிறுவனங்கள்	-8.47351
▁மட்டத்தில்	-8.47354
▁செயற்படுத்த	-8.4737
▁நாள்	-8.47406
▁கண்காணிப்பு	-8.47418
▁நபர்	-8.47448
கே	-8.47608
▁அதி	-8.47617
▁ஹ	-8.47746
▁மாற்று	-8.47794
▁இயல்	-8.47856
▁கண்டி	-8.47967
▁வீடமைப்பு	-8.48109
▁ஏற்ற	-8.48118
▁பீட	-8.48138
▁விளக்க	-8.483
தாக	-8.48313
▁அறிவிப்பு	-8.48321
▁முன்னேற்ற	-8.48528
▁ஒ	-8.48541
▁நம்பிக்கைப்	-8.4856
ள்ள	-8.48735
வது	-8.48762
▁நோக்கம்	-8.48869
▁சு	-8.48971
▁மக்கள்	-8.49134
▁கல	-8.49322
▁செயற்றிட்டம்	-8.49445
▁நீதிமன்றம்	-8.49485
ிக்கும்	-8.49591
▁வைத்தியசாலை	-8.49624
▁பிர	-8.4972
▁ஒருங்கிணைப்பு	-8.49799
▁முகவர்	-8.50087
▁முக்கிய	-8.50193
ஷ	-8.50292
▁மட்ட	-8.50306
▁கோரிக்கை	-8.50362
▁கிளிநொச்சி	-8.50406
▁அவசியமான	-8.50425
▁குறிப்பிட்ட	-8.50553
▁பயன்	-8.50631
▁காரணி	-8.50651
▁பிரிவினால்	-8.5069
வான	-8.50701
▁அரசியல்	-8.50747
ம்ப	-8.51083
ட்டு	-8.51169
▁சில	-8.51429
▁திரைப்பட	-8.51696
▁தொலை	-8.51768
▁நி	-8.51775
▁எம	-8.51979
▁கணனி	-8.51985
▁செலவுத்	-8.5231
▁10	-8.52337
ீடு	-8.52385
▁கட்டளைகள்	-8.52475
▁20	-8.52479
▁நிறுவனத்தின	-8.52524
▁ஒழுங்கு	-8.52583
ப்பாடு	-8.52688
▁திறமை	-8.52789
▁தகுதி	-8.52825
▁விடயம்	-8.52877
ச்ச	-8.52893
யிலிருந்து	-8.53051
த்துடன்	-8.53165
▁நியாய	-8.533
▁மன்ற	-8.53314
▁ஒளி	-8.53385
களையும்	-8.53575
▁தோற்ற	-8.53578
▁இரட்டை	-8.53587
▁சம்பந்தமாக	-8.53587
▁செயன்முறை	-8.53587
▁பொலிஸ்	-8.53587
▁வணிக	-8.53588
▁இளைஞர்	-8.53589
▁தொழிலாளர்	-8.53628
▁தொழில்நுட்பம்	-8.53632
▁கீழே	-8.53644
ுகின்றது	-8.53655
▁இரண்டா	-8.53691
▁சுயதொழில்	-8.53726
▁நிகழ்ச்சிகளை	-8.53782
▁வேண்டும்	-8.53792
▁தரம்	-8.53812
லாம்	-8.54092
▁சிறப்பு	-8.54328
யிட	-8.54572
▁பண்பு	-8.54661
▁ஒன்று	-8.54661
▁கட	-8.55054
▁சி	-8.55109
▁மா	-8.55131
▁அது	-8.55169
▁கொள்ள	-8.5518
ித்தல்	-8.55221
▁ஆட்சி	-8.5532
ளவு	-8.55363
தேசிய	-8.55538
▁மேல்	-8.55627
▁மேல	-8.55751
்ட	-8.55774
▁நோக்கு	-8.55876
▁பிற	-8.56112
வே	-8.56126
▁செ	-8.56154
வா	-8.56284
▁புற	-8.56416
தா	-8.56445
ப்படுகிறது	-8.56681
▁வெகுமதி	-8.56921
▁அட்டை	-8.56922
ிசெம்பர்	-8.56924
த்தன்மை	-8.56927
▁தீர்வை	-8.56944
▁பேர	-8.56949
▁வலு	-8.56959
▁மாதாந்த	-8.5696
▁ஒப்படை	-8.56975
▁திறந்த	-8.56986
▁கலப்பு	-8.57067
▁அலுவல்கள்	-8.57193
▁சேர்ந்த	-8.57415
▁இதன்	-8.5753
்டிருக்கவில்லை	-8.57572
▁வசதி	-8.5764
▁சுற்று	-8.57927
▁வரையில்	-8.57952
▁பதில்	-8.58034
▁இலாபம்	-8.58073
▁காலி	-8.58118
▁நாடக	-8.58297
ப்பட்டன	-8.58484
▁வழக்க	-8.58674
▁பார்வை	-8.58698
ாமை	-8.58913
▁வருடத்தில	-8.58948
▁பெண்	-8.58996
▁நோக்க	-8.5902
▁அவதானிப்பு	-8.59101
ானது	-8.59163
பவர்	-8.59378
நிதி	-8.59471
ிலிருந்து	-8.59511
▁நியதி	-8.59534
▁6.	-8.59571
போது	-8.59743
▁பக்க	-8.59829
ிருந்தது	-8.59911
▁மே	-8.59954
கொள்	-8.59981
மைய	-8.60151
▁பரிசோதனை	-8.60369
▁பொறுப்பதிகாரி	-8.60369
▁எண்ணக்கரு	-8.60369
▁குறிப்பிடப்பட்ட	-8.604
▁நவம்பர்	-8.60418
▁தனிப்பட்ட	-8.60475
▁பொறிமுறை	-8.60504
ுற்ற	-8.60523
▁கோவை	-8.60526
▁பேச்சு	-8.6057
▁பொருத்த	-8.60636
▁தி	-8.6066
▁புத்தளம்	-8.60678
னி	-8.60693
▁பாட	-8.60705
▁முகாமையாளர்	-8.60745
▁திட்டங்களை	-8.60783
▁வீதி	-8.61005
▁கடந்த	-8.6108
▁கவனம்	-8.61188
▁தொகுப்பு	-8.61216
ிதிக்கூற்றுக்கள்	-8.61239
▁விளைவுகள்	-8.61642
ுக்க	-8.61962
▁சம்பளம்	-8.62671
யினால்	-8.62727
▁நிதியுதவி	-8.62842
▁கிளை	-8.63015
▁குடி	-8.63026
▁விளையாட்டு	-8.63441
▁நேரம்	-8.63817
ாட்சி	-8.63861
▁நலன்புரி	-8.6394
▁மகுடம்	-8.6394
▁கைத்தொழில்	-8.6394
▁செய்மதி	-8.63941
▁2017	-8.63943
▁கம்பனி	-8.63944
▁தேர்ச்சி	-8.63944
▁பிரமாணங்கள்	-8.63956
▁தேர்தல்	-8.63964
கின்ற	-8.63978
▁பாரிய	-8.63979
▁ஓய்வு	-8.63984
▁நாளாந்த	-8.63991
▁குரல்	-8.64027
▁செயலமர்வு	-8.6407
▁பொருத்தமான	-8.64099
▁தகைமை	-8.64179
▁குறைந்த	-8.6419
▁கொ	-8.64232
ற்கு	-8.64287
▁தேர்வு	-8.64292
▁செயல	-8.64301
▁இத	-8.6439
▁தா	-8.6466
▁வயது	-8.64686
▁வீதம்	-8.64846
▁சகவாழ்வு	-8.65164
ிலுள்ள	-8.65275
க்குழு	-8.6539
▁இணக்க	-8.65488
▁ஏற்பாடுகள்	-8.65542
செய்	-8.65711
▁11	-8.65752
▁காரியாலய	-8.65877
சை	-8.66007
▁கூடிய	-8.6614
▁2	-8.6624
▁நெறி	-8.66384
▁சமர்ப்பிக்க	-8.66425
▁ஈடு	-8.66466
ஈ	-8.66703
▁பொருட்	-8.67065
ந்	-8.67132
ஞ்ச	-8.67498
வரும்	-8.67563
e	-8.67637
▁சேத	-8.67647
▁செயலாற்றுகை	-8.67653
▁வரையறை	-8.67662
▁13	-8.67687
ுபவர்	-8.67709
▁நோக்கமாக	-8.67728
▁சரக்கு	-8.67728
▁வாங்கல்	-8.6774
▁இணைய	-8.67826
▁ஆற்றல்	-8.67875
▁உணர்வு	-8.68089
▁நிறுவனங்களில்	-8.68163
▁தேய்மானம்	-8.68195
கால	-8.68198
▁கலாசாரம்	-8.6837
▁அவதானிப்புகள்	-8.68445
▁அங்கவீனம	-8.68475
ப்பட்டிருந்த	-8.68476
▁பழக்க	-8.68618
▁எண்ண	-8.68663
▁மறு	-8.68798
▁இருந்து	-8.68907
▁காட்ட	-8.68911
▁கா	-8.69161
▁நாணய	-8.69475
ங்களுக்கு	-8.69487
▁ஆசிரிய	-8.69531
▁பிரி	-8.69604
▁தன்மை	-8.69697
(	-8.69935
▁நாடு	-8.7007
ினூடாக	-8.70276
▁மாத	-8.70351
▁செல்ல	-8.70431
▁அலகு	-8.70434
வேண்டிய	-8.70548
ஏ	-8.70584
▁மதிப்பீட்டு	-8.70603
▁வர	-8.7064
▁பட்ட	-8.70824
▁வினா	-8.7089
▁,	-8.71016
▁தகவல்கள்	-8.71209
▁குண	-8.71246
▁வவுனியா	-8.7149
▁ஆளுமை	-8.7149
▁பொதுசன	-8.71491
▁முன்னைய	-8.71492
▁சேமிப்பு	-8.71493
▁து	-8.71543
▁அகலவத்தை	-8.71545
▁முழுமையான	-8.7155
▁கட்புல	-8.71586
ிற	-8.71609
▁இடைநிலை	-8.7163
ிப்பு	-8.71636
எம்	-8.71644
▁நாயகம்	-8.71696
▁சட்டரீதியான	-8.71702
▁உண்மையான	-8.71708
▁நோ	-8.71787
▁18	-8.71845
▁அமைச்ச	-8.71861
▁கப்பல்	-8.72055
▁மாணவர்	-8.72215
ரா	-8.72287
த்தகு	-8.72589
யுள்ள	-8.7269
▁முதலீட்டு	-8.72695
▁சத்திய	-8.72743
▁எதிர்கால	-8.73015
▁முறையான	-8.73253
▁பூகோள	-8.7326
▁வை	-8.73353
▁15	-8.7342
▁கட்டு	-8.73453
▁பொறுப்ப	-8.73507
▁இது	-8.73586
▁அறிவ	-8.73609
▁சிங்கள	-8.73702
போ	-8.73817
2014	-8.73901
▁வழங்கிய	-8.74051
▁தவணை	-8.74074
த்தி	-8.74161
▁எழுத்தில	-8.74276
▁வீரர	-8.74337
▁காணப்பட்ட	-8.74438
ுக்கும்	-8.74479
▁கூறு	-8.74556
நிதிக்கூற்றுக்கள	-8.74571
னா	-8.74749
வாறு	-8.74902
▁கருவி	-8.75047
▁வழங்கப்பட்டுள்ள	-8.75331
▁முன்னெடுக்க	-8.75358
▁கிடைத்த	-8.75409
▁என்	-8.7547
▁திரண்ட	-8.7549
▁06	-8.75491
▁சிக்கல்	-8.75491
▁தொழிற்சாலை	-8.755
▁நன்கொடை	-8.75511
▁சரியான	-8.75538
▁மோட்ட	-8.75551
▁அம்பாறை	-8.75584
▁கழிவு	-8.7559
▁நடாத்துதல்	-8.75617
▁இரத்தினபுரி	-8.75621
▁பரிசு	-8.75636
▁எடுத்தல்	-8.75639
ப்படாத	-8.75658
▁விழிப்பூட்டல்	-8.75674
▁வினாக்கள்	-8.75785
▁குறிக்கோள்	-8.75804
▁பிரதிநிதித்துவ	-8.75811
▁மேலதிகமாக	-8.75852
▁நியமனம்	-8.76086
▁பெற்றோர்	-8.76106
▁கலந்து	-8.76147
பொ	-8.76227
நோக்கு	-8.76293
▁வீட்டு	-8.76371
▁விவர	-8.76495
▁சூழல்	-8.76636
தகு	-8.76711
வதற்கு	-8.76844
▁முடிந்தது	-8.77119
▁உபகரணம்	-8.77136
▁முடியாத	-8.77347
▁விடயங்கள்	-8.77403
▁பாரம்பரிய	-8.77662
▁ஆங்கில	-8.7771
▁நிரல்	-8.77753
▁வடிவமைப்பு	-8.78428
▁இடம்பெற்ற	-8.78648
▁காசோலை	-8.78902
▁சேர்	-8.78943
▁கு	-8.79243
▁சமுதாய	-8.79281
▁மானிய	-8.795
▁ஒப்ப	-8.79521
▁ஆகஸ்ற்	-8.79657
▁உணர்ச்சி	-8.79661
▁மருவிய	-8.79663
▁வளர்ச்சி	-8.79671
▁அமைச்சரவை	-8.79672
▁போதனை	-8.79678
▁முதலீடு	-8.79681
▁சட்டமுறையான	-8.79713
▁களுத்துறை	-8.79716
▁திரை	-8.79742
ேடு	-8.79784
▁என்பது	-8.79885
▁கொடுக்கல்	-8.79951
▁இந்துசமய	-8.79966
▁விகிதம்	-8.80195
▁பல்கலைக்கழக	-8.80267
▁ஓட்ட	-8.80296
கல	-8.80442
▁நிதிசார்	-8.80566
▁வசதிகளை	-8.80636
▁வெற்றி	-8.80685
▁சட்டத்தின்	-8.81018
▁சங்கம்	-8.81131
▁காரணம்	-8.81132
▁ஊதியம்	-8.8128
ப்பத்திரம்	-8.81516
▁நிர்ணய	-8.81531
00	-8.81591
▁செயற்பாட்ட	-8.81603
▁ஒத்த	-8.81771
மிக்க	-8.81774
▁மாவட்டங்களில	-8.81931
ணம்	-8.82007
வாதி	-8.82202
▁01.	-8.8222
▁04	-8.8231
▁அதன	-8.82409
▁மீளாய்வாண்ட	-8.82525
▁விடயங்கள	-8.82602
▁விபரம்	-8.8265
▁நிதியத்தின	-8.82717
▁வழக்குத்	-8.82729
▁விநியோகம்	-8.82747
▁கட்டண	-8.83127
ங்கள	-8.83195
▁மாகாணம்	-8.8323
▁அளவை	-8.83508
▁வேலைகள்	-8.83535
▁உண்மை	-8.83767
▁பிறழ்	-8.83882
▁பிராந்திய	-8.84005
▁அக்கறை	-8.84005
▁வானொலி	-8.84007
▁வாசிப்பு	-8.84064
▁அங்கீகாரம்	-8.84065
▁வீடு	-8.84072
▁தூர	-8.84076
▁உள்ளடக்கிய	-8.84099
▁எதிர்பார்த்த	-8.8413
▁சிந்தனை	-8.84148
▁பண்பாட்டு	-8.84156
▁முறி	-8.8416
▁சக்தி	-8.84234
▁காசு	-8.84335
▁ஒதுக்கீட்டு	-8.84409
▁முக	-8.84442
▁நலன்	-8.84564
▁தண்ட	-8.84705
▁"(	-8.84759
ழி	-8.84814
▁போலி	-8.8493
▁அறிமுகம்	-8.8496
▁உருவ	-8.85033
யின்மை	-8.85088
▁இராணுவத்தினர	-8.85121
▁இடம்பெற்றது	-8.85181
▁ஆலயங்கள	-8.85355
தே	-8.85367
▁சா	-8.85382
படு	-8.86052
▁குறைபாடு	-8.86103
▁மிகவு	-8.86115
▁மேற்கொள்ளப்பட	-8.8621
▁30	-8.86275
ப்பவர்	-8.86297
வரை	-8.86317
ைக்	-8.86399
▁நிதிக்	-8.86574
▁சொத்துக்கள	-8.86642
த்திய	-8.86701
கம	-8.86867
▁05	-8.86958
▁அடையாளம்	-8.86996
▁கேள்வி	-8.87119
▁தொடர்பாடலின	-8.87156
▁பயன	-8.8717
த்திலிருந்து	-8.87276
கட்ட	-8.87419
▁பீ	-8.87452
மொழி	-8.87465
நிகழ்ச்சித்திட்ட	-8.87474
▁சிவ	-8.879
▁பற்றி	-8.87982
▁கோர	-8.88122
▁சூ	-8.88125
▁பொதுவா	-8.88135
▁கல்விச்	-8.88286
பாடு	-8.88323
▁நல	-8.88429
ெய்திப்பத்திரிகை	-8.8855
▁உத்தரவாத	-8.8855
▁தள்ளுபடி	-8.8855
▁மோசடி	-8.8855
▁வதிவிட	-8.8855
▁அதிபர்	-8.8855
▁கணக்கீடு	-8.88566
▁ஒழுங்கமைப்பு	-8.88567
▁இருமொழி	-8.88605
▁காரணமாக	-8.8862
▁தற்போது	-8.8863
▁ஜனவரி	-8.88657
▁தள	-8.88683
▁பின்னர்	-8.88737
வரவுசெலவுத்திட்ட	-8.88795
▁ஆக்க	-8.88926
▁பதிப்பு	-8.88933
▁வாடகைக்கு	-8.8901
▁கட்டணங்கள்	-8.89045
▁வரைபடம்	-8.8905
▁நிர்மாண	-8.89097
▁மூன்று	-8.89113
ோடு	-8.8917
சார்ந்த	-8.89205
▁காணிகள்	-8.89304
▁வெ	-8.89424
கோ	-8.89588
▁இடம்	-8.89659
ுகின்றன	-8.89739
▁உரிமைகள்	-8.89904
▁முறையில்	-8.89906
▁உபகரண	-8.90123
▁அனுபவ	-8.90378
ச்சட்டம்	-8.90393
ிற்காக	-8.90453
▁தொ	-8.90578
▁சட்டங்கள்	-8.90658
யால்	-8.90658
▁சமூகம்	-8.90691
▁காப்ப	-8.90925
செய்தல்	-8.90941
▁மணித்தியால	-8.91009
▁ஏற்பு	-8.91054
▁வாகன	-8.91069
▁ஓ	-8.91235
ளிப்பு	-8.91456
▁விளம்பரம்	-8.91537
ச்சு	-8.91962
▁கட்டாய	-8.92307
யுடைய	-8.92448
ப்பெற்ற	-8.92456
▁1.2	-8.92567
▁08	-8.92663
ாக்கம்	-8.92697
▁அவர்கள	-8.92793
▁ஏற்றுக்கொள்ள	-8.92854
▁ஒளிபரப்ப	-8.92918
▁பிரதிநிதி	-8.92994
அந்த	-8.93063
▁காலப்பகுதியில	-8.93173
▁நீக்க	-8.93291
▁அவசர	-8.93298
▁2010	-8.93312
▁விமர்சன	-8.93312
▁முடிவடைந்த	-8.93312
▁ஒழுக்காற்று	-8.93312
▁முதற்	-8.93312
▁பின்னணி	-8.93332
▁பிரகடனம்	-8.93337
▁நுவரெலியா	-8.9338
▁பல்வகைமை	-8.934
பீ	-8.93434
▁இழப்பு	-8.93458
▁நியாயமான	-8.93549
▁செயல்முறை	-8.93554
▁தயாரிக்கும்	-8.93638
▁உதவியாளர்	-8.93644
▁சமநிலை	-8.93664
▁வாக்கு	-8.93677
▁எதிர்ப்பு	-8.93693
▁தாய்	-8.93725
▁நேரலை	-8.93765
▁அவற்றை	-8.93775
▁அரை	-8.93814
மின்னியல்	-8.93835
▁இரண்டு	-8.93909
க்கலை	-8.93952
▁கோண	-8.93979
▁கடன்பட்டோர்	-8.94052
▁குழந்தை	-8.94064
ெடு	-8.94076
▁குறைபாடுகள்	-8.94105
▁கொடுக்க	-8.94191
ினையும்	-8.94229
▁மாற்றல்	-8.94232
▁நோக்கங்கள்	-8.94243
ாணை	-8.95072
▁மனு	-8.95239
▁நடத்த	-8.95347
நி	-8.95556
▁மாணவர்கள்	-8.9556
க்கி	-8.95702
▁திரட்டு	-8.95799
▁மும்மொழி	-8.95945
▁கருத்த	-8.96086
▁உள்ளடக்க	-8.96199
▁கண்	-8.96213
▁வைபவ	-8.96331
▁ஓய்வூதிய	-8.96366
▁ஊதிய	-8.96391
த்தக்க	-8.96741
▁குறிப்ப	-8.96863
▁3.1	-8.96876
▁நடாத்தப்பட்ட	-8.96962
▁வினைத்திறன்	-8.96991
▁மூலதனம்	-8.97252
ாய்	-8.97283
▁22	-8.97321
▁உட்	-8.97363
ஸ்ரீ	-8.97386
எஸ்	-8.97453
வன	-8.97505
▁கட்டுரை	-8.97583
▁இரகசிய	-8.97824
தேசத்திற்கு	-8.97865
ிருந்ததுடன்	-8.9788
ச்சி	-8.98003
களுடன்	-8.9806
▁மறை	-8.9818
▁மாவட்டம்	-8.9829
▁பரம்பரை	-8.98312
▁அமர்வு	-8.98312
▁மனவெழுச்சி	-8.98312
▁கமரா	-8.98312
▁அடைவு	-8.98313
▁பயன்பாடு	-8.98335
▁பதிவாளர்	-8.98354
▁38	-8.9836
▁ஆவணம்	-8.98365
▁வீட்டுக்கடன்	-8.98368
▁24	-8.98374
▁கொடை	-8.98412
▁உடல்	-8.98439
▁ஊக்குவிப்பு	-8.98461
▁சாதாரண	-8.98481
ப்பட்டிருந்தது	-8.98518
ென	-8.98616
▁கூலி	-8.98629
▁சந்தைப்படுத்தல்	-8.98676
ங்களும்	-8.98917
▁உச்ச	-8.98934
▁விபரங்கள்	-8.99058
▁கொள்ளல்	-8.99097
▁I	-8.99161
▁மொழிச்	-8.99285
▁செலுத்தப்பட்ட	-8.99312
31	-8.99318
▁ஏற்படுத்த	-8.99345
▁இந்	-8.99467
▁விஞ்ஞானம்	-8.99569
▁பொறுப்புக்கள்	-8.99806
▁ஒதுக்கப்பட்ட	-9.00114
வேத	-9.00202
▁விருப்ப	-9.00215
▁சமர்ப்பிக்கப்பட	-9.00247
ாற்றல்	-9.00439
▁நிதிய	-9.00556
த்தால்	-9.00557
▁பரப்பு	-9.00661
வரி	-9.00945
மயமாக்கல்	-9.00954
▁இணைந்த	-9.00989
▁அவ்வ	-9.01025
▁திறன	-9.01135
▁6	-9.01187
▁காப்பு	-9.01317
ப்படுத்த	-9.0138
▁செயற்பட	-9.01425
▁விவகார	-9.01639
த்துறை	-9.01656
▁நினைவு	-9.01749
▁நேர்	-9.01999
▁நிர்வாகப்	-9.02088
▁சங்க	-9.0209
க்காரர்	-9.02157
▁ஆண்டில	-9.02288
ீட்டு	-9.02383
I	-9.02616
▁முறைமைகள்	-9.02645
அரச	-9.02684
பொறுப்பு	-9.02691
த்திலான	-9.02768
▁ஒன்றிணை	-9.02819
▁கதை	-9.02926
▁எடுக்க	-9.02958
▁சொந்த	-9.02991
▁புள்ளி	-9.03012
▁வே	-9.03158
▁கிடைக்க	-9.03221
▁உட்பட	-9.03238
தற்காக	-9.03266
▁பெறப்பட்ட	-9.03336
▁கடன	-9.0334
▁பிரதிப்	-9.03433
▁செயற்றிட்டத்தின	-9.03537
▁மரபு	-9.03543
▁பதவியணி	-9.0357
▁ஏப்ரல்	-9.03575
▁சஞ்சிகை	-9.03575
▁நிருவாக	-9.03575
▁மரணசாதன	-9.03575
▁நுட்ப	-9.03575
▁மாத்தளை	-9.03575
▁விடுதலை	-9.03575
▁பண்பாடு	-9.03576
▁சமாதான	-9.03576
▁இடைநிறுத்த	-9.03578
▁கழக	-9.03582
▁அரசியலமைப்பு	-9.03585
▁உரை	-9.03596
▁குடியிருப்பு	-9.03599
▁கிழக்கு	-9.03606
▁கடப்பாடு	-9.03609
▁உண்டியல்	-9.03611
▁குடியியல்	-9.03612
▁மிகுதி	-9.03623
▁பத்திர	-9.03635
▁திருகோணமலை	-9.03651
▁வரையறுக்கப்பட்ட	-9.03657
▁கணக்காளர்	-9.0366
▁கற்பனை	-9.03671
▁முல்லைத்தீவு	-9.037
▁உரையாடல்	-9.03715
▁தொழிற்பாட்டு	-9.03739
▁அவதானிப்புக்கள்	-9.03757
▁உறுதிப்படுத்த	-9.03775
▁நூல்	-9.03781
▁ஒப்படைப்பு	-9.03788
▁அடிப்படையாக	-9.03876
▁தோட்ட	-9.03889
▁அரங்க	-9.03895
▁அவற்ற	-9.04051
▁ஆகியவற்றை	-9.04054
▁செய்வதற்கு	-9.04056
த்தொகை	-9.0412
▁ஆகியன	-9.04238
▁மண	-9.04509
▁ஒத்துழைப்பு	-9.04561
▁நாயகத்தின	-9.04678
ாய	-9.04802
▁மதிப்பீட்ட	-9.0484
▁ஈட்டு	-9.05025
▁அபிப்பிராயம்	-9.05111
வாத	-9.0513
சாரா	-9.05232
▁அலை	-9.05257
செய்யப்பட்ட	-9.05361
▁தேவைகள்	-9.05551
▁செல்வ	-9.05816
த்துக்கு	-9.05842
▁பெரு	-9.0593
▁செயற்படு	-9.06182
▁மணித்தியாலங்கள	-9.0619
ோட்ட	-9.06587
▁பெறும்	-9.06744
▁பூர்த்தி	-9.06773
ிக்கப்பட்ட	-9.06961
▁ஓர	-9.07094
▁உரு	-9.07149
▁சட்டவாக்க	-9.0715
▁ஆதன	-9.07177
▁இலாப	-9.07229
களைத்	-9.07349
▁முடித்த	-9.074
த்துவ	-9.07559
ல்ல	-9.07668
சே	-9.07799
▁கட்டம்	-9.07832
றவு	-9.07875
▁வாகனங்கள	-9.07948
▁போத	-9.08002
▁வைப்பு	-9.08266
சேவை	-9.08306
பட	-9.08537
கர்	-9.08571
▁உயிர்	-9.08578
▁வியாபாரம்	-9.08639
▁இருந்த	-9.08683
▁வாத	-9.08814
ண்டு	-9.08827
▁குற்றம்	-9.08876
▁என்பன	-9.08888
ப்பட்டிருந்தன	-9.08978
▁பூரண	-9.08984
▁ஊக்க	-9.09001
▁கண்காட்சி	-9.091
▁எஞ்சிய	-9.09131
▁நெருங்கிய	-9.09131
▁பரஸ்பர	-9.09131
▁மாநகர	-9.09131
▁ரசிகர்கள	-9.09131
▁ஒருமைப்பாடு	-9.09131
▁முன்னோடி	-9.09131
▁கேகாலை	-9.09131
▁அதிபதி	-9.09131
▁பிரதம	-9.09132
▁ஜனாதிபதி	-9.09133
▁ஆள்புல	-9.09134
▁அமய	-9.09136
▁தமது	-9.09137
▁பற்றுச்சீட்டு	-9.09138
▁மேற்பட்ட	-9.09142
▁படிவம்	-9.09157
▁பெற்றுக்கொள்வத	-9.09158
▁பங்களிப்பை	-9.09171
▁பரீட்சிப்பு	-9.09173
ொன்று	-9.0918
▁ஏற்பட	-9.09187
▁புலமை	-9.09191
பழைய	-9.09195
▁அதன்படி	-9.09198
▁பேரவை	-9.09243
▁"2015	-9.09265
▁முதன்மை	-9.0927
▁ஆழ	-9.09281
▁கொடுத்தல்	-9.09292
▁விண்ணப்பங்கள்	-9.09297
▁கட்டட	-9.09304
▁காரண	-9.09322
▁வட்ட	-9.09329
▁வழங்கப்படும்	-9.09335
▁17	-9.09385
▁புதுப்பித்தல்	-9.09408
▁II	-9.09474
▁அறவிட	-9.09511
▁நியமங்கள்	-9.09556
டல்	-9.09605
▁வரவுசெலவுத்	-9.09716
▁வைத்தல்	-9.09732
ப்பட்டுள்ள	-9.0974
▁வாய்ப்பு	-9.09796
▁கோ	-9.09958
த்துவம்	-9.09984
ாளி	-9.09999
▁வரைவு	-9.10014
▁சந்தர்ப்பங்கள்	-9.10052
▁முக்கியத்துவம்	-9.10106
▁சலுகைக்	-9.1021
▁அவ	-9.10225
▁அவை	-9.10272
▁வசதிகள்	-9.1033
▁மேம்படுத்த	-9.10343
▁நியதிச்	-9.10396
▁கழி	-9.10453
▁விண்ணப்ப	-9.10519
▁சுதந்திரம்	-9.10536
▁கணக்க	-9.10631
▁ஏற்ப	-9.10682
▁முயற்சிகள்	-9.1069
▁கர	-9.10872
▁செலவ	-9.10989
▁வாகனங்கள்	-9.11035
கொடு	-9.11042
▁அனுபவம்	-9.11484
▁அதிகாரச்சட்ட	-9.11743
▁புகைப்பட	-9.11964
▁ஊ	-9.12048
தார	-9.12084
▁உரித்த	-9.12139
▁உள்ளவாற	-9.12179
▁சட்டக்	-9.12426
ப்படம்	-9.12427
▁பின்ன	-9.12433
▁வடிவ	-9.12495
ப்பிரிவு	-9.12526
▁கீழ	-9.12718
▁அற	-9.13002
▁திருமண	-9.13004
▁02.	-9.13185
மைப்பு	-9.13194
▁சூழல	-9.13379
▁பயன்படுத்தி	-9.13506
▁படிகள்	-9.13547
ஜ	-9.1362
▁போ	-9.13629
ரிமை	-9.1364
▁பொறுப்புகள்	-9.13965
வில்லை	-9.13986
A	-9.14074
தமிழ்	-9.14116
▁இவ்	-9.14171
▁சேகரிப்பு	-9.14284
ொரு	-9.14424
ுறு	-9.14457
டர்	-9.14627
▁பொ	-9.1474
▁கட்டுப்படுத்த	-9.14782
▁ஒத்திசை	-9.14804
▁பேண	-9.14877
▁உதவு	-9.14918
மானம்	-9.14922
a	-9.14968
▁மீண்டு	-9.15005
▁சம்பந்தமான	-9.15013
▁திடீர்	-9.15013
▁நடமாடும்	-9.15013
▁பல்லூடக	-9.15013
▁நீதிபதி	-9.15013
▁குடியேற்ற	-9.15014
▁அரசிறை	-9.15016
▁எச்சரிக்கை	-9.15018
▁முன்னுரிமை	-9.1503
▁மொழிபெயர்ப்பு	-9.15042
▁தொழிற்பாடு	-9.15048
▁தொழிற்படு	-9.15053
▁ஒப்பனை	-9.15061
▁போதிய	-9.15105
▁தத்துவம்	-9.15111
▁குவிய	-9.15137
▁மன்னார்	-9.15154
திட்டத்தின்	-9.15234
▁25	-9.1524
▁பாங்கு	-9.15265
▁தடுப்பு	-9.15373
▁மீறல்	-9.15392
▁கற்பித்தல்	-9.1542
றுதி	-9.15432
▁தவறான	-9.1545
▁கருத்துரை	-9.15475
▁நடாத்தப்பட்டது	-9.1549
▁மக்களுக்கு	-9.15491
▁ஆகும்	-9.1552
▁கவனத்திற்கு	-9.15593
யிலும்	-9.15685
▁பெறுவோர்	-9.15702
▁பொதுமக்கள்	-9.15831
▁அளவைகள்	-9.16034
▁23	-9.16134
▁இசைவு	-9.16147
ுரை	-9.1625
▁நேரடியாக	-9.1626
வள	-9.16309
செ	-9.16348
▁முரண்	-9.16395
▁வழங்குவதற்கு	-9.1655
▁வாழ்க்கைத்	-9.16582
▁வைப்ப	-9.16632
▁கரும	-9.16681
▁பிள்ளைகள்	-9.16732
▁சபைகள்	-9.16783
▁தீர்மானம்	-9.16836
▁வருடம்	-9.16902
▁தன்ன	-9.16987
▁மாணவர்கள	-9.17114
ிக்	-9.17396
▁தற்	-9.17434
▁மின்	-9.17543
கிற	-9.17577
▁அடுத்து	-9.17638
▁திற	-9.17664
யிடப்பட்ட	-9.17672
ப்படா	-9.17714
▁நீக்கம்	-9.17791
▁சேவையை	-9.17993
▁ஆகியவற்ற	-9.18217
ரோ	-9.18226
▁அமுற்படுத்துவத	-9.18424
▁பெயர்ப்	-9.18444
▁40	-9.19116
▁பர	-9.1922
▁முனை	-9.19404
ிலும்	-9.19488
▁பற்று	-9.19561
▁சில்லறை	-9.19735
▁காட்டு	-9.19779
ப்பாளர்	-9.19836
▁வைக்கப்பட்ட	-9.19962
▁அல்லாத	-9.2014
▁தீர்மான	-9.20219
▁நிற	-9.20251
▁8.	-9.20346
▁மருந்த	-9.20411
▁நிகழ்ச்சிகளுக்க	-9.20566
தாகும்	-9.2063
ரத்ன	-9.20655
த்தின	-9.20664
▁துண்டு	-9.20689
தலும்	-9.20841
▁மருத்துவர்	-9.20898
பூர்வ	-9.20943
▁அதிகாரசபை	-9.21002
▁09	-9.21097
ெல்லை	-9.21252
▁ஆட்சேர்ப்பு	-9.21263
▁கலாச்சார	-9.21263
▁நிறுவகம்	-9.21263
▁வரலாறு	-9.21263
▁வர்த்தமானி	-9.21263
▁கடற்படை	-9.21263
▁நியாயாதிக்க	-9.21263
▁ஸ்தாபன	-9.21263
▁தன்னியக்க	-9.21263
▁வழமை	-9.21263
▁உணவு	-9.21264
▁உத்தியோகபூர்வ	-9.21265
▁வாய்மூல	-9.21267
▁அமைதி	-9.2127
▁மறுசீரமைப்பு	-9.21274
▁பதிலீடு	-9.2128
▁பற்றாக்குறை	-9.21297
ii	-9.21356
▁மேடை	-9.2138
▁வாயில்	-9.21384
▁கோப்பு	-9.21411
▁புத்தாக்க	-9.21412
▁தொடர்ந்து	-9.2142
▁அறிவுரை	-9.21456
▁சமர்ப்பித்தல்	-9.21478
▁அமுற்படுத்தல்	-9.21483
▁தென்	-9.21496
▁தயாரிப்பது	-9.21601
▁அமை	-9.21648
▁ஜீ	-9.21653
▁பங்கிட	-9.21698
▁ஏற்க	-9.21705
▁திறனாய்வு	-9.21726
▁வீரர்கள	-9.21783
▁இடர்	-9.21811
▁சார்	-9.21887
▁பெறுமான	-9.21891
▁சொல்ல	-9.21963
▁சதவீதம்	-9.22063
▁தொடர்ச்சி	-9.22244
▁ல	-9.22284
▁ஆவணங்கள்	-9.22287
▁இவ்வாற	-9.22404
▁நாட்	-9.22428
▁நடு	-9.22435
▁மேன்முறையீட்டு	-9.22438
▁கலையகம்	-9.2245
ிடு	-9.22488
▁ஆண்டுக்கான	-9.22568
▁வீட்டுத்	-9.22577
▁அடைய	-9.22608
▁நிதிப்	-9.22659
▁களஞ்சிய	-9.2273
▁19	-9.22736
▁பத	-9.2277
குறி	-9.22799
▁விரி	-9.22833
▁மனை	-9.22843
▁27	-9.22984
்டு	-9.23133
▁நெறிமுறை	-9.23162
▁மேலும்	-9.23291
▁நிகழ்	-9.23294
▁கீழ்க்	-9.23379
என்	-9.23509
▁பொறுப்புக்கள	-9.23527
▁மதிப்பீடுகளை	-9.23591
▁8	-9.23604
▁ஆணைக்குழுவ	-9.23632
ுக	-9.23823
▁உருவாக்க	-9.24116
ாண்மை	-9.24139
▁அறிக்கைகள்	-9.24263
▁சமூகப்	-9.24303
▁செய்யப்பட	-9.24315
▁மதிப்பு	-9.24395
டிய	-9.24404
▁மாணவர்களுக்கு	-9.24617
▁கோட	-9.24875
ெல	-9.24996
ொத்த	-9.25014
▁விழாக்கள	-9.25084
இலங்கை	-9.25256
▁செயற்பாடுகளை	-9.25276
▁தொழில்சார்	-9.25342
▁தகவல்களை	-9.25428
ிடமிருந்து	-9.25561
▁50	-9.25784
பெற்ற	-9.25802
▁சான்ற	-9.25999
▁மூட	-9.26258
▁தொகுப்ப	-9.2629
▁சிறப்ப	-9.26328
▁நூலக	-9.26611
▁எண்	-9.26708
▁அதிகாரசபையின	-9.26939
நெறி	-9.26945
ாறு	-9.27056
▁கருத்தரங்கு	-9.27154
▁கலைத்திட்ட	-9.27414
எ	-9.27426
▁இந்தப்	-9.27551
▁பதி	-9.276
▁ஒருமைப்பாட்ட	-9.27658
▁ஆர்வ	-9.27685
முள்ள	-9.27734
ட்டம்	-9.27746
ிக்க	-9.27747
▁அவசிய	-9.27792
▁அணு	-9.27795
▁உடனடி	-9.2789
▁குழப்ப	-9.27897
.12.	-9.27906
▁வழங்கப்பட்டது	-9.27929
▁கையிருப்பு	-9.2793
▁கொள்முதல்	-9.2793
▁சராசரி	-9.2793
▁சிரேஷ்ட	-9.2793
▁சுயாதீன	-9.2793
▁"2012	-9.2793
▁சம்பவ	-9.2793
▁உத்தம	-9.27931
▁ஒக்டோபர்	-9.27938
▁வெற்று	-9.2794
▁பெற்றுக்கொண்ட	-9.27941
▁2009	-9.27947
▁வகுப்பறை	-9.27955
▁சிறப்புரிமை	-9.27962
▁பெப்ரவரி	-9.27966
▁பௌ	-9.27973
▁வெளிப்படுத்துகை	-9.27974
▁வெளிப்படையான	-9.27975
▁அறிகை	-9.27975
▁மறுபடி	-9.27977
▁மனிதவள	-9.27981
யிலுள்ள	-9.27986
▁ஆலோசகர்	-9.27996
▁கணிப்பு	-9.28001
▁எதிராக	-9.28022
▁வலை	-9.2803
▁பாலியல்	-9.28048
▁விடுப்பு	-9.28065
▁நடுத்தர	-9.28102
▁அவதூறு	-9.28122
▁அதற்கு	-9.28149
▁உள்ளுர்	-9.2816
▁வழங்கி	-9.28174
▁பதவியணியினர்	-9.2822
▁ஆராய்	-9.28262
▁குறைப்பு	-9.28355
▁ஆயு	-9.28356
▁எதிர்பார்க்க	-9.28358
▁தீ	-9.28362
▁வரிசை	-9.28366
▁செயலகங்கள்	-9.28399
▁உரிமையாளர்	-9.28404
▁பலகைகள்	-9.28501
▁கேள்விப்பத்திர	-9.28516
▁பிள்ளைகளின்	-9.28518
▁போர்	-9.28566
ப்படுவதுடன்	-9.28575
▁வைக்க	-9.28613
ாக்கல்	-9.28617
▁முன்னெடுப்பதற்க	-9.28665
▁ஊழியர்களின்	-9.28756
▁ஐய	-9.2881
▁மீ	-9.28815
▁வாசக	-9.28846
யாகும்	-9.2887
▁வைப்புக்	-9.28996
ாளர	-9.28998
ன்மை	-9.29026
ாது	-9.2906
▁முன்னர்	-9.2906
டைமை	-9.29141
ினைத்	-9.29203
▁கணக்காய்வ	-9.29223
▁மீற	-9.29254
▁நட்ட	-9.29369
▁சங்கங்கள்	-9.29412
▁மாறா	-9.29474
கின்றது	-9.29477
▁தேவைகளை	-9.29536
ால	-9.29582
▁செயற்	-9.29583
▁அதனை	-9.29631
▁விட	-9.29671
▁நோக்கில	-9.29778
▁சேவைகளை	-9.29842
தொ	-9.29972
ப்பதற்கான	-9.30087
▁நவீன	-9.30098
▁ஆர்	-9.30098
▁கட்டியெழுப்ப	-9.3013
▁அதிகாரிகள்	-9.30135
▁நிலையங்கள்	-9.30208
▁மேற்கொள்ளல்	-9.30391
நா	-9.30459
பால	-9.30592
▁எழு	-9.3071
துமான	-9.30716
▁அறிவித்தல்கள்	-9.30827
▁மீளாய்வாண்டி	-9.31144
▁ஆங்கிலம்	-9.31166
▁பெறு	-9.31264
▁பேரேட	-9.31387
▁திரட்ட	-9.31415
▁சட்டப்	-9.31533
▁உள்ளடக்கப்பட்ட	-9.31602
▁முற்பண	-9.31604
▁இலட்சிய	-9.31695
ாரி	-9.31731
▁கொள்கைகள்	-9.31863
மட்ட	-9.3194
▁வன்	-9.31956
▁காட்டப்பட்டுள்ள	-9.3196
தோடு	-9.31979
ப்படுகின்ற	-9.31981
▁இன்ப	-9.3204
▁விடு	-9.32122
ண்ண	-9.32139
லன்	-9.3236
▁தே	-9.32395
கோள்	-9.32462
▁மெய்	-9.32662
▁அமைந்துள்ள	-9.3279
▁சர	-9.32857
ஞ்சார்	-9.32879
ஸ	-9.33048
▁தொடக்க	-9.33247
▁ஒழுக்கம்	-9.33422
▁சலுகை	-9.33426
▁திருத்தம்	-9.33454
▁தீர்மானிக்க	-9.3361
▁ஆக	-9.33688
▁தொழில	-9.33751
▁பிரிவ	-9.3392
▁தாபிக்க	-9.33931
வோர்	-9.3405
நாட்ட	-9.34077
மேலும்	-9.34152
சுகாதார	-9.34174
நடவடிக்கை	-9.34179
▁அச்ச	-9.34261
வித	-9.34315
▁உத்தி	-9.34352
▁கூட்டிணை	-9.34401
▁கைய	-9.3448
ாய்வு	-9.34482
▁சட்டவிரோத	-9.34883
விதி	-9.3496
▁ஆற்ற	-9.34977
▁ரூபா	-9.35069
▁அத்தியட்சகர்	-9.35073
▁சனநாயக	-9.35073
▁நானாவித	-9.35073
▁நுண்மதி	-9.35073
▁முன்னிட்டு	-9.35073
▁விபத்து	-9.35073
▁தாபித்தல்	-9.35073
▁மேம்பாடு	-9.35073
▁பெற்றுக்கொடுக்க	-9.35075
▁பாவனை	-9.35075
▁தபால்	-9.35075
▁புலனுணர்வு	-9.35076
▁மனப்பாங்கு	-9.35091
▁மீட்பு	-9.35092
▁இடைவெளி	-9.35093
▁III	-9.35095
▁பாதகமான	-9.35105
▁உளநல	-9.35107
▁ஆகஸ்ட்	-9.35111
▁வருடத்த	-9.35125
▁வன்முறை	-9.35144
▁வாய்	-9.35149
▁உருவரை	-9.35156
பே	-9.35177
▁கம்பஹா	-9.35178
▁வண்டி	-9.35178
▁செலுத்துகை	-9.35216
▁நாடா	-9.35237
▁செல்லுபடியான	-9.35249
▁16	-9.3526
▁வேண்டுகோள்	-9.35267
▁முழுமை	-9.35268
▁போக்கு	-9.35274
▁அளிப்பு	-9.35289
▁தொடர்ச்சியான	-9.35325
▁தீர்வு	-9.35338
▁கொண்டுள்ளது	-9.3534
▁கூட	-9.35343
▁தற்செயல்	-9.35394
▁தொடர்புடைய	-9.35444
▁பெற்றவர்	-9.35482
▁முகாம்	-9.35527
▁வகைப்படுத்தல்	-9.35638
▁மேம்படுத்தல்	-9.35646
▁நல்லெண்ணத்	-9.35843
▁ஆலய	-9.35852
▁டீ	-9.35936
டாப்பு	-9.3603
▁நடாத்தல்	-9.36164
▁கடிதங்கள்	-9.36185
▁வில்லை	-9.36216
▁தாபிக்கப்பட்ட	-9.36229
▁நிலையங்கள	-9.36309
▁மின்சாரம்	-9.36321
▁இவற்ற	-9.36382
▁பெறல்	-9.36555
மையால்	-9.36832
▁வைத்தியசாலைகள்	-9.36838
▁குழுக்கள்	-9.36848
▁பரிமாற்றம்	-9.36908
▁நாட்கள்	-9.37014
▁முகாமைத்துவத்	-9.3704
▁வலி	-9.37163
▁முடிவ	-9.37164
▁பொதுச்	-9.37278
▁சீ	-9.37465
▁வரலாற்று	-9.37699
▁பதில	-9.37765
""	-9.37787
ிட்ட	-9.3782
▁பட்டய	-9.37878
ார	-9.37925
▁வரும்	-9.3815
ாள	-9.38161
▁பொருள	-9.38167
கட்டு	-9.3818
ாக்க	-9.38467
▁பன்முக	-9.38486
▁திகதிய	-9.38894
த்தள	-9.39042
▁07	-9.39077
யின்றி	-9.39131
பீட	-9.39243
▁பொருட்களை	-9.39255
ிற்குரிய	-9.39266
▁அடுத்த	-9.39372
▁சட்டத்	-9.39388
▁பிரிவுகள்	-9.39473
ூடாக	-9.39722
▁வரைய	-9.39747
▁எதிர்பாரா	-9.39751
▁தினம்	-9.39854
இல	-9.4
▁அறிவிப்புக்கள	-9.40042
▁துணைப்	-9.40061
▁பாதுகாப்ப	-9.40242
ியற்	-9.40348
▁அலகுகள	-9.40355
▁காணப்பட்டது	-9.4051
ன்ற	-9.40545
த்தார்	-9.40749
▁மது	-9.4078
▁பருவ	-9.40798
▁விஞ்ஞான	-9.40836
▁பரிமாற்ற	-9.40884
%	-9.40937
▁சுதந்திர	-9.41014
பொருள்	-9.41023
▁9	-9.41038
▁அடி	-9.41148
மைவு	-9.4127
▁சந்தர்ப்ப	-9.41312
▁முரண	-9.41341
ேற்றல்	-9.4141
▁அத்த	-9.41444
நிகழ்ச்சி	-9.41509
▁அபிப்பிராயம	-9.41548
▁அறநெறி	-9.41589
▁அவற்றின	-9.41608
▁நிறை	-9.41612
பெ	-9.41628
ரிப்பு	-9.41637
களிலும்	-9.41812
டீ	-9.41841
மர	-9.41873
▁நிதிச்	-9.41945
▁கைநூல்	-9.4201
▁2.1	-9.4204
சா	-9.4209
▁வெளியே	-9.4224
ிடப்பட்ட	-9.42342
▁பிரசித்த	-9.42434
தற்கான	-9.42462
▁மரபுரிமை	-9.42539
▁மேற்கொண்ட	-9.4257
சார்பற்ற	-9.42594
ின்ற	-9.42712
▁உபயோக	-9.42746
ன்மதி	-9.42751
மூலம்	-9.42756
்ரீ	-9.42756
o	-9.42758
ுடைமை	-9.4276
ச்சீட்டு	-9.42762
நாயக்க	-9.42764
இதற்கமைவாக	-9.42765
▁இரங்கல்	-9.42765
▁எதிர்பார்ப்பு	-9.42765
▁சிபாரிசு	-9.42765
▁தெரிவுசெய்யவும்	-9.42765
▁நகைச்சுவை	-9.42765
▁நெருக்கடி	-9.42765
▁பிரத்தியேக	-9.42765
▁யதார்த்த	-9.42765
▁இராச	-9.42765
▁உண்மையாகவும்	-9.42765
▁ஜனநாயக	-9.42765
▁நடிகர்	-9.42765
▁மாத்தறை	-9.42765
▁வெசாக்	-9.42765
▁மதியுரை	-9.42767
▁உட்கட்டமைப்பு	-9.42768
▁அஞ்சல்	-9.42768
▁செல்வாக்கு	-9.4277
▁செயலாற்றலினை	-9.42771
▁சம்மந்தமாக	-9.42775
▁வாக்குறுதி	-9.42783
▁பொறியியல்	-9.42784
▁எழுதுநர்	-9.42792
▁உள்ளபடியான	-9.42807
ிருக்கும்	-9.4281
▁தாய்வழி	-9.42825
▁பொருட்டு	-9.42831
த்தாள்	-9.42858
▁வகுப்புக்கள்	-9.42885
▁தாமத	-9.42901
▁வெற்றிடம	-9.42902
▁உயர்தர	-9.42922
▁பொறுப்பாளர்	-9.4295
▁இணைக்கப்பட்ட	-9.42959
▁வரைபு	-9.4297
▁சேவையிலுள்ள	-9.42972
▁பிடி	-9.42984
மின்றி	-9.42985
▁நியாயமாக	-9.43006
▁அச்சிடல்	-9.43031
ர்ச்சி	-9.43059
ிடையே	-9.43062
▁தணி	-9.43063
▁சட்டப்படி	-9.43076
▁இல்லை	-9.4311
▁மாத்திரம்	-9.43113
▁நடைபெறும்	-9.43134
▁சாதனம	-9.43137
▁பரிமாண	-9.43177
▁28	-9.43234
▁பெறுதல்	-9.43238
▁பெருக்க	-9.43239
ளித்தல்	-9.43242
▁இருக்கும்	-9.43255
▁நடாத்தப்பட்டன	-9.43273
▁ஏனையவை	-9.43283
▁பிழை	-9.43329
▁கணக்காய்விற்கு	-9.43338
▁வளங்கள்	-9.43349
வியலா	-9.43394
▁ஆய	-9.4342
▁மறைமுக	-9.43429
▁பெற்றமை	-9.43435
▁புத்த	-9.43446
ிலா	-9.43481
ினதும்	-9.43491
▁வீட்டுக்	-9.43496
▁ஆள்	-9.43532
லக	-9.43562
▁1.1	-9.43608
▁இனம்	-9.43614
▁பொறியியலாளர்	-9.43668
▁திணைக்களங்கள்	-9.4368
▁அறை	-9.43717
▁பதவிநிலை	-9.43726
▁கொள்ளப்பட்ட	-9.43745
▁காணப்பட	-9.43874
▁உரிமம்	-9.43966
▁முற்ற	-9.4397
▁செல்	-9.43975
▁ஊகம்	-9.44007
▁பெயர	-9.44212
ுரு	-9.44278
▁7.	-9.4428
▁29	-9.44381
▁பழ	-9.44453
தற்கு	-9.44522
▁ஒப்பிடு	-9.44589
▁காட்சிப்படுத்த	-9.44602
▁தவிர்	-9.44633
▁நியமிக்கப்பட்ட	-9.44659
வேலை	-9.44834
▁கூடம்	-9.4487
▁அளவ	-9.4487
▁அகற்ற	-9.44928
க்கல்வி	-9.44948
▁அங்க	-9.44992
▁21	-9.45002
▁ஆசிரியர்கள்	-9.45039
ின்றி	-9.45107
▁பே	-9.45113
▁கிளைகள	-9.45114
▁பணிகளை	-9.45146
▁சுர	-9.45353
றிவு	-9.45422
▁விருப்பு	-9.45507
▁வெளியீடுகள்	-9.45539
திரு	-9.45593
▁சொத்துக்களை	-9.45709
▁நிலைமையின	-9.45912
▁பிரயோக	-9.45959
குழு	-9.46281
▁மாற	-9.46299
▁பல்கலைக்கழகம்	-9.46401
ஞர்	-9.46452
ேற்ப	-9.46488
▁பாடசாலைகள்	-9.46501
▁உந்த	-9.46505
ுரிமை	-9.46542
சந்தர்ப்பங்களில்	-9.46564
▁கொண்டுவரப்பட்ட	-9.46663
▁சீர	-9.46665
▁பார்க்க	-9.4667
▁சான்றிதழ்கள்	-9.46743
டனான	-9.46769
▁அவ்வாற	-9.4677
பாட	-9.46781
▁இராணுவம்	-9.46789
▁முடி	-9.46792
▁பின்னூட்டல	-9.46852
▁பகிரங்க	-9.46861
▁செய்யப்பட்டுள்ள	-9.47036
நர்	-9.47112
▁ஒதுக்க	-9.47147
புர	-9.47223
▁இயல்பு	-9.47341
▁வீத	-9.47342
கொட	-9.47399
▁குறு	-9.47482
ட்சி	-9.47729
▁விளக்கம்	-9.4782
▁தவற	-9.47953
▁சொத்துப்	-9.48022
▁விடுவி	-9.48114
ப்பட்டு	-9.48162
▁பாத	-9.4862
▁நுண்	-9.48641
க்காலம்	-9.48644
▁இணைப்ப	-9.48724
ரும்	-9.48954
▁வருடத்தின	-9.48994
▁வான	-9.4912
▁பரிந்துரை	-9.49475
▁தொடர	-9.49658
▁தலைவர	-9.49685
▁தாக்க	-9.49762
▁ஆசிரியர்களுக்க	-9.4977
▁வா	-9.49865
பிரி	-9.49949
▁சொத்த	-9.49959
▁தயாரிக்க	-9.50115
▁சோ	-9.50157
வெளி	-9.50193
▁மதிப்ப	-9.50288
▁நடத்தப்பட்ட	-9.5042
▁இத்	-9.50439
▁கற்ப	-9.50616
சிங்களம்	-9.50632
ப்பொருள்	-9.50654
▁விருப்பாவண	-9.50758
த்தகைய	-9.50857
க்கூற்று	-9.51001
▁இலவச	-9.51024
▁துணி	-9.51051
மடைந்த	-9.51081
V	-9.51085
ஆர்	-9.51093
▁கனிஷ்ட	-9.51098
▁கதாபாத்திர	-9.51098
▁குழாம்	-9.51098
▁தலையாய	-9.51098
▁அழுத்த	-9.51098
▁ஐந்தொகை	-9.51098
▁பிரயாண	-9.51098
▁முந்தைய	-9.51098
▁பௌதிக	-9.51099
▁ஒரே	-9.51099
▁வேலைவாய்ப்பு	-9.51099
▁புதுமை	-9.51099
▁மூன்றாம்	-9.51099
▁குற்றஞ்சாட்ட	-9.51099
▁பரிசீலனை	-9.51099
▁பள்ளி	-9.511
▁ஒளிப்பதிவு	-9.51106
▁மருத்துவமனை	-9.51111
▁2006	-9.51115
▁தத்துவங்கள	-9.51115
▁முரண்பாடு	-9.51119
▁பணிக்கொடை	-9.51119
▁பொருண்மை	-9.51122
▁காசுப்பாய்ச்சல	-9.51129
▁போஷ	-9.51129
▁வருகின்றன	-9.51135
▁அளவீடு	-9.51136
▁பிரசை	-9.51148
▁வாய்ப்புக்கள்	-9.51153
▁வேறுபாடு	-9.51153
▁முதலாவது	-9.51155
▁சித்திர	-9.51156
▁முழுவதும்	-9.51181
த்தொகுதி	-9.51194
.09.	-9.51197
▁சட்டவிரோதமாக	-9.51197
▁அழி	-9.51205
▁யூன்	-9.51219
▁உறுதிமொழி	-9.51223
▁கூற்றுக்கள்	-9.51235
▁புள்ளிவிபர	-9.51238
▁மொழிக்கல்வி	-9.51239
▁தந்திர	-9.51243
▁நாட்டார்	-9.51247
▁கட்டியெழுப்பு	-9.51264
▁பிணையம்	-9.5127
▁பொலன்னறுவை	-9.51303
▁அடிப்படையிலான	-9.51313
▁தவறாக	-9.51371
▁தயாரித்து	-9.51394
▁பெறுநர்	-9.51399
▁படைப்பு	-9.51494
▁கருத்துநிலை	-9.51528
▁இடமாற்ற	-9.51532
▁அதிகாரமளிக்க	-9.51564
▁ஒப்புதல்	-9.51631
▁கோபுர	-9.51652
▁இதற்கு	-9.51758
▁காலப்பகுதி	-9.51818
▁ஏற்படுத்தல்	-9.51831
▁S	-9.51874
▁குறிப்பிட	-9.51878
▁கொடி	-9.51883
▁வந்த	-9.51896
▁வலைப்பின்னல்	-9.51929
பார	-9.51951
▁இருந்தது	-9.51995
▁விவாத	-9.52039
விடு	-9.5204
▁கணக்காய்வின	-9.52044
▁தரப்பினர்	-9.52062
ப்படுத்தும்	-9.52247
▁உயர்வு	-9.52249
▁சமத்துவ	-9.52253
▁மருந்தக	-9.5227
▁ஆண்ட	-9.5229
▁ஒருங்கிணை	-9.52358
▁மர	-9.52359
▁A	-9.5245
▁பொருளாதாரம்	-9.52472
▁படிநிலை	-9.52491
▁ஏற்படுத்தி	-9.52508
த்திறன்	-9.52557
▁கட்டிடம்	-9.52561
▁தேச	-9.52583
▁என்பதை	-9.52616
▁நடை	-9.52651
▁ஸ்ரீ	-9.52698
ோன்	-9.52738
▁செயற்றிட்டங்கள்	-9.52833
பாட்ட	-9.5284
▁முறைகள்	-9.52894
▁விண்ணப்பப்	-9.52936
▁பய	-9.52997
▁கற்க	-9.53108
▁கேள்விப்	-9.53112
களினதும்	-9.53112
தால்	-9.53118
▁செலவினங்கள்	-9.53137
▁ஆட்	-9.53221
ந்திர	-9.5323
▁அமைந்த	-9.53358
▁ஆதரவு	-9.53416
▁வெகுசனத்	-9.53451
▁அறிமுக	-9.53555
▁ஒன்றாக	-9.53608
▁பவு	-9.53689
▁கற்கைநெறிகள்	-9.53795
காணும்	-9.53816
▁10.	-9.53924
சரி	-9.53942
▁வழக்காற	-9.54157
யீட	-9.54171
▁இரத்த	-9.54244
வாக்கம்	-9.54268
▁சீராக்க	-9.54296
▁அமைய	-9.54318
▁100	-9.54325
யையும்	-9.54355
▁3.1.	-9.54434
▁திட்டத்தை	-9.54492
▁அமைப்ப	-9.54563
மானி	-9.54737
▁தயாரிக்கப்பட்டு	-9.5492
▁எல்	-9.55018
▁இராணுவத்தினரின	-9.55104
▁இள	-9.55111
▁பலகை	-9.55116
ரொ	-9.55128
க்கால	-9.55241
▁காரணத்த	-9.55287
சபை	-9.55354
▁விழாவ	-9.55506
மாக்க	-9.55599
▁படுத்த	-9.55613
▁நவ	-9.55625
▁150	-9.55655
▁ஆன	-9.55686
▁ஆரம்பிக்க	-9.55695
▁உழைப்பு	-9.55714
ருக்கு	-9.5579
▁ஒப்பு	-9.55955
▁அறிவை	-9.56268
▁வெளிப்படுத்த	-9.56299
19	-9.56307
▁பந்தி	-9.56439
லின்	-9.56483
▁வாடகைக்	-9.56891
▁வடிக	-9.56931
வண	-9.57109
▁வகுப்ப	-9.57299
திட்ட	-9.57338
▁அறி	-9.57613
▁உடன்	-9.57659
▁உணர்	-9.57851
ுகிற	-9.5788
▁தகவலின	-9.57959
▁வருடத்திற்கா	-9.58017
▁மதிப்பிடப்பட்ட	-9.58065
▁பால	-9.58167
▁மதிப்பிட	-9.58189
▁எழுது	-9.58258
கையில்	-9.58266
▁வலுவ	-9.58359
▁உத்தியோகத்தர	-9.58464
▁குழுக்	-9.58465
▁3.2	-9.58498
▁நிறுவனங்களுக்கு	-9.58569
▁நிரப்பு	-9.58616
▁வங்கிக்	-9.58687
▁தொடர்பாடல	-9.58786
ளிக்கும்	-9.58898
▁அதிக	-9.58912
▁அறிவுறுத்தல்	-9.59042
▁இலக்கிய	-9.59067
ஒ	-9.59201
▁2.2	-9.59244
▁விழிப்பூட்ட	-9.59265
சட்டங்கள்	-9.59278
சமூக	-9.59298
களினால	-9.59307
▁ஆயுத	-9.59365
▁இணங்காமை	-9.59478
நடை	-9.59566
▁தனியாள்	-9.59639
▁சேவ	-9.59709
▁பழி	-9.59744
▁நல்லா	-9.59805
ியல்பு	-9.59851
த்திட்டங்கள	-9.59889
முன்	-9.59914
▁செல்லுபடி	-9.59945
வன்	-9.60076
ுடை	-9.60088
ல்லா	-9.60116
▁பீஈடீ	-9.60189
▁ஆன்மீக	-9.60189
▁இலங்கைவங்கி	-9.60189
▁உய்த்தறி	-9.60189
▁கேபிள்	-9.60189
▁சபரகமுவ	-9.60189
▁சேமலாப	-9.60189
▁ஜூன்	-9.60189
▁தலைமையதிபதி	-9.60189
▁நேர்காணல்	-9.60189
▁மின்னஞ்சல்	-9.60189
▁வெற்றிகரமாக	-9.60189
▁குழுக்கூட்ட	-9.60189
▁நிமித்த	-9.60189
▁புதிதாக	-9.60189
ச்செயலா	-9.60189
▁உள்ளார்ந்த	-9.60189
▁பங்கெடுப்ப	-9.60189
▁மேம்பாட்டு	-9.60189
▁செவிப்புல	-9.6019
▁வெறிதாக்க	-9.60193
▁புலனாய்வு	-9.60193
▁கையொப்ப	-9.60193
▁தன்னார்வ	-9.60195
▁உரிமைகோர	-9.60196
▁மார்ச்	-9.60196
▁யுக	-9.60198
▁பங்காளி	-9.60198
▁பொழிப்பு	-9.60199
▁மாநாடு	-9.602
▁இறைமையுடைய	-9.60202
▁IV	-9.60204
▁1.2.1	-9.60206
▁பெட்டி	-9.60208
▁உகந்த	-9.60211
▁அசையா	-9.60212
▁சங்கங்கள	-9.60213
▁பாதுகாக்க	-9.60216
▁நுழைவ	-9.60219
▁ஊவா	-9.60223
▁தணிக்கை	-9.60223
▁மொழிக்கொள்கை	-9.60224
▁உளப்பாங்கு	-9.60225
▁காண்பிக்கப்பட்ட	-9.6023
▁விடயங்களை	-9.60232
▁குறைநிரப்பு	-9.60232
ிகதியில	-9.60236
ுமாறு	-9.6024
▁பெறுவழி	-9.6024
▁பதிற்குறி	-9.60243
▁தவிர்த்து	-9.60271
▁பணியக	-9.60272
▁இலவசமாக	-9.60283
▁குறைவான	-9.60286
▁வகைப்பாடு	-9.603
▁விடுதி	-9.60301
▁செய்வதற்கான	-9.60304
▁அதிகாரபூர்வ	-9.60313
▁பொழுதுபோக்கு	-9.60326
▁54	-9.60339
▁இல்லாத	-9.60355
▁கம்பி	-9.60365
▁சட்டவிரோதமான	-9.60373
▁பின்வருமாறு	-9.60383
▁அலுவல்	-9.60388
ளையி	-9.60389
▁மட்டுப்படுத்த	-9.60392
▁நிறுத்தம	-9.60403
▁பத்திரிகையாளர்	-9.60429
▁வலுவூட்டல்	-9.60467
▁அநுராதபுரம்	-9.60479
▁கடற்	-9.605
▁புத்தாண்டு	-9.60509
▁அன்ற	-9.60517
▁ஒத்திசைவு	-9.60535
▁தீய	-9.60572
▁மானியங்கள்	-9.60575
▁தாபன	-9.60595
▁வருமானத்தை	-9.60606
▁சந்த	-9.60631
▁நரம்பு	-9.60642
யொன்று	-9.60687
▁ஆவணங்களை	-9.60716
▁படங்கள்	-9.6077
▁இதழ்	-9.60771
▁மூலமாக	-9.60799
▁நல்ல	-9.60813
▁பெற்றுள்ள	-9.60878
▁குடும்பம்	-9.60887
▁மிகு	-9.60892
▁மாற்றுதல்	-9.60903
வகை	-9.61085
▁இயந்திரம்	-9.61108
▁முன்வை	-9.61118
▁தலைமைத்துவ	-9.61242
▁பூ	-9.61266
▁வைப்புக்கள்	-9.61285
ற்கும்	-9.61417
▁ஈடுபடுத்த	-9.61459
க்கோவை	-9.6149
▁முடியும்	-9.61505
▁உறுதிப்படுத்தல்	-9.61528
▁"""	-9.61565
▁வழங்கப்பட்டன	-9.61607
▁தூதர	-9.61667
▁கதவுகள	-9.6167
சொ	-9.61719
ப்பதற்கு	-9.61774
▁ஐந்த	-9.61844
▁சாரா	-9.61848
▁காசோலைகள்	-9.61899
▁ஆகியவற்றின	-9.61928
▁ஈ	-9.6199
▁புறக்குறிப்ப	-9.62117
ப்பிய	-9.62211
சார	-9.62356
மன்	-9.62395
▁இயைபு	-9.62451
▁தாமதம்	-9.62486
ிருந்தன	-9.6249
ளுக	-9.62669
▁எச்	-9.62697
▁அட	-9.62739
▁தடு	-9.62741
ாக்குதல்	-9.62835
▁அமைச்சுக்கள	-9.62858
▁பயன்பாட்டு	-9.62893
▁நகரத்த	-9.63173
▁மிக	-9.63257
▁நிறுவனங்களுடன	-9.63308
▁மந்த	-9.63357
வைப்பு	-9.63489
ொலை	-9.63554
ற்றல்	-9.63555
▁ஆதனம்	-9.63568
லோ	-9.63627
▁காலை	-9.63722
▁குழும	-9.63752
ாகவும்	-9.63797
படுத்தல்	-9.6385
▁தீர்ப்ப	-9.6388
▁ஓய்வூதியம்	-9.63904
.30	-9.63915
ளவில்	-9.6394
▁உள்	-9.63943
▁சரி	-9.63944
▁இணையத்தள	-9.64005
▁9.	-9.64012
▁அளவிட	-9.64113
▁வாகனம்	-9.64125
வார	-9.6418
▁04.	-9.64473
▁செயலகங்களில	-9.64529
▁நேரடித்	-9.64634
▁இறுதியில	-9.64786
யுரிமை	-9.64824
▁உள்ளவாறு	-9.64924
▁11.	-9.64981
▁வகைப்படுத்த	-9.64988
▁பெயரில	-9.65005
▁பிறப்பு	-9.65096
▁அல	-9.65182
▁தேசத்த	-9.65381
▁பிரிவில	-9.65622
▁பாடம்	-9.65662
யூ	-9.65818
ப்பட்டதுடன்	-9.6596
▁வருடங்கள	-9.65976
க்குறிப்பு	-9.66045
▁முடிந்த	-9.66101
க்கத்தக்க	-9.66142
07	-9.66262
▁மேம்படுத்து	-9.66302
றுத்தல்	-9.66395
▁ஆக்கிய	-9.66448
ட்டல்	-9.66798
திறன்	-9.66852
ளிக்க	-9.66857
யார்	-9.66899
▁தரப்பினருட	-9.66949
▁கருத	-9.67058
▁மேற்கொள்	-9.67348
விழா	-9.67477
▁காணியை	-9.6756
50	-9.67561
பெறா	-9.67665
தொகை	-9.67695
தில்	-9.67796
▁மதிப்பீடுகள்	-9.6781
பெயர்	-9.67874
ப்பணம்	-9.68017
▁ஏல	-9.68122
பட்டியல்	-9.68141
ுணர்வு	-9.68207
ணர்	-9.68235
▁தெரி	-9.6829
▁கோல	-9.68353
களாகும்	-9.68354
▁வீர	-9.68677
1.	-9.68756
ுவத	-9.68859
▁7	-9.69057
ூட்டும்	-9.69091
▁துரித	-9.691
ுவதன	-9.69185
வாய்ந்த	-9.69194
▁கடித	-9.69203
சீ	-9.69242
S	-9.69245
ஐ	-9.69282
ப்படுத்தி	-9.69287
கலாசார	-9.69292
▁ஒதுக்கீட்ட	-9.694
▁அறவிடப்பட	-9.69437
த்தனமான	-9.69451
ப்பே	-9.69469
▁தயாரிப்புக்கள	-9.69476
இதன்	-9.69511
▁வழக்குகள்	-9.69679
ுக்குரிய	-9.69811
▁பொறி	-9.69966
ராஜ	-9.69983
▁பொய்	-9.70051
▁வாகனப்	-9.70073
▁சுற்றுலா	-9.70175
▁இறைமை	-9.70176
▁தெளிவு	-9.70178
▁கிளர்ச்சி	-9.7018
▁இரைச்சல்	-9.70189
▁உள்ளூராட்சி	-9.70189
▁காலங்கடந்த	-9.70189
▁குறுங்கால	-9.70189
▁தற்போதைய	-9.70189
▁பரிசோதகர்	-9.70189
▁பௌதீக	-9.70189
▁முனைப்பழியுள்ள	-9.70189
▁உபசரிப்பு	-9.70189
▁சீர்குலைவு	-9.70189
▁துலங்கல	-9.70189
▁வரைவிலக்கண	-9.70189
▁வியாக்கியான	-9.70189
▁விவசாய	-9.70189
▁வெளிவாரி	-9.70189
▁சாதனை	-9.70189
▁ஆரோக்கிய	-9.7019
▁தங்குமிட	-9.7019
▁வளர்ப்பு	-9.7019
▁நுகர்வோர்	-9.7019
▁மதுபான	-9.7019
▁ஏக்கர்	-9.70191
▁டிசெம்பர்	-9.70191
▁விரும்ப	-9.70192
விறக்க	-9.70192
▁வைத்திருத்தல்	-9.70192
▁திசை	-9.70194
▁விவாக	-9.70194
▁சர்ச்சைக்குரிய	-9.70195
▁சலன	-9.70195
▁உறுதிப்படுத்து	-9.70197
▁செம்மை	-9.70198
▁அதிகரிப்பு	-9.70199
▁குற்றவாளி	-9.70202
▁ஆளணி	-9.70202
▁முந்திய	-9.70204
▁தூண்டு	-9.70204
▁காவல்	-9.7021
▁பின்தொடர்	-9.70211
▁மேற்படி	-9.70214
▁அத்தாட்சி	-9.70215
▁கேட்டல்	-9.70218
▁தேறிய	-9.70218
▁சாத்திய	-9.70222
▁உறுப்புரை	-9.70224
▁நிபுணர்	-9.70228
▁அசாதாரண	-9.70233
▁உறவினர்களுக்கு	-9.70235
▁ஒப்பீடு	-9.7024
▁ஆற்றுகை	-9.70243
▁காணாமற்போன	-9.70245
▁வழங்குதலும்	-9.70245
▁பயிற்சியளிக்க	-9.70253
▁உள்ளிட்ட	-9.70255
▁அண்மை	-9.70261
▁மரபுவழி	-9.70262
▁தந்தை	-9.70265
▁உபாயம	-9.70272
▁வருகை	-9.70292
▁சிறை	-9.70302
▁பார்க்கவும்	-9.70305
▁ஏடு	-9.70307
▁அடங்கிய	-9.70316
▁வெளிப்பாடு	-9.7032
▁டப்	-9.70323
▁முன்வைத்தல்	-9.70324
▁பங்களிப்புடன்	-9.70344
▁விம்பம்	-9.70344
▁ஒழுக்கவியல்	-9.70373
▁மருத்துவச்	-9.70379
▁குற்றவியல்	-9.70418
▁மொனராகலை	-9.70432
▁சுவ	-9.70438
▁3.3	-9.70444
▁அனுமான	-9.70471
▁வடக்கு	-9.70473
▁இதுவரை	-9.70479
▁மஹ	-9.70496
▁ஒப்படைத்தல்	-9.7051
▁செயலாற்றல்	-9.70529
▁மென்	-9.7056
ேன்	-9.70561
▁வழிமுறை	-9.70564
▁வாழும்	-9.70605
▁துர்	-9.70641
▁அந்தந்த	-9.70693
▁தயாரிப்ப	-9.70741
க்கதை	-9.7075
த்திரு	-9.70864
▁நடவடிக்கைமுறை	-9.70866
▁நிகர	-9.70883
▁மாற்றங்கள்	-9.70914
ப்பட்டியல்	-9.70943
▁பேணல்	-9.70958
▁நான்	-9.7104
திட்டங்களை	-9.71058
▁படையினர	-9.71064
▁மிகச்	-9.71078
▁என்பவற்றுடன	-9.71095
▁பேருக்கு	-9.71111
▁ஆணைக்குழுவின	-9.71142
▁பெறுபேறு	-9.71149
▁ஆக்கபூர்வ	-9.71177
▁விதிப்பு	-9.71194
படுத்தப்பட்ட	-9.71249
▁வேலைத்திட்டம்	-9.7126
▁4.1	-9.71279
காணி	-9.7131
▁எதிர	-9.71343
▁மூலமான	-9.71488
▁சமூகவியல்	-9.71526
▁விளையாட்டுப்	-9.71537
▁கரை	-9.71575
மயமாக்க	-9.71596
▁வீச்சு	-9.71624
▁பாடல்	-9.71659
விர	-9.71701
▁படிப்பு	-9.71739
▁199	-9.71803
▁ஆரம்பித்த	-9.71855
▁பகை	-9.71857
▁வட்டு	-9.71867
▁ஏற்பட்ட	-9.71898
▁ஒன்றிணைந்த	-9.71907
சார்பு	-9.71947
▁"2014	-9.71959
ணர்வு	-9.71976
▁வாழ்	-9.72001
▁நெறிப்படுத்த	-9.72014
▁அகல்	-9.72021
▁திட்டமொன்று	-9.72284
▁கிற	-9.72332
▁அடக்க	-9.72379
தனம்	-9.72414
க்கூறு	-9.72454
▁அளவில	-9.72532
▁உட்படுத்த	-9.72594
முறையான	-9.72729
▁வாடிக்கையாளர்	-9.72749
▁இயல்ப	-9.72758
▁ஒளிபரப்பப்பட்ட	-9.72792
▁நிகழ்வுகள்	-9.72829
▁ஒன்ற	-9.72856
▁ஆவ	-9.72971
▁அச்சிடப்பட்ட	-9.73088
▁தண்டனைத்	-9.7318
களுக்குரிய	-9.73213
▁செலவுத்திட்டத்	-9.73244
11	-9.73303
ப்பண	-9.7337
30	-9.73373
▁உருவாக்கம்	-9.73401
▁நட்டம்	-9.73547
க்குள்	-9.73644
▁நிலையில்	-9.73721
பத்திரிகைத்தொழில	-9.73782
▁வைத்த	-9.73807
▁தவணைக்	-9.73935
▁சட்டவாக்கம்	-9.74117
▁விவகாரம்	-9.74126
களிடமிருந்து	-9.74172
▁அப	-9.74213
வினை	-9.74266
▁கடல	-9.74289
▁தெரிவி	-9.74306
▁இராணுவத்தினர்	-9.74312
▁பதிவ	-9.74331
▁வைபவம்	-9.74381
ரத	-9.74389
2003	-9.74478
▁உள்ளடக்கம்	-9.74479
சாலை	-9.74524
▁நிகழ்ச்சிகளும்	-9.74563
▁3.2.	-9.74697
▁வகைகள்	-9.74699
25	-9.74977
▁வெளியிடப்பட்ட	-9.74994
▁செய்திப்	-9.75144
க்கல	-9.75416
▁பார்வையிட	-9.75601
▁பாராட்டு	-9.75633
▁பேர்	-9.75642
▁அறிமுகப்படுத்த	-9.75722
யினுள்	-9.75791
காண்	-9.75878
▁பிரதிகள்	-9.7591
▁ஏக	-9.76013
யாக்கம்	-9.76098
▁பெருமை	-9.76289
▁சுகாதாரம்	-9.76334
▁குடும்பங்கள	-9.76356
▁வருமானக்	-9.76376
▁தாக்கத்த	-9.76427
ப்பயிற்சி	-9.76517
ழிப்பு	-9.76615
▁பக்கம்	-9.76857
யுடை	-9.76956
▁கருத்திட்டங்கள	-9.76986
▁பால்	-9.76991
யன்	-9.77063
னியல்	-9.77138
▁கலைஞர்களுக்க	-9.77207
▁மணம்	-9.77342
▁உயிர	-9.77377
▁நுக	-9.77398
வின்	-9.77475
▁நீக்கு	-9.7753
பாட்டு	-9.77563
▁ஊழியர்களுக்க	-9.77743
▁பக	-9.77772
▁திருப்தி	-9.78036
▁ஏற்பாடுகளை	-9.78193
▁பிரித்	-9.7825
▁ஆதரவ	-9.78279
▁மக்களின	-9.78288
▁செய்யப்பட்டு	-9.78519
றுப்பு	-9.78575
▁செய்யப்பட்டன	-9.78904
▁பொரு	-9.7891
ாதார	-9.79083
▁மேற்	-9.7916
டிப்ப	-9.79196
மூ	-9.79206
ங்களுக்காக	-9.79229
▁பங்க	-9.79361
▁மின்சார	-9.79363
▁நிலவு	-9.79378
▁முக்கியத்துவ	-9.79411
▁இனங்காண	-9.79414
வில	-9.7956
▁கடன்பட்டோர	-9.79619
▁கப்பல	-9.79699
▁கணக்கீட்டுக்	-9.79706
மயப்படுத்தல்	-9.79792
▁நடைமுறைப்	-9.79866
ப்படுத்தப்படாத	-9.79928
▁கைப்பற்ற	-9.7996
ித்து	-9.80034
▁3.4	-9.80127
▁திட்டத்	-9.80202
பகுதி	-9.80284
பொருட்	-9.80369
பாடசாலை	-9.80375
ரணவிரு	-9.80404
தயாரிப்பு	-9.80416
▁விரிவுரை	-9.80457
தலைவர்	-9.80484
▁பயனுடை	-9.80491
▁காணிப்	-9.80615
▁எழுத்தாண	-9.80641
▁கொள்க	-9.8068
▁நோய்	-9.80686
▁உட்பட்ட	-9.80716
▁கிடைக்கப்பெற	-9.80741
▁எடுத்த	-9.80794
ஸ்தவ	-9.809
செய்தி	-9.80939
கணி	-9.80964
ாகப்	-9.80995
▁கருத்தியல்	-9.81106
▁எம்ம	-9.81129
▁பங்குபற்றி	-9.81171
பொது	-9.81232
r	-9.81261
▁நடுநிலை	-9.81286
▁முற்	-9.81288
▁தர்ம	-9.81293
▁சங்சத	-9.813
▁நாடளாவிய	-9.813
▁உட்கிடை	-9.813
▁ஒருதலைப்பட்ச	-9.813
▁கல்னேவ	-9.813
▁குறைந்தபட்ச	-9.813
▁கெளரவ	-9.813
▁சம்பிரதாய	-9.813
▁ஜூலை	-9.813
▁டிப்ளோமா	-9.813
▁நிகழ்தகவு	-9.813
▁மீடிறன்	-9.813
▁முச்சக்கர	-9.813
▁உத்தரவு	-9.813
▁விசுவாச	-9.813
▁காணித்துண்டு	-9.813
▁நுகர்வு	-9.813
▁விண்ணப்பதாரி	-9.813
▁விளங்க	-9.81301
▁அந்தரங்க	-9.81301
▁விலகல்	-9.81301
▁எதிர்மறை	-9.81301
▁எளிய	-9.81301
▁துரோக	-9.81301
▁பேசுதல்	-9.81301
▁பண்ணிசை	-9.81301
▁சிக்கன	-9.81302
▁பின்பற்ற	-9.81302
▁சந்தேக	-9.81302
▁புனரமைப்பு	-9.81302
▁பாவிக்க	-9.81303
யிலேயே	-9.81304
▁தலா	-9.81304
▁தகாத	-9.81304
▁சவால்	-9.81304
▁படிவங்கள்	-9.81305
▁லங்கா	-9.81306
▁இழப்பீடு	-9.81306
▁முன்னெடுத்த	-9.81307
▁ஆயுட்கால	-9.8131
▁சீருடை	-9.81311
▁கணணி	-9.81313
▁வெறுப்பு	-9.81315
▁திறத்தவர	-9.81316
▁குறிப்பிடத்தக்க	-9.81318
▁அகராதி	-9.81322
▁பயிற்சிப்பட்டறை	-9.8133
▁2008	-9.81331
▁நிருப	-9.81339
ச்சொல்	-9.81343
▁பணியாள்	-9.81346
▁பதக்கம்	-9.81349
▁கட்டுநிதி	-9.81359
▁நடந்த	-9.81364
▁சேவகம்	-9.81364
▁மாவத்தை	-9.81365
▁சூழ்நிலை	-9.81368
▁மெய்ம்மை	-9.81368
ாணி	-9.81384
▁பல்திற	-9.8139
▁மீளளிப்பு	-9.81391
▁கேள்	-9.81406
▁பொருத்தமற்ற	-9.81406
▁எதிர்வாதி	-9.81409
▁ஆற்றலை	-9.8141
▁பால்நிலை	-9.81414
▁கூட்டுறவு	-9.81416
▁கட்சி	-9.81419
ப்படுத்திய	-9.81425
▁ரீதியாக	-9.81427
▁தீர்த்தல்	-9.81434
▁பார்வையாளர்	-9.81437
▁இவ்வாண்ட	-9.81473
▁விமானப்	-9.81478
▁மூடிய	-9.8149
▁இடமாற்றங்கள்	-9.81534
▁முறைசாரா	-9.81536
▁இராணுவவீரர்	-9.81557
▁வாசகர்	-9.81558
▁பெற்றனர்	-9.81564
▁நோக்குடன்	-9.81581
▁இரவ	-9.81589
▁அன்பளிப்புகள்	-9.81617
▁குடியிருப்பாளர்	-9.81618
▁திரள்	-9.81631
▁பணியானது	-9.81645
▁இடம்பெறும்	-9.81656
▁கள்ள	-9.81661
▁60	-9.81665
▁செயல்திறன்	-9.8167
ோசன	-9.81681
▁அனுப்புதல்	-9.81692
வாய்ப்ப	-9.81708
▁முறிவு	-9.81711
▁மகா	-9.81736
▁எந்த	-9.81802
▁மென்பொருள்	-9.8183
▁அணி	-9.81847
▁இதற்காக	-9.81864
▁மறுப்பு	-9.81892
▁26	-9.8191
▁ஜி	-9.81915
▁சொற்கள்	-9.81919
▁மாயை	-9.8195
▁கலைஞர்கள்	-9.81957
▁பிரசுரிக்க	-9.82014
த்துக்குரிய	-9.8202
விலை	-9.82047
▁கையெழுத்து	-9.82101
▁பரிகாரம்	-9.82134
▁புத்தகங்கள்	-9.8215
ராம	-9.82218
▁வசதிய	-9.8228
▁நிறைவ	-9.82304
பூக்க	-9.82331
▁செலவீனம்	-9.82372
▁பல்வகை	-9.824
பதிப்பித்தல்	-9.82407
▁அவர்களது	-9.82414
▁விதத்தி	-9.82435
▁கவனத்திற்	-9.82493
▁உயர்ந்த	-9.825
சூழ	-9.82609
▁நாட்கள	-9.82634
▁தீர்மானங்கள்	-9.82639
▁ஆயுதப்	-9.82642
▁கிடைக்கும்	-9.82653
க்காட்சி	-9.82683
▁தகவு	-9.82691
▁மருத்துவர்கள்	-9.82695
நோக்கிய	-9.82777
ப்பெயர்	-9.82794
▁தீர்மானங்களுடன	-9.82811
றா	-9.82825
▁கூர	-9.82864
▁உணர்வ	-9.82907
▁நூல்கள்	-9.82979
▁ஏற்றல்	-9.83024
▁திட்டத்தினை	-9.83138
தனூடாக	-9.83204
▁எம்மை	-9.8349
▁நிறைவேற்றல்	-9.8352
▁அடங்க	-9.83537
▁நடன	-9.83567
▁பரிந்துரைகளை	-9.83625
▁நாடுகள்	-9.8365
▁ஆகக்	-9.83854
▁இசைவாக்க	-9.83859
தவி	-9.8391
▁திரி	-9.84043
▁மிக்க	-9.84053
▁பெற்றோர	-9.84084
▁சுமை	-9.84286
▁வரையறுக்க	-9.84287
ில்லா	-9.84289
▁கடை	-9.84334
▁செய்யப்பட்டது	-9.84393
குறிப்பீடு	-9.84624
ப்பாட்டு	-9.84632
க்கடன்	-9.84647
▁கலையக	-9.84696
▁கணக்காய்விற்க	-9.84708
▁நூலகம்	-9.84824
▁அரசாங்கம்	-9.84872
▁பெற்று	-9.84925
▁கருதப்பட	-9.8505
தொனி	-9.85083
▁வகுப்புகள்	-9.85091
▁கண்ட	-9.85171
▁தனித்த	-9.85191
▁பங்குகள்	-9.85204
▁தொடர்பாடலில	-9.85267
▁கட்டிட	-9.853
▁விண்ணப்பம்	-9.85359
▁தலைவர்கள்	-9.85387
▁வியாபாரக்	-9.8553
ஜா	-9.85554
▁அமுற்படுத்து	-9.85631
▁நாட்டின	-9.85645
▁திட்டங்களின	-9.8571
▁தவிர்க்க	-9.85774
▁10,	-9.85806
▁எதிர்பாராத	-9.85901
வுரு	-9.86043
▁தங்கி	-9.86055
பதிவுசெய்யப்பட்ட	-9.861
▁நோக்கங்கள	-9.86134
▁பந்தியி	-9.862
▁ஆலயங்கள்	-9.86228
ொழு	-9.86328
▁தொடு	-9.86365
▁05.	-9.86378
த்திற	-9.86703
▁தரவுத்	-9.86726
▁மெத	-9.86946
▁மும்மொழிகளில	-9.8695
▁பாரம்பரியம்	-9.87026
▁வழங்குவது	-9.87043
தென	-9.87082
▁ஹெ	-9.87122
▁தான	-9.87131
நல	-9.8715
▁நிராகரி	-9.87193
▁சேவைக்கால	-9.87262
▁கோள	-9.8729
▁கலைகள்	-9.87353
▁உறுப்பினர்கள்	-9.87437
▁மாணவர்களின	-9.87562
▁ஒலிபரப்புக்	-9.87691
▁மணி	-9.87791
யில	-9.87837
▁அலுவலர்கள்	-9.87853
▁மாதிரியு	-9.88071
▁நிலையங்களை	-9.88429
▁காண	-9.88752
▁கலந்துரையாட	-9.88803
த்தொழில	-9.88986
▁செயற்றிட்டங்கள	-9.88987
▁மொழிகளில	-9.89
▁படிமுறை	-9.89005
ூர	-9.89016
▁சந்தர்ப்பங்கள	-9.89049
▁மேற்கு	-9.89136
▁கொடுப்ப	-9.89183
ின்படி	-9.89192
முறைசார்ந்த	-9.89242
வர்களுக்கு	-9.89475
▁வாழ்வ	-9.89601
ப்பரப்பு	-9.89882
▁கடன்கள்	-9.89982
▁திட்டத்த	-9.90052
யினர்	-9.90371
காரர்	-9.90524
▁பதிவுகள்	-9.90583
▁தெ	-9.90641
▁பெரும்	-9.90702
▁மதிப்பிடு	-9.9075
▁கடிதங்கள	-9.90752
▁நூல	-9.90777
▁பெரும	-9.91009
ொழி	-9.91184
▁உரிம	-9.9121
▁பெர	-9.91331
▁அர	-9.91335
▁ஆதிக்கம	-9.91456
▁உடன	-9.91482
ாமி	-9.91705
▁சுற்றுநிருப	-9.91794
▁தேய்மான	-9.91814
▁அச்சிட	-9.91826
▁நியமங்களுக்க	-9.91857
▁அர்ப்பணிப்பு	-9.91858
27	-9.91903
▁கணக்காய்வுக்	-9.91943
பணி	-9.91974
▁கவன	-9.9198
▁செய்வத	-9.91989
ஞ	-9.91996
▁அரசாங்கத்	-9.92037
▁காச	-9.92049
▁பிரசுர	-9.92103
▁கலந்த	-9.92116
▁அருகி	-9.92154
▁மற்றும	-9.92159
▁கட்டுப்பாட	-9.92222
▁உத்தேச	-9.92305
▁யூ	-9.92315
▁ஊக	-9.92448
21	-9.92472
▁பகிர்	-9.925
துறை	-9.92631
▁அச்சிடப்பட்டு	-9.92862
இந்துசமய	-9.92889
ஊ	-9.92892
நபர்	-9.92895
அமைச்ச	-9.929
வழங்கல்	-9.92902
சிறந்த	-9.92903
நடத்தை	-9.92905
திட்டமிடல்	-9.92907
தகைமை	-9.92943
▁கலைக்	-9.92963
முடியாத	-9.92997
▁கண்காணிப்ப	-9.93022
▁மத்தியில	-9.93042
▁ஒருங்கிணைப்ப	-9.93152
▁தேவைப்பாடு	-9.93154
▁நடைபெற	-9.9316
்டுக்	-9.93171
▁ஊடகத்	-9.93192
▁விருப்பத்	-9.93265
றிக்கை	-9.93304
▁பிரதிப	-9.93308
▁பிணக்க	-9.9338
▁நடாத்தி	-9.93392
ுரைத்தல்	-9.93454
வகையில்	-9.93486
▁நியமன	-9.93593
்று	-9.93631
▁துல்லிய	-9.93652
ாலி	-9.93665
▁மாணவ	-9.93667
▁செவ்வ	-9.93692
ெம்பர்	-9.93784
▁இலச்சினை	-9.938
▁நொத்தாரிசு	-9.938
▁அந்நிய	-9.938
▁அலங்கார	-9.938
▁உன்னத	-9.938
▁கடதாசி	-9.938
▁கணிப்பீடு	-9.938
▁கம்பெனி	-9.938
▁கலைக்களஞ்சிய	-9.938
▁காணமற்போன	-9.938
▁தலையீடு	-9.938
▁நீத்த	-9.938
▁மகளிர்	-9.938
▁விஜே	-9.938
▁கருதுகோள்	-9.938
▁பண்டிகை	-9.938
▁முன்பள்ளி	-9.938
▁உழைக்க	-9.938
▁கிடைநிலை	-9.938
▁சிதைவு	-9.938
▁சீர்திருத்த	-9.938
▁செய்வதற்காக	-9.938
▁பயிலுனர்	-9.938
▁பரம்பல்	-9.938
▁பாடவிதான	-9.938
▁பிரச்சார	-9.938
▁முப்பரிமாண	-9.938
▁ஆக்கப்பூர்வ	-9.93801
▁குறுகிய	-9.93801
▁தொழில்வாண்மை	-9.93801
▁சனவரி	-9.93801
▁புனித	-9.93801
▁வழக்கறிஞர	-9.93801
▁அளவுகோல்	-9.93801
▁தேர்ந்தெடுக்க	-9.93801
▁ஆளிடை	-9.93801
▁தகடு	-9.93801
▁செப்டெம்பர்	-9.93802
▁அபாயகரமான	-9.93802
▁சிறிய	-9.93803
▁அமுல்படுத்த	-9.93803
▁சக்கர	-9.93803
▁அமைவிட	-9.93804
▁நம்பகத்தன்மை	-9.93804
▁எரிபொருள்	-9.93806
▁மூளை	-9.93807
▁1971	-9.93808
▁வெளிக்கள	-9.93809
▁ஆக்கியோன்	-9.93811
▁நீண்டகால	-9.93811
▁செயலகப்	-9.93812
▁சர்வ	-9.93813
▁வினாக்கொத்து	-9.93816
▁சைவ	-9.93819
▁தேடல்	-9.93823
▁குளிரூட்டி	-9.93826
▁அமுற்படுத்த	-9.93826
▁தகுதிவாய்ந்த	-9.93827
▁மண்டபத்தில	-9.93829
▁சுமார	-9.93833
▁உருவமைப்பு	-9.93835
▁ஒப்பீட்டு	-9.9384
▁ஆசிய	-9.93843
▁கையேடு	-9.93845
▁தீங்கு	-9.93847
▁ஆணைச்சீட்டு	-9.93851
▁வழிகாட்டுதல்	-9.93859
▁புறவரை	-9.9386
▁நான்கு	-9.93862
▁தெளிவான	-9.93872
▁நேத்ரா	-9.93872
▁வருமானவரி	-9.93873
▁அமைநிலையா	-9.93875
ிசைவு	-9.9389
▁மதிப்புரை	-9.93898
▁சாதகமான	-9.93907
▁செயற்கை	-9.93916
ச்செயல்	-9.93919
▁அளவையாளர்	-9.93922
▁நியாயமற்ற	-9.9393
ொளி	-9.9394
▁ஊழ	-9.93947
▁கிரக	-9.93968
▁அதிகரித்தல்	-9.93969
▁தவறிய	-9.9397
டெங்கு	-9.93976
▁பொதி	-9.93987
▁கவர்ச்சி	-9.93995
▁பாதீடு	-9.94003
▁41	-9.94006
▁உருவாக்குதல்	-9.94013
▁நிபந்தனையற்ற	-9.94014
▁அமைத்தல்	-9.94015
▁விசை	-9.94021
▁அறவிடுதல்	-9.94022
▁விடுவிப்பு	-9.94022
▁எழுத்துரு	-9.94028
ொன்றாக	-9.94033
▁ஒப்புரவான	-9.94039
▁செய்யக்கூடிய	-9.94041
▁அளித்தல்	-9.94051
▁உதவுதல்	-9.94058
▁75	-9.9406
▁வரம்பு	-9.94076
▁இடைக்கால	-9.94083
க்கணக்கு	-9.94083
▁09-	-9.94094
▁கொள்வதற்கு	-9.94102
▁மாதத்திற்கு	-9.94104
▁பெரிய	-9.94114
▁பதிவுசெய்தல்	-9.94123
▁இலக்காகக்	-9.94129
▁பயன்படுத்தப்பட	-9.9413
ூட்டு	-9.94145
த்தற்	-9.94158
▁பயன்பெறு	-9.94162
▁தூண்டல்	-9.94164
ப்பதற்காக	-9.9419
▁பொருளியல்	-9.94219
▁தீர்த்து	-9.94225
”,	-9.94234
▁இழ	-9.9425
▁புவி	-9.94252
▁திருட்டு	-9.94255
▁பதிப்ப	-9.94267
▁புனர்	-9.9433
▁வட	-9.94355
▁பெருக்கி	-9.94355
▁பெயர்ப்பட்டியல்	-9.94363
▁பெறுபவர்	-9.94397
▁விதிமுறை	-9.94419
▁கணி	-9.94454
▁நிறைவேற்றிய	-9.94462
▁நாடகங்கள்	-9.94479
▁வகிபாகம்	-9.94482
▁முக்கியமான	-9.94483
▁மனநிலை	-9.94493
மாக்கல்	-9.945
▁நாடுகடத்த	-9.94523
துணை	-9.94578
▁ஈடுபட	-9.94616
▁தயாரிப்பதற்காக	-9.94641
▁வேண்டியவை	-9.94652
க்குறை	-9.94682
▁முடிவுற்ற	-9.94687
வுள்ள	-9.94694
▁வெளியேற்ற	-9.94715
ூதியம்	-9.94757
▁வருவத	-9.94762
▁பிரதானமாக	-9.9477
▁கைப்பற்று	-9.94794
▁விழிப்புணர்வு	-9.94805
▁சார	-9.94807
2016	-9.9481
ப்படை	-9.94814
▁களவு	-9.94838
▁தாள்	-9.94851
▁சட்டவழி	-9.94861
▁குத்தகைக்கு	-9.94881
▁கணித	-9.94912
▁மிகையான	-9.94917
▁வெளிப்படுத்தல்	-9.94951
▁பாதை	-9.94959
▁அமுலாக்கம்	-9.94961
▁திட்டமானது	-9.9497
▁நிறுவனத்த	-9.95001
▁செலுத்திய	-9.95008
▁திருமணம்	-9.95045
▁கிரயம்	-9.95046
▁ஊன	-9.95149
▁குறுக்கு	-9.95163
கண்ட	-9.9517
க்கப்படும்	-9.95211
▁சட்டகம்	-9.95268
▁பாரபட்சம்	-9.95365
▁198	-9.95374
▁மேற்கொள்வதற்க	-9.95413
▁புல	-9.95415
யிட்ட	-9.95417
கல்வி	-9.95426
▁வாய்ப்புகள்	-9.95595
நிர்மாணம்	-9.95616
50%	-9.95764
சர	-9.9582
▁சுற்றுநிருபம்	-9.95848
▁தகவல	-9.9594
▁இப்	-9.96
சிரி	-9.96059
▁தரப்பு	-9.96059
▁காணப்படுகின்ற	-9.96163
▁பூச்ச	-9.96164
▁அம்ம	-9.9617
▁கவனிப்பு	-9.96177
▁அளிக்க	-9.96242
▁அம்ப	-9.96298
▁கருவிகள்	-9.96338
சேர்	-9.96513
▁உறுப்பு	-9.96535
▁இலக்கியம்	-9.96679
▁கற்பிப்ப	-9.96694
ாமல்	-9.96699
கொள்வதற்காக	-9.96743
வட்ட	-9.96904
ூர்	-9.96983
▁சந்தர்ப்பம்	-9.97005
▁பிரயோகம்	-9.9706
▁சட்டத்தை	-9.97071
▁சில்லறைக்	-9.97104
▁பிரதேசங்கள்	-9.97163
ொன்ற	-9.97324
▁ஆலயம்	-9.9737
ரண	-9.97408
▁தாக்கம்	-9.97432
▁திறமைய	-9.97446
▁பிரச்சினைகள்	-9.97833
02	-9.97917
▁திட்டமிட	-9.98011
▁விழ	-9.9824
▁செய்கின்ற	-9.98259
▁அடிப்படைக்	-9.98358
▁பொருட்கள	-9.98445
சல	-9.98542
ாக்கப்பட்ட	-9.98778
▁பொதுமக்கள	-9.98801
▁பதிவுக்	-9.98823
▁தெரிவிப்ப	-9.98917
▁மீட்ட	-9.98976
▁மீட்	-9.99024
▁திட்டமிடப்பட்ட	-9.9909
▁பணியாற்ற	-9.99241
▁01,	-9.99254
▁ஊழியர்கள்	-9.99395
அத்துடன்	-9.99406
ரிவி	-9.99415
புணர்ச்சி	-9.99526
தீர்ப்பு	-9.99592
▁மீளச்	-9.9963
ற்குரிய	-9.99681
வேற	-9.99953
ந்தை	-9.99963
▁வினைத்திறன	-9.99972
▁விலக்க	-10.001
▁தயாரிப்பாளர்	-10.005
தவ	-10.005
▁200	-10.0069
▁நாணயம்	-10.0095
▁விய	-10.0097
▁பொறுப்பாக	-10.0106
▁நீர	-10.0109
▁முடியா	-10.0113
றல்	-10.0117
▁திறன்கள்	-10.0121
▁வரையில	-10.0121
▁தொகுதிக்	-10.0125
▁மாறு	-10.0131
▁வேலைத்திட்டங்கள	-10.0149
▁07.	-10.0159
படுத்து	-10.0164
▁பரப்ப	-10.0165
ஜன	-10.0216
▁தனிய	-10.0225
▁இங்க	-10.027
▁மொழிகளை	-10.0273
▁ஏற்றம்	-10.0273
▁துணைக்	-10.0278
▁வாச	-10.029
▁ஓட	-10.0295
▁1000	-10.0302
அவ்வாறே	-10.0305
▁பெ	-10.0312
▁ஆண்டுகளுக்கு	-10.0317
▁சொற்	-10.0334
▁பேத	-10.0336
▁அசைவு	-10.0337
த்தாக்கம்	-10.034
கொழும்பு	-10.0368
▁அனு	-10.0369
ளிக்கப்பட்ட	-10.0373
▁கையாள	-10.0394
▁கைவிட	-10.0402
▁வீடமைப்புக்	-10.0405
▁சாட்சிய	-10.0412
▁பிணி	-10.0421
டமை	-10.0422
த்திற்குரிய	-10.043
வகையான	-10.0432
▁முகவராண்மை	-10.0451
▁வேளை	-10.0452
ுவது	-10.0461
▁நிலையத்தின	-10.0486
▁உறுதிச்	-10.0491
ுதியோர்	-10.0505
காய	-10.0509
மூல	-10.051
▁அனைத்த	-10.0535
ய்வு	-10.0541
▁தட்ட	-10.055
▁ஆண்	-10.0568
▁பண்ட	-10.057
தாக்க	-10.0593
▁வேண்ட	-10.0601
▁விகித	-10.0617
▁நிகழ	-10.0638
▁வீட்ட	-10.0643
▁வரிகள்	-10.0643
முகமாக	-10.0644
▁திட்டங்களுக்க	-10.0645
▁ஒற்றுமை	-10.0648
ாள்	-10.066
▁வலுவூட்ட	-10.0664
▁நிறுத்தி	-10.0677
நீக்கம்	-10.0691
வாக்கு	-10.0701
நேர	-10.0708
▁பெறுவோர	-10.0709
ஜீ	-10.0716
விளக்க	-10.0717
தொடர்	-10.0718
கூலி	-10.0718
விளைவு	-10.0718
பிள்ளை	-10.0719
திறைசேரி	-10.0719
II	-10.0719
ஊடக	-10.0719
வலய	-10.0721
▁பாடநெறி	-10.0723
வலு	-10.0725
▁அடைந்த	-10.0726
இதற்கு	-10.0727
▁இணக்கமின்மை	-10.0729
கருத்து	-10.0733
▁மீளப்பெறு	-10.0738
திட்டமானது	-10.0742
முனை	-10.0746
பொற	-10.0756
▁செயலாற்ற	-10.076
▁சமர்ப்பித்த	-10.0765
▁மொனராகல	-10.0773
▁கொடுத்த	-10.0774
▁சகோதர	-10.0781
▁முறைப்பாடு	-10.0782
ொலி	-10.0791
கருவி	-10.0792
காரம்	-10.0794
▁விளம்ப	-10.0795
வரவு	-10.0795
▁எடுத்துரை	-10.0796
க்காட்டு	-10.0796
ாண்டு	-10.0797
புள்ளி	-10.0797
ப்பாங்கு	-10.0798
▁அடகு	-10.0805
க்கொத்து	-10.0806
ாசிரியர்	-10.0806
த்தோற்றம	-10.0807
▁வேண்டுமென	-10.0808
▁ஒற்றை	-10.0808
.08.2014	-10.0809
▁இடையூறு	-10.0809
▁உயிர்நீத்த	-10.0809
▁ஊடாடு	-10.0809
▁க்ரோஸ்	-10.0809
▁சேகரிக்க	-10.0809
▁தொலைதொடர்பு	-10.0809
▁நீட்சி	-10.0809
▁பயிர்ச்செய்கை	-10.0809
▁பாசாங்கு	-10.0809
▁பிரித்தானிய	-10.0809
▁மேன்முறையீடு	-10.0809
▁வடமேல்	-10.0809
▁வலைப்பிணைப்பு	-10.0809
▁வாழ்தொழில்	-10.0809
▁அறிவிப்பாளர்	-10.0809
▁அவமதிப்பு	-10.0809
▁இறைவரி	-10.0809
▁குறியிலக்கு	-10.0809
▁நெகிழ	-10.0809
▁பங்கிலாப	-10.0809
▁மரணச்சொத்து	-10.0809
▁விகாரை	-10.0809
▁விகிதாசார	-10.0809
▁சூழமைவு	-10.0809
▁பயனுறுதி	-10.0809
▁இவ்வருடத்தில	-10.0809
▁எவ்வித	-10.0809
▁கூட்டுமொத்த	-10.0809
▁நிறுத்துதல்	-10.0809
▁முன்னெடுப்பு	-10.0809
▁வல்லுநர்	-10.0809
▁சமமின்மை	-10.0809
ப்பண்பு	-10.0809
▁கவிதை	-10.0809
▁தலைமுறை	-10.0809
ச்செலவு	-10.0809
▁கன்னி	-10.0809
▁ஐக்கிய	-10.0809
▁நிலைபேற	-10.0809
இடைவேளை	-10.0809
▁முன்னிலை	-10.0809
▁வழிவரு	-10.0809
▁எறிய	-10.0809
▁பெரும்பான்மை	-10.0809
▁நுண்ணாய்வு	-10.0809
▁கடல்சார்	-10.0809
▁சேர்க்கை	-10.0809
▁மீண்டெ	-10.0809
▁ஜய	-10.0809
▁பண்ணை	-10.0809
▁புரட்சி	-10.0809
▁கேள்புல	-10.0809
▁புறவய	-10.0809
▁பட்ச	-10.0809
▁தாராண்மை	-10.0809
▁தோன்ற	-10.0809
▁பின்தங்கிய	-10.081
▁ஆசான	-10.081
▁நகர்வு	-10.081
▁மேற்கோள்	-10.081
▁குறியீட்டியல்	-10.081
▁இடைத்தொடர்பு	-10.081
டிப்படை	-10.081
▁விதிவிலக்க	-10.081
▁பட்டப்பின்	-10.081
▁பங்காண்மை	-10.081
▁ஆட்சேபனை	-10.081
,000	-10.081
▁மீயுரிமை	-10.081
▁தயாரித்தலும்	-10.081
▁தன்முனைப்ப	-10.081
▁குறிகாட்டி	-10.0811
குத்தறிவுவாய்ந்த	-10.0811
er	-10.0811
▁அளவீட்டு	-10.0811
பிட்டிய	-10.0811
▁ஆக்கத்திறன்	-10.0811
▁விம்பங்கள	-10.0811
▁வலியுறுத்த	-10.0812
▁பிணைமுறி	-10.0812
▁கடனாளி	-10.0812
▁கேட்போர்	-10.0812
▁பிரசார	-10.0812
▁அற்ப	-10.0813
▁பிரிவானது	-10.0813
▁விரிவான	-10.0814
▁உளச்சார்பு	-10.0814
▁காலாண்டு	-10.0814
▁தெரு	-10.0814
▁உடலு	-10.0815
▁அமைவான	-10.0815
▁சாட்டு	-10.0815
▁சுட்டிக்காட்ட	-10.0816
▁புரிதல்	-10.0816
▁குற்றச்சாட்டு	-10.0816
▁கண்டுபிடிப்பு	-10.0816
▁பங்குடைமை	-10.0817
▁யூலை	-10.0817
▁குருணாகல்	-10.0817
▁ஏகாதிபத்திய	-10.0817
▁கணக்கியல்	-10.0818
▁உள்ளடங்கிய	-10.0818
▁நீதித்துறை	-10.0818
▁ஆதார	-10.0819
▁சரியாக	-10.082
▁சந்திர	-10.082
▁குறித்துரை	-10.0821
▁"3.	-10.0822
▁சரிபார்ப்பு	-10.0822
▁கண்ணிய	-10.0822
▁அழைப்பு	-10.0823
▁குருநாகல்	-10.0824
▁எழுத்தாளர்	-10.0825
▁அறிவூட்டல்	-10.0825
▁துஷ்பிரயோகம்	-10.0826
▁சேர்க்கப்பட்ட	-10.0827
▁உதவிப்பணம்	-10.0827
▁அடுக்கு	-10.0827
▁பணிமுற்பண	-10.0828
▁அதிகாரமுள்ள	-10.0828
▁பின்னடைவு	-10.0828
▁அமைக்கப்பட்ட	-10.0829
பணிப்பாளர்	-10.0829
▁விமானப்படை	-10.0831
▁பிழையான	-10.0831
▁அனுசரணையாளர்	-10.0832
▁பெறுவதற்கு	-10.0832
▁முடிந்தமை	-10.0833
▁தெரிவித்து	-10.0834
கொடுக்கல்வாங்கல்	-10.0835
▁படப்பிடிப்பு	-10.0837
▁அடிமை	-10.0838
▁ஒலிப்பதிவு	-10.0843
▁ஆயத்த	-10.0843
▁ஒன்றினை	-10.0844
செல	-10.0846
▁வருடங்களுக்கு	-10.0848
▁சின்னம	-10.0848
▁பெறுகை	-10.0849
▁விரிவாக்க	-10.085
▁பொருத்துதல்	-10.0851
▁பாதீட்டு	-10.0852
▁உருக்கு	-10.0853
▁பரப்புதல்	-10.0854
▁ஆறு	-10.0854
▁நோக்கத்தை	-10.0854
▁அங்கத்தவர்கள	-10.0854
▁66	-10.0855
ொன்றின்	-10.0855
▁பங்குபற்றிய	-10.0856
▁சட்டபூர்வ	-10.0857
▁தேடு	-10.0858
▁சிற்ற	-10.086
▁சுப்ப	-10.0861
▁நிதியங்கள்	-10.0861
▁உறவினர்கள்	-10.0863
▁அவர்களுக்கு	-10.0863
▁சோர	-10.0866
படையின்	-10.0867
ங்கொட	-10.0867
▁அவதானம்	-10.0868
▁மொழியியல்	-10.087
▁ஒழுங்குவிதிகள்	-10.0875
▁கொடுப்பனவை	-10.0876
▁வெளியிடுதல்	-10.0876
▁சாதனங்கள்	-10.0878
▁மாவட்டங்களை	-10.0879
▁வசி	-10.0879
▁சதவீத	-10.0879
▁செய்யப்படாத	-10.088
▁இதே	-10.0881
▁எதிரான	-10.0882
▁செவ்வை	-10.0884
▁பிரமாணம்	-10.0888
▁அடைந்து	-10.0892
தரப்பட்ட	-10.0895
▁இடையில்	-10.0898
▁மனமொ	-10.0898
▁பயணிகள	-10.0899
▁உபகரணங்கள	-10.0909
▁எழுத	-10.091
▁காரணங்	-10.0915
▁மாறுபடு	-10.0915
யுரை	-10.0915
▁உள்நோக்க	-10.0919
▁உடைமைசார்	-10.0919
▁திட்டமாக	-10.0927
▁இதய	-10.0933
▁அடைவதற்க	-10.0938
▁சதி	-10.0939
▁அம்சமாக	-10.0942
ிப்பவர்	-10.0947
▁ஒதுக்கு	-10.0949
அதனடிப்படையில்	-10.0951
▁கொள்ளை	-10.0951
▁கையாட	-10.0958
▁மறி	-10.096
வதுடன்	-10.0966
▁கூற	-10.0969
▁வாய்ந்த	-10.0978
க்கப்படாத	-10.0985
▁காலத்தை	-10.0987
பதிவுசெய்யப்படாத	-10.099
ேற்றம்	-10.1002
கிரிய	-10.1003
▁ஒப்புமை	-10.1005
▁கருத்தரங்குகள்	-10.1007
▁அலுவல	-10.1008
▁பயிற்சியை	-10.1012
யில்லா	-10.1014
▁சொத்துவ	-10.1016
▁முறைமையான	-10.1016
தோறும்	-10.1018
பேச்சு	-10.1021
▁தெரிந்த	-10.1023
▁வைப்புகள்	-10.1024
▁சரிபார்	-10.1026
▁செலுத்தி	-10.1029
▁பகுதியளவில	-10.1041
▁காலத்தில்	-10.1041
▁வாழ	-10.1047
▁பத்து	-10.105
▁இனங்காணப்பட்ட	-10.106
▁நேரத்தில்	-10.1064
▁செயற்படுத்தல்	-10.1065
▁08.	-10.1069
▁வான்	-10.1072
வாச	-10.1076
▁இற்றைப்படுத்த	-10.1077
▁மாவட்டத்தின்	-10.1089
▁கூ	-10.1092
▁வடிவமைப்புகள்	-10.1095
துரு	-10.1125
▁தரப்பினர	-10.1125
▁செயற்திட்ட	-10.1147
▁ஊக்குவிக்க	-10.1154
▁சிர	-10.1154
▁தகுதித்	-10.1157
ைஞர்	-10.1161
▁இடமாற்றம்	-10.117
▁கூட்டங்கள்	-10.1171
பாகங்கள	-10.1175
▁முகவராண்மைகள	-10.118
▁வருவாய	-10.1205
▁i	-10.1206
ில்லாத	-10.1215
▁வழிகாட்டல்கள்	-10.123
▁பணியாளர்கள்	-10.1243
▁தொடக்கம்	-10.1246
▁நன்மைகள்	-10.1255
கந்த	-10.1259
▁பணிப்ப	-10.1266
▁பருவம்	-10.1286
▁வினைத்திறனாக	-10.1291
▁கையாளு	-10.13
வல்ல	-10.1312
▁நேரடியான	-10.1317
▁அதிகரித்திருந்த	-10.132
▁நிறைவேற்றப்பட	-10.1329
▁குறுக்க	-10.1344
ண்ணிய	-10.1346
▁இசைவ	-10.1347
ினி	-10.1356
▁நாட்களில	-10.136
பேச	-10.1365
பயிற்சி	-10.1377
நென	-10.1387
புல	-10.14
▁தகு	-10.1407
▁விருப்பம்	-10.1419
▁முறைப்படி	-10.1422
▁கருத்திட்ட	-10.1423
மீட்ட	-10.1426
▁தொட	-10.1437
▁உடன்பட	-10.1441
▁ஊக்கப்படுத்த	-10.145
▁வேலைச்சட்டக	-10.1461
▁பொறுப்பை	-10.1483
▁பிணைப்ப	-10.1483
▁வழங்குவத	-10.1487
▁ஆய்வுகூட	-10.149
▁தினங்கள	-10.1497
▁உருவம்	-10.1505
▁ரி	-10.1517
▁கணக்கின்	-10.1518
▁கிராமத்தில	-10.1562
04	-10.1568
▁கொடையாளிகளின	-10.1571
படப்பிடிப்ப	-10.1575
▁சமூகத்தின	-10.1578
▁நாவல	-10.1583
▁உறுப்பினர்களை	-10.1598
▁05-	-10.1615
▁பாடசாலைகளுக்கு	-10.1617
▁சேவையின்	-10.1627
▁வாடிக்கையாளர்கள	-10.1633
ிழை	-10.1639
▁விம	-10.1644
பிர	-10.165
▁பூச	-10.1656
▁விலக்கு	-10.1678
▁இடங்கள	-10.1696
▁கொண்டுவர	-10.1697
▁குடும்பத்த	-10.1705
▁பதிலி	-10.1713
▁கிராமங்கள	-10.1716
▁பிற்போட	-10.1718
▁மெ	-10.1726
ளைய	-10.1734
▁சான்றுகள்	-10.1743
▁பணிக்குழு	-10.1752
▁கூட்டங்கள	-10.1771
வோன்	-10.1782
க்குறி	-10.1784
▁கிராமங்களி	-10.1797
க்கொண்ட	-10.1817
▁நன்றி	-10.1833
▁டேப்	-10.1834
▁விசா	-10.1839
ப்படுத்துதல்	-10.1889
▁குழுக்கள	-10.1912
ண்மை	-10.1928
ுவதை	-10.1931
▁தீர	-10.1937
▁சுற்ற	-10.1949
சக	-10.1953
▁விடை	-10.1959
▁டி	-10.1961
▁தரத்தில	-10.197
▁சீராக்கு	-10.197
வேக	-10.1981
வச	-10.1991
▁மற	-10.2002
▁உடற்	-10.2006
▁வாய்ப்ப	-10.2009
▁இந்நிகழ்ச்சித்	-10.2022
புற	-10.2027
▁கணக்கிட	-10.2036
▁தயாரிப்பதற்க	-10.204
▁தடுப்ப	-10.2042
ெட்	-10.2044
▁ஆய்வ	-10.2051
▁நிலையை	-10.2052
▁இலக்கை	-10.2052
டுத்த	-10.2054
▁இயைப	-10.2059
▁நெ	-10.2082
▁உடன்படிக்கையின்	-10.2091
ப்பாணை	-10.2111
▁பிற்ப	-10.2147
▁தொடர்ச்சியா	-10.2162
ப்போக்கு	-10.2164
▁வெளிப்படை	-10.2179
▁கும்ப	-10.2186
▁வரவுசெலவு	-10.2204
ார்வ	-10.2213
▁கதவுகளை	-10.2214
திணைக்கள	-10.2226
▁மாற்றப்பட்ட	-10.2233
▁பதிவுசெய்ய	-10.2238
▁இரண்ட	-10.2241
▁காலத்திற்கு	-10.2246
▁ஒலிபரப்ப	-10.226
▁மதி	-10.2269
▁இணையதள	-10.227
▁எழுத்த	-10.2285
▁வரைபட	-10.2287
▁குறிப்பிடு	-10.2297
▁வலைப்பின்னல	-10.2304
▁முடியும	-10.2306
▁செயலாளர	-10.231
▁கூடத்தில	-10.2311
த்தலும்	-10.2312
ச்சம்	-10.2317
பூர்வமாக	-10.2319
▁முகாமையாளர	-10.2328
ச்செய்	-10.2338
▁கண்டறி	-10.2343
▁இனங்க	-10.2348
திட்டத்திற்கு	-10.2357
தமான	-10.2363
ப்பணி	-10.2367
▁நீதிமுறை	-10.2373
வார்ப்பு	-10.2377
காட்சி	-10.2378
▁பெறுபேறுகள	-10.2379
நூல்	-10.238
பரிமாண	-10.2382
பொறியியலாளர்	-10.2382
சமய	-10.2383
நிகழ்வு	-10.2385
நீதி	-10.2385
அரசகரும	-10.2386
வாகன	-10.2386
பகுப்பாய்வு	-10.2386
விடை	-10.2388
சான்று	-10.2388
கூட்டுத்தாபனத்த	-10.2389
விருப்ப	-10.239
கடந்த	-10.239
▁நரம்ப	-10.2391
எப்	-10.2392
சொத்து	-10.2398
கண்	-10.2401
நாடு	-10.2403
நிர்வாகம்	-10.2406
ிக்கப்பட்டுள்ள	-10.2407
28	-10.2414
சக்தி	-10.2415
▁ரா	-10.2425
▁உசாவ	-10.2431
அதன்	-10.2435
களுக்கிடையே	-10.244
ிடையில்	-10.2442
▁ஒழுங்குவிதி	-10.2448
ஜி	-10.2455
இரு	-10.2457
▁சாதக	-10.2462
▁போல	-10.2464
▁சூழ்	-10.2466
ெழுத்து	-10.2467
ச்சார்பு	-10.2468
▁கிடைப்ப	-10.2468
ாலாவ	-10.2469
▁ஒப்புக்கொள்	-10.2471
▁ஸ்ட	-10.2472
க்டோபர்	-10.2473
.12.2014	-10.2475
▁கைப்பணி	-10.2475
முறி	-10.2475
▁நீங்க	-10.2475
அதற்கமைய	-10.2475
இருப்பினும்	-10.2475
செவ்வாய்க்கிழமை	-10.2475
விளைவாந்தன்மையான	-10.2475
▁அங்கீகாரத்த	-10.2475
▁அதீத	-10.2475
▁அத்துமீறல்	-10.2475
▁அநேகமா	-10.2475
▁அவநம்பிக்கை	-10.2475
▁இராணுத்தினர	-10.2475
▁உலகளாவிய	-10.2475
▁உள்ளுராட்சி	-10.2475
▁எடுகோள்	-10.2475
▁எதிர்ப்பார்க்க	-10.2475
▁ஒழித்துக்கட்ட	-10.2475
▁கந்தளாய்	-10.2475
▁கமத்தொழில்	-10.2475
▁கலைச்சொற்	-10.2475
▁கஷ்டங்கள	-10.2475
▁காகிதாதிகள்	-10.2475
▁காணாமற்	-10.2475
▁கிளினிக்	-10.2475
▁கூடுதலா	-10.2475
▁கெக்கிராவ	-10.2475
▁சமாந்தர	-10.2475
▁சின்னங்கள்	-10.2475
▁சொற்பொழிவு	-10.2475
▁தலைமறைவ	-10.2475
▁துழாவுகை	-10.2475
▁தைப்பொங்கல்	-10.2475
▁தொலைநகல்	-10.2475
▁நுகேதொலவத்த	-10.2475
▁பஞ்சாங்க	-10.2475
▁பரிபாலன	-10.2475
▁பாதுகாவலர்	-10.2475
▁புலமைபரிசில்	-10.2475
▁பூந்தோட்ட	-10.2475
▁பெறுமானத்தேய்வ	-10.2475
▁மதங்களுக்கிடைய	-10.2475
▁மிஹிர	-10.2475
▁மூதவை	-10.2475
▁வடமத்திய	-10.2475
▁வடிவமைப்பாளர்	-10.2475
▁வலப்பனை	-10.2475
▁விழுமியங்கள்	-10.2475
▁வீண	-10.2475
▁வெளியீட்டாளர	-10.2475
ூன்றிய	-10.2475
▁இடவசதி	-10.2475
▁சம்மேளன	-10.2475
▁நம்பத்தக்க	-10.2475
▁நேர்முக	-10.2475
▁பூஜை	-10.2475
▁விவரச்சித்திர	-10.2475
▁உபாயங்கள்	-10.2475
▁தொகுத்தல்	-10.2475
▁வரிவிதிப்பு	-10.2475
▁தூபி	-10.2475
▁தேர்ந்தெடுத்த	-10.2475
களுக்கிடையிலான	-10.2475
▁கிட்டத்த	-10.2475
▁மறுதலை	-10.2475
▁இறந்த	-10.2475
▁எழுந்தமான	-10.2475
▁பகிர்ந்தளிக்க	-10.2475
▁பாதுகாத்தல்	-10.2475
▁பன்மொழி	-10.2475
▁வங்கித்தொழில்	-10.2475
▁வெளிப்புற	-10.2475
▁பயிற்சியளித்தல்	-10.2475
▁தூய்மை	-10.2475
▁திரவ	-10.2475
▁தொற்று	-10.2475
▁கால்நடை	-10.2476
▁வசந்த	-10.2476
▁நட்டஈட	-10.2476
▁ஹொர	-10.2476
▁யாத்திர	-10.2476
▁1.2.2	-10.2476
▁நீதிவான்	-10.2476
▁சுற்றாடல்	-10.2476
▁பகுப்பு	-10.2476
▁மலர்	-10.2476
யொன்றை	-10.2476
▁அனைவரு	-10.2476
க்கோரிக்கை	-10.2476
கியவர்	-10.2476
▁ஆரவார	-10.2476
▁அநு	-10.2476
▁உருமாற்றம்	-10.2476
▁காலவிதிப்பு	-10.2476
▁அதிகரிக்க	-10.2476
சித்தாந்த	-10.2476
▁வகுப்புக்களும்	-10.2476
▁பூஜா	-10.2476
ேயே	-10.2476
▁ஏற்பாட்ட	-10.2476
▁கோலவுரு	-10.2476
▁சொந்தக்காரன	-10.2476
க்கோப்பு	-10.2476
▁மண்டபம்	-10.2476
▁வித்தியாலயம்	-10.2476
▁தொலைத்தொடர்பு	-10.2477
▁மின்வலு	-10.2477
ப்பொருட்கள்	-10.2477
க்குட்பட்ட	-10.2477
▁நிதியாண்டு	-10.2477
▁ஒலிப்பாதை	-10.2477
▁நடிப்பு	-10.2477
▁திருப்பி	-10.2477
▁விலக்களிப்பு	-10.2477
▁தெளிவுபடுத்த	-10.2477
▁வணக்க	-10.2477
▁தீயநோக்குடைய	-10.2477
▁மகிழ்ச்சி	-10.2478
▁அடிமட்ட	-10.2478
▁குறுந்தொ	-10.2478
▁குறைவாக	-10.2478
▁தெற்கு	-10.2478
▁வாழிடம்	-10.2478
▁பாதிக்கப்பட்ட	-10.2478
▁உடன்பாடு	-10.2478
▁பதிலீட்டு	-10.2478
▁உச்சரிப்பு	-10.2478
▁படமாக்கல்	-10.2479
▁புவியியல்	-10.2479
▁2012.01.01	-10.2479
▁ஸ்தாபிக்கப்பட்ட	-10.2479
▁வாதுரை	-10.2479
▁மெய்ய	-10.2479
▁ஆளுநர்	-10.2479
▁ஒழுங்குபடுத்தல்	-10.2479
▁பொருந்தா	-10.248
▁செறிவு	-10.248
▁நிகழ்தகு	-10.248
▁ஸ்டார்	-10.248
▁பகுதிநேர	-10.248
▁ஓய்வுபெற்ற	-10.248
▁சன்சத	-10.2481
▁சுமத்த	-10.2481
▁அறநெறிப்பாடசாலை	-10.2481
▁கையளிப்பு	-10.2482
▁நிலைமாற்றம்	-10.2482
▁பாடகர்	-10.2482
▁வைப்பீடு	-10.2482
▁பந்தய	-10.2482
▁வழிசமைக்கும்	-10.2482
▁முற்பட்ட	-10.2482
▁பதிப்புரிமை	-10.2482
▁முதலா	-10.2482
▁எதிர்வினை	-10.2482
▁மன்னிப்பு	-10.2482
ெற்றுக்கொடுத்தல்	-10.2482
▁நிர்ணயிப்பு	-10.2483
▁உயர்கல்வி	-10.2483
▁3000	-10.2483
▁திருச்சபை	-10.2484
▁சுட்டி	-10.2484
▁முகப்பாடு	-10.2484
▁இப்பாகமுவ	-10.2485
▁புத்தசாசன	-10.2485
▁அனுகூல	-10.2485
▁மார்க்சிய	-10.2485
▁ஏதாவத	-10.2486
▁அளவையியல்	-10.2486
▁சென்ற	-10.2487
▁கைவிடுதல்	-10.2487
▁வெறி	-10.2487
▁சுட்டு	-10.2488
▁முன்மொழிவு	-10.2488
▁உயிரூட்டல்	-10.2488
▁வழிபாடு	-10.2489
▁தக்க	-10.2489
▁செய்பவர்	-10.249
▁சுரங்க	-10.249
▁ஈடுபட்ட	-10.249
▁திசைமுகப்படுத்த	-10.249
▁மாற்றீடு	-10.2491
ஸ்ஸ	-10.2491
▁எடுத்துரைப்பு	-10.2492
▁பட்டறை	-10.2493
▁தாக்குதிறனுடை	-10.2493
▁தயார்	-10.2494
▁பாத்திர	-10.2494
▁ஒன்றிய	-10.2495
▁மேற்கொண்டு	-10.2495
▁கிரம	-10.2495
▁தடுத்தல்	-10.2495
▁துல்லியமான	-10.2495
▁தகுதியுடைய	-10.2497
▁ஒருங்கிணைத்தல்	-10.2497
வீழ்ச்சி	-10.2498
▁விஞ்ஞாபனம்	-10.2499
▁அறிதல்	-10.2499
▁நுண்ணறிவு	-10.2499
▁தரகர்	-10.25
▁ஆள்நிலை	-10.25
▁அறிவியல்	-10.25
▁நடுவர்	-10.2501
▁செயற்படுத்துகை	-10.2502
▁கொண்டனர்	-10.2503
▁பதிலாக	-10.2503
▁8.2.	-10.2503
▁பேணுதல்	-10.2505
▁எழுத்துமூல	-10.2506
▁அழிவு	-10.2506
▁சேர்த்து	-10.2506
▁முடிப்பு	-10.2507
காவலி	-10.2507
▁போதனாசிரியர்கள	-10.2509
▁சட்டமூலம்	-10.2509
ந்தன்மை	-10.251
▁உறை	-10.251
ஹெட்டிய	-10.251
▁காணிகளை	-10.251
(2)	-10.2511
▁ஒத்துழைப்பை	-10.2511
▁பொதுமக்களுக்கு	-10.2512
▁அணுகு	-10.2512
யாள்	-10.2513
▁குறியீட்டு	-10.2514
சுவ	-10.2515
க்குட்படுத்த	-10.2515
ளவியல்	-10.2515
▁தக்கவாறு	-10.2516
▁அச்சிட்ட	-10.2516
▁ஆய்வுக்கூட	-10.2516
ழைவு	-10.2518
▁தருகின்றது	-10.2519
71	-10.252
▁ஞாயிற்றுக்கிழமை	-10.252
▁உசாவல்	-10.2521
ேதகு	-10.2522
ம்பிக்	-10.2522
▁செயற்பட்ட	-10.2522
▁வெளிநாடு	-10.2524
▁சக	-10.2527
▁அந்தஸ்து	-10.2527
ச்சோதனை	-10.2529
▁புகைப்படங்கள்	-10.253
▁முதலான	-10.253
ளா	-10.253
▁முற்பணங்கள்	-10.2531
▁பெயர்ச்சி	-10.2531
▁ஆகியவை	-10.2532
iii	-10.2535
▁தினத்தை	-10.2536
▁மூலம	-10.2538
▁நுவர	-10.2538
▁பனுவல்	-10.2538
▁விரோத	-10.2539
சிங்க	-10.254
▁மட்டங்களில	-10.254
▁குல	-10.2541
ினரி	-10.2541
▁எச்ச	-10.2541
▁ஆடை	-10.2543
▁செய்யவும்	-10.2543
▁காணல்	-10.2544
▁திட்டமிட்ட	-10.2544
▁ஒப்படைக்கப்பட்ட	-10.2546
▁பகர்	-10.2547
▁கொடுப்பதற்கு	-10.2549
▁செயற்படுதல்	-10.2549
▁போன	-10.2549
▁தயாரிக்கப்படும்	-10.2552
தரவு	-10.2554
▁வருடத்துக்கு	-10.2555
▁வரைவியல்	-10.2557
▁தளபாடங்கள்	-10.2558
▁நினைவுத்	-10.2559
▁நிகழ்ச்சியாகும்	-10.2559
▁என்பவற்றை	-10.256
த்திலே	-10.2565
▁குற்றத்தை	-10.2568
▁கலைத்திறன	-10.257
▁சீராக்கல்	-10.257
▁கடன்பட்ட	-10.2572
▁பித்து	-10.2572
(1)	-10.2573
ரிதா	-10.2573
▁ஆரம்பித்தல்	-10.2575
▁உபகரணங்களை	-10.2578
▁செய்தமை	-10.2579
▁சேவையிலிருந்து	-10.2581
▁தேவைப்பாடுகள்	-10.2583
பத்திய	-10.2588
▁பணத்திற்கு	-10.2589
ப்பிரிவி	-10.2591
▁பிரதிகளும்	-10.2598
▁பரவல்	-10.2599
▁அடிய	-10.26
▁தாக்கல்	-10.2601
▁உருவாக்கல்	-10.2604
▁செய்வது	-10.2606
▁மிகைப்பு	-10.2609
▁அதிம	-10.2609
▁தொடர்தல்	-10.2617
▁கப்பற்	-10.2617
▁உள்வாங்க	-10.2618
திட்டத்தை	-10.262
▁விழிப்பு	-10.2623
▁இல்லம்	-10.2623
25%	-10.2625
▁இனத்துவ	-10.2625
▁நிலைப்படுத்தல்	-10.2626
▁இணங்காமைகள்	-10.2627
▁மாறி	-10.2627
▁குறைவு	-10.2628
▁நாளதுவரையாக்க	-10.263
▁கீழான	-10.2636
▁கொடிகள்	-10.2639
▁ஆய்வரங்க	-10.2641
▁கோரி	-10.2645
▁உள்ளமை	-10.2645
▁சிபார்சு	-10.2654
▁உரித்தான	-10.2654
▁பத்தி	-10.2654
▁பணிகளும்	-10.2655
▁கார்	-10.2657
க்கேற்ற	-10.2666
▁எடுக்கப்பட	-10.2668
▁காலநிலை	-10.2669
▁மாறான	-10.267
▁உத்திகள்	-10.267
▁தனியான	-10.2674
▁வழங்கற்	-10.2684
▁இணையதளம்	-10.2685
▁தரத்தை	-10.2697
▁துண்டுகள்	-10.2697
▁இலகுவ	-10.2707
ந்திய	-10.2716
▁அருக	-10.2716
▁முன்னர	-10.2724
▁இயங்கிய	-10.2726
▁அச்சுறுத்த	-10.2727
▁ஏற்பாடுகளின்	-10.2737
▁இன்ன	-10.2743
▁பாதிப்ப	-10.2744
▁அர்ப்பணிப்புடன	-10.2746
ர்களுக்க	-10.2747
55	-10.2748
சித்தி	-10.2749
▁நினைவுச்	-10.2761
▁ஒருவர்	-10.2774
▁வெட்டு	-10.2777
ிஸ்த	-10.2778
▁கூறல	-10.2783
▁அமைச்சுக்கு	-10.2786
▁கச	-10.279
▁செயற்படுத்தப்பட	-10.2798
▁பட்டுள்ளன	-10.2802
க்குண	-10.2802
▁வய	-10.2805
▁ஏமாற்று	-10.2809
▁புதுப்பி	-10.2819
ன்ப	-10.282
▁கலைஞர	-10.2821
ுறுதிப்படுத்த	-10.2824
▁தயாரிக்கப்பட	-10.2829
▁இணையான	-10.2834
▁அமைச்சர	-10.2841
▁பேணப்பட	-10.2849
▁விபரங்களை	-10.2858
▁விசேடமான	-10.2859
▁அமைச்சுக்கள்	-10.2871
▁கம்ப	-10.2884
▁கவனம	-10.2894
▁நிறுவனங்களை	-10.2907
▁வெட்ட	-10.2907
கிறது	-10.2915
▁குர	-10.2918
வேளையில்	-10.2923
▁சட	-10.2925
▁நிகழச்சித்திட்ட	-10.2931
▁கொண்டதாக	-10.2932
▁சொற்ப	-10.2933
▁அறுதி	-10.2935
▁ஏது	-10.2936
▁அலக	-10.2962
▁ஆகியோர	-10.2982
ாராம	-10.2987
யளிப்பு	-10.2991
▁ஆர	-10.2999
த்திலும்	-10.3008
▁மொழியை	-10.303
▁ஏற்படுத்துவதற்க	-10.3041
▁நிதிப்பிரிவ	-10.3044
ப்புரிமை	-10.307
▁வேக	-10.3104
▁உரிமையை	-10.3105
▁தீர்க்க	-10.311
▁தெரிந்தெடுக்க	-10.3111
▁உரிமைமாற்ற	-10.3112
▁கொண்டவர்	-10.3117
இதனூடாக	-10.3122
▁விடுவித்த	-10.3124
▁வெற்றியாக	-10.3127
படிநிலை	-10.3129
காலி	-10.3131
▁இயந்திரங்கள	-10.3139
▁நீரை	-10.3144
யிலா	-10.3153
▁முனைப்ப	-10.3154
▁வாங்கி	-10.3158
▁நன்றிய	-10.3162
▁ஆள	-10.3164
▁செப்	-10.3171
ல்லாத	-10.3175
▁வளவ	-10.3176
▁பரீட்ச	-10.3183
கொண்டு	-10.3186
▁உருவக	-10.3187
▁ஆசிரியர	-10.3189
▁நியமித்த	-10.3192
▁காலப்பகுதிக்க	-10.3209
யமைப்பு	-10.3213
ச்சபை	-10.3214
▁கற்பிக்க	-10.3222
ிக்கிற	-10.3228
சிறி	-10.3235
ழும்	-10.3238
ிழந்த	-10.3296
▁வாதி	-10.3297
▁எங்கள	-10.3299
▁முப்ப	-10.3304
▁தெரிவிக்க	-10.3309
▁பிரதேசங்களில	-10.3309
▁அமர்த்த	-10.3319
▁தீர்க்கப்பட	-10.3351
▁பலவகை	-10.3356
ண்டல்	-10.3359
▁தலைப்ப	-10.3364
▁தவறா	-10.3368
▁இயங்கு	-10.3371
மாற்று	-10.3375
▁பயன்படுத்திய	-10.3379
▁பயில	-10.3381
▁விளைவ	-10.3391
▁அடையாளங்	-10.3402
பாவ	-10.3404
▁உடை	-10.3413
▁கடலோட	-10.3415
14	-10.3422
லியா	-10.3424
▁பணியாக	-10.3449
▁தயாரிப்பாளர்கள	-10.347
▁தலைப்பில	-10.3479
▁பலகைகளை	-10.3499
ராணி	-10.35
மனை	-10.3508
▁இயந்திர	-10.3514
▁முத்திரையிட	-10.3515
▁அனுப்பப்பட்ட	-10.3515
களிற்கு	-10.3515
▁கட்டமைப்ப	-10.3516
▁விவரி	-10.352
▁அனுப்பி	-10.3526
பாடான	-10.355
▁நிச்சய	-10.3557
செலுத்து	-10.3559
▁கிராமியக்	-10.358
▁கருத்துக்கள	-10.3587
▁பரீட்சி	-10.359
▁முடிவுறா	-10.3591
▁கைவிடப்பட்ட	-10.3611
▁சாய்	-10.3628
▁அலகின	-10.3636
▁இன்மை	-10.3647
ுவதற்காகவும்	-10.3655
▁சீட்டுக்கள	-10.3671
▁செயற்திட்டங்கள	-10.3677
ொட்ட	-10.3687
வாழ்வு	-10.3695
▁என்பவற்றின	-10.3699
▁நடத்தப்பட்டது	-10.372
78	-10.3726
காட்டி	-10.3731
▁பரவ	-10.3735
ாடல்	-10.375
▁ஹி	-10.3757
▁மடல	-10.3797
▁வாங்க	-10.3807
▁பெற்றோருக்க	-10.3814
▁கிர	-10.3819
▁ஒவ்வா	-10.3839
▁தீர்மானங்கள	-10.3842
▁மறுக்க	-10.3859
ிங்	-10.3882
ியோ	-10.3888
▁இருப்பத	-10.3895
▁இடம்பெற	-10.3897
▁போட்டியில்	-10.3927
▁பயனாளிகள	-10.3928
▁வழுக்கள	-10.3939
ருவம்	-10.3946
▁மொழித்திட்ட	-10.3948
▁படுக	-10.3969
▁மானிட	-10.3977
▁அறுதியிட	-10.3985
ாயி	-10.3991
▁ஈட்ட	-10.3995
▁பிற்போடு	-10.4002
▁உறுதியான	-10.4012
▁வைத்தியர்கள	-10.4021
▁தடவை	-10.4022
▁புரிந்துணர்வ	-10.4047
▁அவதானி	-10.4052
ிக்கத்தக்க	-10.4053
▁சேகரிப்ப	-10.406
ணிப்பாளர்	-10.4063
மொழிபெயர்ப்பாளர்	-10.407
ுவான	-10.4079
முறையற்ற	-10.4086
▁வகையில	-10.4087
▁கிரி	-10.4096
▁தகவ	-10.4101
▁சுங்கத்தின	-10.4113
ொற	-10.4124
கோன்	-10.4144
▁சிரி	-10.4146
ப்பட்டுள்ளதுடன்	-10.416
▁ஆக்கங்கள	-10.4177
▁நிகழ்வின்	-10.4178
▁செலவினங்கள	-10.4183
▁நடைமுறையில்	-10.42
▁சித்த	-10.4205
குறிப்பு	-10.4228
26	-10.4236
▁வழிகாட்ட	-10.4246
▁மூன்ற	-10.4261
▁செலவீன	-10.4276
ுகிறது	-10.4286
▁அகத்த	-10.4287
பிரதி	-10.4299
▁ஆட்ட	-10.4302
▁கிரய	-10.4306
▁குறிக்கோள	-10.4307
▁வயத	-10.4319
▁எண்பி	-10.4323
▁தார	-10.4327
முடியா	-10.434
▁பங்குபற்ற	-10.4345
கரமான	-10.4345
▁தயாரித்த	-10.4356
▁குறைவடை	-10.4359
▁அதிகாரமளி	-10.4371
▁ரெ	-10.4371
▁நினைவ	-10.4379
திட்டமொன்று	-10.4381
தாபன	-10.4382
சந்தைப்படுத்தல்	-10.4384
குறிப்பிட்ட	-10.4385
டிசம்பர்	-10.4385
பல்வேறு	-10.4385
▁புர	-10.4385
விற்பனை	-10.4386
–	-10.4386
தொழிற்	-10.4387
▁உறவினர்	-10.4388
▁செழுத்து	-10.4388
வருமான	-10.4388
வரிசை	-10.4392
ஒரு	-10.4396
▁செயலமர்வ	-10.4397
போன்ற	-10.4397
▁உள்நாட்ட	-10.44
படுத்தப்பட்டது	-10.44
▁வழிகாட்டல	-10.4405
▁சேம	-10.4405
▁உறுதிப்படுத்தி	-10.4405
நய	-10.4406
▁பரிச	-10.4411
ேசன்	-10.4411
▁ஆதி	-10.443
▁பதிவேட	-10.4434
ௌ	-10.4434
தன்மை	-10.4439
பாடற்ற	-10.4447
▁தாழ்	-10.4449
▁பராமரி	-10.4451
▁காண்பி	-10.4453
மன்று	-10.4455
▁அழை	-10.4456
▁பரிமாற	-10.4457
▁அத்தியாவசிய	-10.4459
▁நியமி	-10.4462
▁உள்ளடங்க	-10.4464
▁நலன	-10.4464
▁நூற்	-10.4467
▁தாக்கமளி	-10.4467
ப்பாய்ச்சல்	-10.4468
▁கடுமை	-10.4469
.10.	-10.4471
▁பரிந்து	-10.4471
▁வெளியேற்று	-10.4472
▁புகழ்	-10.4473
▁நீண்ட	-10.4473
குலைவு	-10.4474
க்கட்டளை	-10.4474
க்காரன	-10.4475
▁முஸ்ல	-10.4475
க்கிடையிலான	-10.4475
▁ஞாபக	-10.4475
▁தனிச்சிறப்ப	-10.4475
▁வெளிக்கொணர	-10.4475
.07.2014	-10.4475
/12/31	-10.4475
க்கோட்பாடு	-10.4475
சீனச்சட்டி	-10.4475
புதன்கிழமை	-10.4475
ப்பிரயோகம்	-10.4475
யீனம	-10.4475
ற்கிணங்க	-10.4475
▁அதிர்வெண்	-10.4475
▁ஆகுசெலவு	-10.4475
▁இறக்குமதி	-10.4475
▁உணர்ச்சிமயமான	-10.4475
▁எடுகூற்று	-10.4475
▁ஏற்றத்தாழ்வு	-10.4475
▁கொத்மலை	-10.4475
▁சிவராத்திரி	-10.4475
▁சுழற்சி	-10.4475
▁சுவரொட்டி	-10.4475
▁ஜப்பான	-10.4475
▁தழுவல	-10.4475
▁தார்மீக	-10.4475
▁தெளிவற்ற	-10.4475
▁நவகம்புர	-10.4475
▁நாட்சம்பள	-10.4475
▁நாளொன்றிற்கு	-10.4475
▁நினைவூட்டற்குறி	-10.4475
▁நீடித்த	-10.4475
▁நீர்ப்பாசன	-10.4475
▁பயிற்றுவித்தல்	-10.4475
▁புனரமைப்பிற்க	-10.4475
▁மனச்சாட்சி	-10.4475
▁மரியாதை	-10.4475
▁மாட்டேற்று	-10.4475
▁மிஷனரி	-10.4475
▁முதிர்வடைய	-10.4475
▁முன்மாதிரி	-10.4475
▁முறைப்பாட்டாளர்	-10.4475
▁வரிவிதிக்கத்தகு	-10.4475
▁வழிநடத்து	-10.4475
▁வாழ்வோருக்கு	-10.4475
▁விடுபாட்டுரிமை	-10.4475
▁வித்தியாசம	-10.4475
▁விற்பணை	-10.4475
▁வெல்லவாய	-10.4475
▁வேளாண்மை	-10.4475
▁கணக்கெடுப்பு	-10.4475
▁சமிக்ஞை	-10.4475
▁சாராம்சம்	-10.4475
▁செந்நெறி	-10.4475
▁சேகரித்த	-10.4475
▁நிதர்சன	-10.4475
▁பாடப்புத்தகத்தி	-10.4475
▁பிரபல்யப்படுத்த	-10.4475
▁புரள்வு	-10.4475
▁அத்தியாய	-10.4475
▁சம்மத	-10.4475
▁துறத்தல்	-10.4475
▁பூங்கா	-10.4475
▁அரட்டை	-10.4475
▁உலோக	-10.4475
▁கொத்தணி	-10.4475
▁பாசறை	-10.4475
▁பொதுநலவாய	-10.4475
/12	-10.4475
▁புனைவு	-10.4475
▁மானுட	-10.4475
▁முதலாளித்துவ	-10.4475
▁வைத்திருப்பவர	-10.4475
▁இவ்விட	-10.4475
▁தூதுவர்	-10.4475
▁பேழை	-10.4475
▁மறுதலி	-10.4475
▁வகையீட்டு	-10.4475
▁ஆயூபோவன்	-10.4475
▁சார்பாக	-10.4475
▁வாக்காளர்	-10.4475
▁பாதுகாத்து	-10.4475
▁விளக்கவுரை	-10.4475
▁வெளியீட்டு	-10.4475
▁சனத்தொகை	-10.4475
▁கட்டுமாண	-10.4475
▁உதவியளித்தல்	-10.4475
▁நடிகை	-10.4475
▁வறுமை	-10.4475
▁வாக்கிய	-10.4475
▁விரைவு	-10.4475
▁இறப்பு	-10.4475
▁ஒடுக்க	-10.4475
▁சுமதி	-10.4475
▁செந்தர	-10.4475
▁புகுத்தல்	-10.4475
▁யாழ்ப்பாணத்தில	-10.4475
ப்படுவதோடு	-10.4475
ோபர்	-10.4475
▁விரயம்	-10.4475
▁உயர்த்துகை	-10.4475
▁கணக்களிப்	-10.4475
▁கல்வியறிவு	-10.4475
▁கிராக்கி	-10.4475
▁சட்டமுறையாக	-10.4475
▁வளிமண்டல	-10.4475
▁கொண்டாட்ட	-10.4475
▁அனர்த்த	-10.4476
▁இலஞ்சம்	-10.4476
▁வெள்ளை	-10.4476
▁அன்பு	-10.4476
▁இடையே	-10.4476
▁மத்தியகோட்ட	-10.4476
▁தீயொழுக்க	-10.4476
கமுவ	-10.4476
▁தானியங்க	-10.4476
▁1.2.3	-10.4476
▁அழைப்பாணை	-10.4476
▁கதிர்காமம்	-10.4476
▁அம்சங்கள	-10.4476
▁"8.2.	-10.4476
▁அப்பால்	-10.4476
▁பொருள்கோட	-10.4476
▁அம்பகமுவ	-10.4476
▁கூர்மை	-10.4476
▁தேர்வாய்வு	-10.4476
▁இவ்வருடம	-10.4476
விமல	-10.4476
▁மகாநாடு	-10.4476
▁3.7.	-10.4476
▁தொண்டர	-10.4476
▁அர்த்தம	-10.4476
களானவை	-10.4476
▁வேண்டுமென்று	-10.4476
▁பெயர்குறித்த	-10.4476
▁கடின	-10.4476
00.00	-10.4476
▁பாடநூல்கள	-10.4476
▁காவல்துறை	-10.4476
▁சுழல	-10.4476
▁அறக்கட்டளை	-10.4476
▁பதிவேட்டு	-10.4476
▁நாத்திக	-10.4476
▁மேலாக	-10.4477
▁ஆண்டறிக்கை	-10.4477
▁சொற்பொருள்	-10.4477
▁பதிலாள்	-10.4477
தடைகாப்பு	-10.4477
▁உறுப்பினர்களது	-10.4477
▁கருத்தாடல்	-10.4477
▁பல்தேர்வு	-10.4477
▁வதிவு	-10.4477
or	-10.4477
▁பங்கேற்ப	-10.4477
▁கருப்பொருள	-10.4477
▁வருகிறது	-10.4477
▁வத்துபிட்டிவல	-10.4477
▁செயற்றிறனின்மை	-10.4477
▁முகவக	-10.4477
▁பிரவேச	-10.4477
▁மதுசார	-10.4477
▁பண்பியல்	-10.4477
▁விதவை	-10.4478
▁பதிவிறக்க	-10.4478
▁மீட்டெடு	-10.4478
▁அபாய	-10.4478
▁கையளித்தல்	-10.4478
▁அபகரி	-10.4478
▁தரக்கட்டுப்பாட	-10.4478
▁கட்டுறுத்த	-10.4479
▁இடம்பெயர்	-10.4479
டக்கம்	-10.4479
▁வழக்கொழி	-10.4479
▁சேர்த்துக்கொள்ள	-10.4479
▁நிச்சயமற்ற	-10.4479
▁நேர்மையற்ற	-10.4479
▁பல்வகைத்தன்மை	-10.4479
ிங்டன்	-10.4479
▁ஆட்கொ	-10.4479
▁பற்றுறுதி	-10.4479
▁செலவிட்ட	-10.448
▁ஆளுகை	-10.448
▁பின்புல	-10.448
▁குருமார்கள	-10.448
▁ஒப்பாய்வு	-10.448
▁முதலமைச்சர	-10.448
▁வாக்குரிமை	-10.4481
▁சுவடு	-10.4481
▁இழி	-10.4481
▁இடைவினை	-10.4481
▁முன்மொழி	-10.4481
▁அதிர்ச்சி	-10.4482
கணிப்பீட்ட	-10.4482
▁நந்திக	-10.4482
▁தளர்வ	-10.4482
▁மாத்திரமே	-10.4482
/200	-10.4482
▁ஒழுங்கமைத்தல்	-10.4482
▁நோக்கெல்லை	-10.4482
▁அண்ணளவான	-10.4482
▁தன்னாட்சி	-10.4482
▁மீண்டுவரும்	-10.4482
த்தினர்	-10.4482
▁போதனா	-10.4482
பல்லின	-10.4482
▁பயன்பெற்ற	-10.4483
▁பெறப்பட	-10.4483
▁அதிர்வ	-10.4483
விலங்கு	-10.4483
▁ஊடகவியலாளர்	-10.4484
▁அவசரகால	-10.4484
▁முன்னுறு	-10.4484
▁79	-10.4484
▁முன்னுரை	-10.4484
▁கோவில்	-10.4484
▁நெறிசார்ந்த	-10.4485
▁அறியாம	-10.4485
▁அலசி	-10.4485
ாவதி	-10.4485
வேட்டை	-10.4485
▁காப்பீடு	-10.4486
▁குழப்பமற்ற	-10.4486
▁தனியுரிமை	-10.4486
▁பெறவேண்டி	-10.4486
▁செலவிடப்பட்ட	-10.4486
▁உள்ளுணர்வு	-10.4486
▁சேய்மை	-10.4486
▁ஆயுட்	-10.4487
▁சூரிய	-10.4487
▁பணிப்பாணை	-10.4487
▁மரபுரிமையாளர்	-10.4487
▁மாற்றீட்டு	-10.4487
▁இளைய	-10.4487
▁விதம்	-10.4487
▁மரணித்த	-10.4487
▁மேசை	-10.4488
▁மாபலகம	-10.4488
▁மொரட்டுவ	-10.4488
▁ஜோ	-10.4488
▁சதவீதமாக	-10.4488
▁வருகின்றது	-10.4488
விஜய	-10.4488
▁உறுதிப்பாட்டு	-10.4488
▁அறிக்கையிடல	-10.4489
▁கணக்கிணக்க	-10.4489
▁கோரப்படாத	-10.4489
ற்றுக்கொண்ட	-10.4489
▁செயலாளருக்கு	-10.4489
▁எண்பிப்பு	-10.449
▁நிதிக்கொள்கை	-10.449
▁வெற்றிடங்கள	-10.449
▁ஒட்டு	-10.4491
▁சாரதி	-10.4491
▁விரைவாக	-10.4491
த்திரட்டு	-10.4491
▁நிபுணத்துவ	-10.4491
▁முழுமையாக	-10.4491
▁ஊறு	-10.4492
▁களனி	-10.4492
▁வளர்த்த	-10.4492
▁ஒப்பந்தக்காரர்	-10.4492
▁அலுவல்முறை	-10.4493
▁வாழ்த்து	-10.4493
▁புகையிலை	-10.4493
▁நடைமுறையிலுள்ள	-10.4494
▁பிரேம	-10.4494
▁நிலைநாட்டு	-10.4494
▁பங்காளர்	-10.4494
▁கவனத்தை	-10.4495
▁தேய்மானத்திற்க	-10.4495
▁சட்டமூலத்த	-10.4495
▁மதிப்பிடுகை	-10.4496
▁மேன்மை	-10.4496
▁ஆய்வுப்பொருள்	-10.4497
▁என்பதுடன்	-10.4497
▁மனைவி	-10.4498
▁வரைபடங்கள்	-10.4498
ப்பதிவு	-10.4499
▁36	-10.4499
▁ஓயா	-10.45
உதவிப்பணிப்பாளர்	-10.4501
▁காயம்	-10.4501
▁பயன்தர	-10.4502
மணம்	-10.4502
▁நிகழ்வில்	-10.4503
▁எரி	-10.4503
▁முன்னெ	-10.4504
▁இணைபு	-10.4504
▁என்பவற்ற	-10.4504
▁விநியோகித்தல்	-10.4505
▁மேற்பார்வையாளர்	-10.4505
மணம்சார்	-10.4506
▁அனுப்புகை	-10.4506
▁வஞ்ச	-10.4507
▁39	-10.4507
▁பங்குபற்றுதல்	-10.4508
▁இனங்களுக்கிடைய	-10.4508
▁உள்ளீடு	-10.4509
▁மூலோபாய	-10.4509
▁ஸ்திர	-10.4509
ாசன	-10.4509
▁லொத்தர	-10.4509
▁சட்டப்படியான	-10.4509
▁ஈவு	-10.451
▁3.6	-10.451
▁கைமாற்றல்	-10.4511
▁மார்க்க	-10.4511
▁பூச்சிய	-10.4511
▁சொற்களை	-10.4511
▁44	-10.4512
▁துறைமுக	-10.4512
▁தொடர்புபட்ட	-10.4513
யெடுத்தல்	-10.4513
▁நோக்குடைய	-10.4513
▁ஆணையம்	-10.4513
▁சொல்லுக்கு	-10.4514
▁புத்தகங்களை	-10.4515
▁நேர்மை	-10.4516
▁முது	-10.4518
▁பற்றுதல்	-10.4518
▁விரிந்த	-10.4519
▁தந்தி	-10.4522
▁பயனுள்ள	-10.4522
▁புலனறிவு	-10.4523
▁தற்றுணிபு	-10.4523
▁நிறைவேற்றுநர்	-10.4524
▁3.5	-10.4524
▁ஆண்டுத்தொகை	-10.4524
▁அறிவித்த	-10.4526
▁உதவித்தொகை	-10.4527
(3)	-10.4527
▁வெப்ப	-10.4527
▁16-	-10.4528
▁விநாயக	-10.4531
▁வேந்தர்	-10.4531
▁கலந்துரையாடி	-10.4531
ாத்கா	-10.4532
▁4.2	-10.4532
▁பூரணமான	-10.4534
▁அதே	-10.4535
▁நொ	-10.4535
▁அபே	-10.4536
▁பட்டியலை	-10.4536
▁நலன்பெறுவோர்	-10.4538
▁அறவீடுகள்	-10.4538
▁கொலை	-10.454
இதன்கீழ்	-10.4541
▁மனோ	-10.4542
▁குடியரசு	-10.4542
▁போன்றவற்ற	-10.4546
▁நிகழ்வுகளும்	-10.4546
▁முன்னெடுக்கப்பட	-10.4548
▁சான்றுரை	-10.4548
▁அனுமதியுடன்	-10.455
▁பாகங்களுக்க	-10.4551
றுநிலை	-10.4552
▁காந்த	-10.4552
▁பிறழ்வு	-10.4552
▁வீதங்கள	-10.4552
▁தப்ப	-10.4553
க்கேடு	-10.4554
▁விஷேடமாக	-10.4554
த்தொழில்சார்ந்த	-10.4554
அறிவ	-10.4557
▁செலுத்தப்படாத	-10.456
▁விற்பனையாளர்	-10.456
▁போன்றவை	-10.4562
▁புரிந்துணர்வு	-10.4565
▁வகுப்புகளும்	-10.4566
▁பங்கேற்ற	-10.457
▁செழுத்த	-10.4571
வொரு	-10.4571
5-14	-10.4572
ப்பிரதி	-10.4574
▁மீளப்பெற	-10.4574
▁சுவர்	-10.4575
▁தொடர்பாடலியல	-10.4576
▁தொலைவு	-10.4578
▁அழகியல்	-10.4578
▁பூசப்பட்ட	-10.4582
ஆனால்	-10.4584
▁குறிப்பிடப்பட	-10.4585
▁அமுற்படுத்தப்பட	-10.4586
▁இடத்தை	-10.459
▁குழுக்களை	-10.4591
▁முறைப்பாடுகள்	-10.4592
▁இணக்கமின்மைகள்	-10.4592
▁பாடநெறிகள்	-10.4592
▁தவறுதல்	-10.4593
▁எமக்கு	-10.4596
▁வார்ப்பு	-10.4599
்பிட்டி	-10.4607
▁விளம்பரங்கள்	-10.461
▁இடைப்பட்ட	-10.4616
▁முறைவழி	-10.4617
▁நீள்	-10.4619
▁பேரில்	-10.4621
▁குழுவின	-10.4624
▁பாதுகாப்பான	-10.4625
▁நோய்கள்	-10.4628
▁விரிவுரைகள்	-10.4628
பாதுகா	-10.463
▁இணக்குவி	-10.463
ொடுக்க	-10.4634
▁திருத்தங்கள்	-10.4638
▁நுணுக்கம்	-10.4641
▁பணத்தை	-10.4644
▁தொடரும்	-10.4645
வைத்தல்	-10.465
▁கற்கைநெறியை	-10.4653
▁பறி	-10.4657
▁சுவை	-10.4658
▁சுற்றி	-10.4663
▁கனி	-10.4664
▁விலைக்கு	-10.4666
▁தனிமை	-10.4666
▁நினைவக	-10.4667
▁பார்ப்ப	-10.4671
▁உட	-10.4671
▁தெய்வ	-10.4673
▁உயர்நிலை	-10.4675
▁புலன	-10.4683
▁குழுவின்	-10.4683
▁தொகையான	-10.4685
▁ஏற்றுக்கொள்ளல்	-10.469
சிரிபா	-10.4693
▁செயற்றிட்டங்களை	-10.47
திறன்விருத்தி	-10.4709
ிக்கப்பட்டது	-10.471
▁ஸ்க	-10.4715
▁01.0	-10.4721
▁சமமான	-10.4724
▁முறையாக	-10.4726
சிவ	-10.4731
▁கைது	-10.4731
▁இருமை	-10.4742
▁செல்லல்	-10.4742
▁பத்திரங்கள	-10.4744
▁அடையாளப்படுத்த	-10.4759
சீரமைப்பு	-10.4764
▁பெயரளவ	-10.4765
இன்	-10.4765
முறையில்	-10.4769
▁உள்ளடக்கும்	-10.477
▁மிகைய	-10.4772
▁கொடுப்பனவுகளும்	-10.4777
▁நிகழ்வான	-10.4784
▁புலப்படா	-10.4784
▁கனவ	-10.4785
நாட்டின	-10.4786
ையல்	-10.4792
ெழுத	-10.48
மறியல்	-10.4803
ப்படுவது	-10.4804
▁முன்வைக்கப்பட	-10.4806
▁கதைகள்	-10.4808
▁பிள்ளைகளுக்கு	-10.4809
▁என்பவற்றிற்கு	-10.481
▁புள்ளிகள்	-10.481
▁பொல	-10.4823
▁கட்டுரைகள்	-10.4828
▁பகிர்வு	-10.4836
▁திட்டமிடல	-10.4845
▁கூடியது	-10.4846
சேன	-10.4848
▁தோ	-10.4852
▁பட்டை	-10.486
▁களஞ்சியப்	-10.4872
மயக்க	-10.4873
கொடுநர்	-10.4874
▁கணக்கை	-10.4874
பக்தி	-10.4876
▁வலுக்கட்டா	-10.4885
▁விண்ணப்பித்த	-10.4886
யேடு	-10.4892
▁பேரும்	-10.4895
▁பயன்படுத்துவத	-10.4905
பருவம்	-10.4924
▁அமுலாக்க	-10.4927
▁புலன்	-10.4928
ிருத்தல்	-10.4941
▁செலவாக	-10.4946
தடவைய	-10.495
புகு	-10.4951
கூறல்	-10.4968
▁கல்ல	-10.497
▁படிம	-10.5005
▁எல	-10.5008
▁மானிடவியல	-10.501
▁பங்கீட	-10.5027
▁90	-10.504
▁பயனாளிகளுக்கு	-10.5057
▁உயிர்ப்ப	-10.5061
▁பிணைப்பு	-10.5088
▁பரந்த	-10.5101
17	-10.5109
▁தாய	-10.5117
▁பராதீனப்படுத்த	-10.5121
▁கண	-10.5133
த்திட்டத்தினை	-10.514
▁செலவை	-10.515
▁வரையறுத்த	-10.5167
▁70	-10.5169
▁45	-10.5181
கொள்ளுதல்	-10.5201
▁கடன்தீர்	-10.5205
▁கடமைகளை	-10.5209
ாப்பிய	-10.5237
▁அடிக்க	-10.5246
▁வன	-10.5253
▁நட	-10.5255
▁தயாரிப்பதற்கு	-10.5274
▁பிரிவாக	-10.5282
96	-10.5336
▁தொன்ம	-10.5346
▁பெறுகின்ற	-10.5365
▁அனுசரணையை	-10.5375
▁அறிவிக்கப்பட்ட	-10.5386
▁முன்வைக்க	-10.5389
▁இல்லங்கள	-10.539
▁ஒருங்க	-10.5405
▁வழங்கப்படா	-10.5414
க்கப்பெற்ற	-10.5419
▁கட்டமை	-10.5426
▁பல்கலைக்கழகங்கள	-10.5427
▁ஏற்படுத்தப்பட்ட	-10.5436
▁முழுநிறைவ	-10.5458
▁நோக்கங்களாக	-10.55
▁பட்டுள்ள	-10.55
சலி	-10.5506
பகுதியில்	-10.5518
▁தயாரிப்புக்களை	-10.5522
பொருள	-10.5542
ரிச	-10.5555
▁ஒருவர	-10.5556
▁எத	-10.5557
ணைக்களம்	-10.5578
▁காரியாலயங்கள	-10.558
வலர்	-10.558
▁தளபாட	-10.5587
ோரின்	-10.5593
▁வழக்கை	-10.56
டமி	-10.5602
▁உழைப்ப	-10.5602
▁ஆட்சிமுறை	-10.5609
▁கவனத்தில	-10.5619
▁செயலகங்கள	-10.5636
▁பாராட்ட	-10.5638
▁பொதுமக்களின	-10.5639
ுணர்ச்சி	-10.5641
ிடுதல்	-10.5642
▁கலையகத்த	-10.5654
தோட்ட	-10.566
▁காப்பக	-10.5661
▁வெளிப்படுத்து	-10.5662
ப்போட்டி	-10.5665
16	-10.5672
க்கோடு	-10.5679
▁மட்டங்கள	-10.5698
▁பாடத்திட்ட	-10.5699
▁கொடையாளி	-10.5703
▁முடியாமை	-10.5704
▁கவனிப்ப	-10.5706
▁அசை	-10.5721
ுடனும்	-10.5746
▁"20	-10.5747
க்கக்கூடிய	-10.5767
▁பன்முகப்படுத்த	-10.5767
▁இல்ல	-10.5812
▁நட்டங்கள	-10.5817
▁பாரபட்ச	-10.5821
மொன்றை	-10.5833
▁முழுநிறைவு	-10.5841
▁சாவ	-10.5869
▁உயில	-10.5876
▁அமர்த்தப்பட்ட	-10.5892
▁இப்பண	-10.5904
ரஜத	-10.5922
▁கிட	-10.5935
▁புரி	-10.5937
▁தலைவ	-10.5939
வாதத்த	-10.594
▁எதிர்காலத்தில	-10.5976
▁நடாத்துவத	-10.5995
▁ஆவணங்கள	-10.6013
▁வரலாற்ற	-10.6027
முறைப்படியான	-10.6037
ொப்ப	-10.6047
▁சதவீதத்த	-10.6061
▁கட்டியெழுப்புவத	-10.6067
யாட்சி	-10.6081
சோத	-10.6083
▁சகவாழ்வ	-10.6083
▁அறவிடா	-10.6123
▁கட்டணங்கள	-10.6133
▁எடுப்ப	-10.6135
ன்றோ	-10.6155
▁சிறுவர்களுக்கா	-10.6156
ிசம்	-10.6157
தவிர	-10.6181
▁இரக்க	-10.6191
ப்படாதிருந்த	-10.6208
ொருவர	-10.622
ப்படிப்பு	-10.6221
▁வழங்கியுள்ளத	-10.6223
▁கொடுப்பனவ	-10.6223
▁நிகழ்வ	-10.6237
▁வினாக்கள	-10.6304
துறப்பு	-10.6326
யிடுதல்	-10.633
▁இருந்தமை	-10.6332
▁முடிவுற	-10.6365
லிருந்து	-10.6372
▁வாரிய	-10.6383
ங்களுடன	-10.6401
பான்மை	-10.6418
டங்கு	-10.642
ணிக்கை	-10.6422
▁கணக்கீட்ட	-10.6423
மாற்றம்	-10.6424
பெறும்	-10.6434
தாகவும்	-10.6437
▁உறுப்ப	-10.6441
மதிப்பீடு	-10.6472
▁திருத்தியமை	-10.6476
▁விற்ற	-10.6486
▁பகுப்பாய்வ	-10.6503
▁நேரடியாகவ	-10.6508
இந்	-10.6516
ற்போன்	-10.6526
பார்த்தல்	-10.6527
▁ஏற்படுத்துவத	-10.6531
கோவை	-10.655
03	-10.6559
குண	-10.6565
▁அளி	-10.6567
▁கடன்கொடு	-10.6581
்படை	-10.6589
▁வீச்ச	-10.6598
ோறும்	-10.6606
08	-10.6606
த்தொகுப்பு	-10.6617
▁பலவீனம	-10.6618
▁தீயநோக்க	-10.6624
▁கைவினை	-10.6633
▁அபிப்பிராய	-10.6633
த்துடன	-10.6639
வியலாளர்	-10.6644
▁தொடர்பாட	-10.6658
▁சான்றிதழ்களை	-10.666
▁இலகு	-10.6671
நீக்க	-10.6676
5,0	-10.6678
▁முன்னெடுப்பத	-10.6678
நாட்	-10.668
யின	-10.6701
நிறுவனமான	-10.6702
கொண்ட	-10.6722
னைவாற்றல்	-10.6729
ூதிய	-10.6733
▁விளக்கங்கள	-10.6734
தகுந்த	-10.6748
▁உள்வாங்கப்பட	-10.6755
ருந்தபோதிலும்	-10.6763
▁நுணுக்க	-10.6767
முன	-10.6771
▁பரிகார	-10.6777
▁அச்செழுத்து	-10.6788
▁இத்திணைக்கள	-10.679
▁நீள	-10.6793
▁பகிர	-10.6795
▁செயற்றிட்டம	-10.6803
சோதனை	-10.6806
▁பூட்	-10.6808
▁புலமைப்பரிசில	-10.681
▁சான்றிதழ	-10.681
பதிவு	-10.6815
▁முகாம	-10.6816
▁விபரங்கள	-10.6818
2015	-10.6819
கொள்ளப்படும்	-10.6832
ிருந்தமை	-10.6835
மிடல்	-10.6836
கற்று	-10.6839
▁இதழ	-10.6846
▁பொறியியலாளர	-10.6858
▁மதிப்பீட	-10.6858
க்கொடை	-10.6858
விரோத	-10.6864
▁துண்ட	-10.6867
தெரி	-10.6868
▁ஸ்ப	-10.6872
சாதாரண	-10.6873
▁பண்டார	-10.6874
செலவுத்	-10.6877
வாங்கி	-10.6878
நுவர	-10.6878
85	-10.6881
ஓ	-10.6882
புத்தாண்டு	-10.6882
பிறழ்	-10.6882
உள்ளுர்	-10.6883
கலையகம்	-10.6883
திகாரம்	-10.6884
கொள்கைகள்	-10.6884
இரத்தினபுரி	-10.6884
யாழ்ப்பாணம்	-10.6885
நடப்பு	-10.6885
விஷேட	-10.6885
எதிர்	-10.6885
வருட	-10.6885
நீர்	-10.6885
அறநெறிப்	-10.6885
பதுளை	-10.6886
நாடகம்	-10.6886
முகாமைத்துவ	-10.6886
சிந்தனை	-10.6886
அரசாங்க	-10.6886
பிரதேச	-10.6886
பெறுமதி	-10.6886
2.7	-10.6887
தகவல்	-10.6887
மருத்துவ	-10.6888
பார்வை	-10.6889
▁குடியரச	-10.689
சொத்துக்கள்	-10.6892
ஒலி	-10.6894
▁அங்கத்தவர	-10.6894
இவ்	-10.6894
▁அறவீடு	-10.6896
▁அவதூற	-10.6896
எல	-10.6897
குத்தகை	-10.6899
கட்டணம்	-10.6899
▁தொழிற்பாட்ட	-10.6906
நாள்	-10.6908
பரப்ப	-10.6908
பலகை	-10.6908
▁போதைப்	-10.6911
பெறுபவர்	-10.6912
▁அன்பளிப்பு	-10.6914
உயர்	-10.6915
இதற்காக	-10.6915
போட்	-10.6917
▁வெளிநாட்ட	-10.692
போதனாசிரியர்	-10.6924
ுவாய்	-10.6925
▁மொழிபெயர்	-10.6928
▁செயற்பட்டு	-10.693
▁பயன்பாட்ட	-10.6931
▁ஒப்புரவ	-10.6931
மாறி	-10.6935
▁கட்டிடத்த	-10.6936
க்கொள்கை	-10.694
▁தாள	-10.6948
▁தடுத்துவை	-10.6949
▁கிள	-10.695
▁விநியோகிக்கப்பட	-10.6957
▁கிழ	-10.6957
▁முற்ப	-10.696
.06.	-10.696
▁பகுத்தறிவ	-10.6961
▁சேய்	-10.6961
▁கண்டுபிடி	-10.6961
▁உளவிய	-10.6962
▁உள்ளடக்கப்பட	-10.6962
▁அறிவுறுத்து	-10.6962
▁மேற்கூற	-10.6963
ங்கீகாரம்	-10.6964
▁சுவீகரி	-10.6964
கண்டி	-10.6965
▁"1.2.	-10.6967
வெண்	-10.6967
▁புகையி	-10.6968
▁ஸ்தாபி	-10.697
த்தொடர்பு	-10.697
அரசியலமைப்ப	-10.6972
வெல்ல	-10.6972
ச்சரிக்கை	-10.6973
ென்ன	-10.6973
▁மகிழ்வ	-10.6974
▁எழுத்தறிவு	-10.6974
ிதழ்	-10.6974
மண்டப	-10.6975
▁ஒழுகல	-10.6975
▁துன்புறுத்த	-10.6975
▁முத்துமாரி	-10.6975
கபிலவஸ்த	-10.6975
தழுவிய	-10.6975
▁அனுசரனை	-10.6975
▁நாயன்மார	-10.6975
காமக்கிளர்ச்சி	-10.6975
டித்தாயிருக்கும்	-10.6975
ணித்தியாளங்களும்	-10.6975
வியாழக்கிழமை	-10.6975
வெள்ளிக்கிழமை	-10.6975
ீர்த்தி	-10.6975
▁2011.08.0	-10.6975
▁2012/01/01	-10.6975
▁அடுக்கமைவு	-10.6975
▁அடையிலக்கு	-10.6975
▁அணிவகுப்பு	-10.6975
▁அர்ப்பணித்த	-10.6975
▁அறுவடை	-10.6975
▁இயலாமை	-10.6975
▁இராஜகிரிய	-10.6975
▁உசாத்துணை	-10.6975
▁உடற்றொழி	-10.6975
▁ஊடுருவல்	-10.6975
▁எதிர்ப்பார்ப்பு	-10.6975
▁எதேச்சாதிகார	-10.6975
▁எழுதுவினைஞர்	-10.6975
▁ஏற்றுமதி	-10.6975
▁ஒழுங்கீனம	-10.6975
▁ஓரங்கட்ட	-10.6975
▁கலையரங்கு	-10.6975
▁கல்விபயிற்ற	-10.6975
▁காரணகாரிய	-10.6975
▁காலக்கிரம	-10.6975
▁குருனாகல்	-10.6975
▁கைநூலை	-10.6975
▁கைப்பிடி	-10.6975
▁சபாநாயகர்	-10.6975
▁சப்ரகமுவ	-10.6975
▁சமர்ப்பிப்ப	-10.6975
▁சர்வாதிகார	-10.6975
▁சிலாபம்	-10.6975
▁சீட்டிழுப்பு	-10.6975
▁சீர்த்திருத்த	-10.6975
▁சைக்கிள்	-10.6975
▁தனித்தனியாக	-10.6975
▁தற்றூண்ட	-10.6975
▁தியனிய	-10.6975
▁திருக்கோணமலை	-10.6975
▁திருப்பியனுப்ப	-10.6975
▁துடைத்தழி	-10.6975
▁நன்னடத்தை	-10.6975
▁நாட்குறிப்பேட	-10.6975
▁நிரற்படுத்த	-10.6975
▁நிருவகி	-10.6975
▁நீதவான்	-10.6975
▁நேர்கோட்டு	-10.6975
▁பணியாற்றொகுதி	-10.6975
▁பரிசோதிப்ப	-10.6975
▁பறைசாற்ற	-10.6975
▁புவிச்சரிதவியல	-10.6975
▁பெரிதாகிற	-10.6975
▁பெலந்தகொட	-10.6975
▁மரணசாசன	-10.6975
▁முதனிலை	-10.6975
▁முதலியவற்ற	-10.6975
▁முதிர்வு	-10.6975
▁முன்கூட்டிய	-10.6975
▁முன்னிறுத்துகை	-10.6975
▁மூதாதையர்	-10.6975
▁மேலதிகப்பற்று	-10.6975
▁மொணராகல	-10.6975
▁யுவதிகள	-10.6975
▁வருமதி	-10.6975
▁வழக்கெழ	-10.6975
▁விண்வெளி	-10.6975
▁விளித்துரை	-10.6975
▁வீடியோ	-10.6975
▁வெற்றொப்ப	-10.6975
▁வேண்டுமாயின்	-10.6975
பிஷேக	-10.6975
வரையறுக்கப்பெறாத	-10.6975
▁அநாதை	-10.6975
▁உத்தியோத்தர்கள	-10.6975
▁ஏகபோக	-10.6975
▁கடன்கொடுத்தோர்	-10.6975
▁களியாட்ட	-10.6975
▁காலாவதியான	-10.6975
▁சனாதிபதி	-10.6975
▁சிறைச்சாலை	-10.6975
▁சீர்கேட	-10.6975
▁சொற்களஞ்சிய	-10.6975
▁தகுதிகூர்	-10.6975
▁தட்டிக்கழி	-10.6975
▁தற்கொலை	-10.6975
▁தலையங்க	-10.6975
▁திருத்திக்கொடை	-10.6975
▁தெரிவித்திருந்த	-10.6975
▁நவராத்திரி	-10.6975
▁நிழற்பட	-10.6975
▁நிவர்த்தி	-10.6975
▁பாகுபாடு	-10.6975
▁பிரதானநீரோட்ட	-10.6975
▁பிரேரணை	-10.6975
▁மலசலகூட	-10.6975
▁மீன்பிடி	-10.6975
▁விசாரனை	-10.6975
▁வேற்றுமை	-10.6975
சனிக்கிழமை	-10.6975
ச்சிதைவு	-10.6975
▁அதாவது	-10.6975
▁அம்பலப்படுத்தல்	-10.6975
▁ஆக்கவுரிமை	-10.6975
▁இடையறா	-10.6975
▁தண்ணளி	-10.6975
▁துறவி	-10.6975
▁பங்குதாரர்	-10.6975
▁பட்டோலை	-10.6975
▁பிதாவழி	-10.6975
▁பிரதிபலிப்பு	-10.6975
▁பெருந்தோட்ட	-10.6975
▁மாநில	-10.6975
▁மேலாதிக்க	-10.6975
▁விலகிச்செல்	-10.6975
▁சமூகமயவாக்க	-10.6975
▁தற்காப்பு	-10.6975
:2014/	-10.6975
▁பதகளிப்பு	-10.6975
▁மறுத்துரை	-10.6975
ion	-10.6975
தீபாவளி	-10.6975
▁அகமுக	-10.6975
▁அறிவார்ந்த	-10.6975
▁கிடையான	-10.6975
▁கேட்கும	-10.6975
▁தருக்கமுறை	-10.6975
▁திட்ப	-10.6975
▁பட்டதாரி	-10.6975
▁யூரர்	-10.6975
▁காலக்கெடு	-10.6975
ஞாயிற	-10.6975
▁நீங்கலாக	-10.6975
▁பிரமச்ச	-10.6975
▁கமநல	-10.6975
▁கொள்நெறி	-10.6975
▁வாங்கியமை	-10.6975
▁ஒளிபரப்பியமை	-10.6975
▁பங்கேற்க	-10.6975
▁பெரும்பாக	-10.6975
▁உட்பிரவேச	-10.6975
▁கெஸ்	-10.6975
▁சனசம	-10.6975
▁கட்டுக்காவல	-10.6975
▁நிலவறை	-10.6975
க்கழகம்	-10.6975
▁வெறிதான	-10.6975
▁கற்றலுக்க	-10.6975
▁மட்டுப்பாடு	-10.6975
ந்தவறா	-10.6975
▁தூய	-10.6975
த்தேகம	-10.6975
▁கதிர்	-10.6975
▁காட்சியறை	-10.6975
▁புகார்	-10.6975
▁வாராந்த	-10.6975
▁எடுக்கப்பட்டிரா	-10.6975
▁பிணைப்பொறுப்பு	-10.6976
ஆவணச்சித்திர	-10.6976
ிகழ்ச்சிச்	-10.6976
▁மீளாய்வின	-10.6976
▁வல்லமை	-10.6976
வழக்குத்தொட	-10.6976
▁தன்னம்பிக்கை	-10.6976
▁மதிப்பெண்	-10.6976
▁இக்காலப்	-10.6976
விலக்குச்	-10.6976
▁கருத்திற்	-10.6976
▁சலிப்பு	-10.6976
▁வாரிசு	-10.6976
▁வேறாக	-10.6976
▁பின்னரான	-10.6976
▁பகிர்ந்தளிப்ப	-10.6976
ரத்நாயக்க	-10.6976
▁பிடியாணையின்றி	-10.6976
▁ஜே	-10.6976
▁1.2.4	-10.6976
▁களவாட	-10.6976
▁எடுத்துக்காட்ட	-10.6976
கண்ணாடி	-10.6976
▁6.5.	-10.6976
▁ஆக்கிரமிப்பு	-10.6976
▁ஞானம	-10.6976
▁எய்த	-10.6976
▁துணைப்பொருட்கள	-10.6976
▁கொடுமை	-10.6976
▁கட்டிளமைப்பருவ	-10.6976
ெடுத்துக்	-10.6976
▁நரம்புநோய்	-10.6976
▁உடலிய	-10.6976
▁சேமநல	-10.6976
▁டிஜி	-10.6976
▁முஸ்லிம்	-10.6976
▁அனுராதபுரம்	-10.6976
▁சீர்மை	-10.6976
ப்பிரிப்பு	-10.6976
▁கல்வன	-10.6976
▁மாதமொன்றி	-10.6976
▁2011.09.1	-10.6976
▁சைகை	-10.6976
▁கண்ணோட்டம	-10.6976
▁தியாகம்	-10.6976
▁துணைக்கருவி	-10.6976
முடியவில்லை	-10.6976
▁கணவன்	-10.6976
க்ஞை	-10.6976
தீர்மானிப்பதற்கு	-10.6976
▁கெட்ட	-10.6976
▁பறிமுதல	-10.6977
▁"03.	-10.6977
▁டெலி	-10.6977
▁மகிழ்வளிப்பு	-10.6977
▁கோட்பாட்ட	-10.6977
▁முன்பண	-10.6977
▁எவ்வ	-10.6977
▁அடுத்தடுத்த	-10.6977
▁நிகர்மாற்ற	-10.6977
த்தகாத	-10.6977
▁ஒப்புவித்தல	-10.6977
▁கலந்துகொண்ட	-10.6977
▁எளித	-10.6977
▁படிப்பறிவ	-10.6977
▁அகவய	-10.6977
▁ஓவிய	-10.6977
▁நெறிபிறழ்	-10.6977
டையுணி	-10.6977
▁உள்நு	-10.6977
▁தீங்கிய	-10.6977
▁செயற்பணி	-10.6978
▁நிறுத்தப்பட்ட	-10.6978
▁உரிமமளி	-10.6978
▁சூழ்ச்சி	-10.6978
ப்பெருக்க	-10.6978
▁யாப்பு	-10.6978
▁இழிவான	-10.6978
ெல்லிய	-10.6978
▁கேள்விக்கொத்து	-10.6978
ar	-10.6978
▁விஞ்சிய	-10.6978
▁சகிப்பு	-10.6978
ேஸ்வர	-10.6978
▁சிற்ப	-10.6979
▁சங்கேத	-10.6979
▁ரங்க	-10.6979
▁ஜு	-10.6979
▁நிகழ்த்தப்பட்ட	-10.6979
▁வாக்களி	-10.6979
▁உறுப்புரிமை	-10.6979
▁பேராசிரியர்	-10.6979
மூர்த்த	-10.6979
▁தேருநர்	-10.698
▁பின்னுரிமை	-10.698
▁பயன்பாட்டிற்கு	-10.698
▁ஏற்றுக்கொள்	-10.698
▁இணைப்பிரதி	-10.698
▁பலவற்றை	-10.698
▁அனுசரணையளித்த	-10.698
▁தொழிலாளி	-10.698
▁நகல்	-10.698
▁கட்டுபாட்டு	-10.698
▁வட்டார	-10.698
ாவன	-10.698
▁உரித்தாக்கல்	-10.698
▁தொழிற்பயிற்சி	-10.698
▁கைப்பணியாளர்களி	-10.6981
▁தலைவிகள	-10.6981
காமம்	-10.6981
▁ஆசிரியரியல்	-10.6981
▁தகுதிகாண்	-10.6981
▁வாழ்கின்ற	-10.6981
▁வயதிற்கு	-10.6981
லொக்	-10.6981
▁வலியுறுத்தப்பட	-10.6981
ப்படிவம்	-10.6981
▁ஒழிப்பு	-10.6981
▁எடுத்தலும்	-10.6981
▁அக்குரஸ்ஸை	-10.6981
▁ரம்ப	-10.6981
▁பொறுப்பேற்ப	-10.6981
▁ரியல்	-10.6981
▁அயல்	-10.6982
▁சீரழி	-10.6982
▁கற்பனா	-10.6982
▁வலுக்குறை	-10.6982
▁தெரிவான	-10.6983
▁முழுமையாக்க	-10.6983
▁பதவிநிலையினர்	-10.6983
▁திகதியன்ற	-10.6984
படவில்லை	-10.6984
▁2005	-10.6984
▁பூமி	-10.6984
▁தகைமைபெற்ற	-10.6984
▁தெளிவாக	-10.6984
▁எதிர்ச்செயல்	-10.6984
▁இறக்க	-10.6984
▁அமைவுசார்	-10.6984
▁சாசன	-10.6984
▁அம்பாந்தோட்டை	-10.6984
▁மேலாண்மை	-10.6985
▁வழக்காளி	-10.6985
▁பல்துறை	-10.6985
▁அறிந்து	-10.6986
▁விரிவுரையாளர்	-10.6986
▁மாற்றியமை	-10.6986
▁1982	-10.6986
▁மனதில்	-10.6986
▁நிஜ	-10.6986
▁சுவீகரித்தல்	-10.6986
▁ஓசை	-10.6987
▁நூற்ற	-10.6987
▁77	-10.6987
▁அளவிடுகை	-10.6987
▁பேராணை	-10.6987
▁கண்டறிமுறை	-10.6987
அதிகார	-10.6987
முருக	-10.6987
▁தேய்வு	-10.6988
▁பயிற்றப்பட்ட	-10.6988
▁எச்சரி	-10.6989
▁ஆரம்பிப்பதற்கா	-10.6989
▁86	-10.6989
▁விலகு	-10.6989
▁மூலதனமாக்க	-10.6989
▁எடுத்துக்	-10.6989
▁வழக்கிடத்தகு	-10.6989
▁நிறக்குருடு	-10.6989
▁நிர்ணயித்தல்	-10.6989
▁வாங்குதல்	-10.6989
▁வாதிடு	-10.6989
▁பராமரித்தல்	-10.699
▁இணையமைப்பு	-10.699
▁அதிகாரமளித்தல்	-10.699
குமார	-10.699
▁தடுத்துவைப்பு	-10.699
▁நிலையியற்	-10.699
▁புரிந்து	-10.699
▁இனங்களுக்கிடையே	-10.699
▁பிணிக்கும்	-10.6991
▁பேறு	-10.6991
▁மூலபாட	-10.6991
கட்டுப்பாட்டாளர	-10.6992
▁கெமரா	-10.6992
▁நுகசெவன	-10.6992
▁மேல்மாகாண	-10.6992
▁நாட்டிற்காக	-10.6992
▁பங்குத்தொகை	-10.6992
▁பங்கீட்டு	-10.6993
▁ஆகக்கூடிய	-10.6995
▁பாடநெறிகளுக்கு	-10.6995
ிறப்பியல்	-10.6995
▁ஒருமைப்பாட்டினை	-10.6995
▁72	-10.6996
▁செல்லிட	-10.6996
▁மாற்றத்தகு	-10.6996
▁காட்டுகின்றது	-10.6997
▁வண்ண	-10.6997
▁சார்புடை	-10.6997
▁பேற்று	-10.6997
▁67	-10.6998
▁வழிமொழி	-10.6998
▁ஆசிரியர்மைய	-10.6999
▁கொள்திற	-10.6999
▁சுறுசுறுப்பான	-10.6999
▁உறு	-10.6999
▁அறவிடக்கூடிய	-10.6999
▁எதிர்ப்பின்	-10.7
▁80	-10.7
▁மாறுநிலை	-10.7001
வன்ச	-10.7001
▁நிராகரித்தல்	-10.7001
▁காசாக	-10.7001
▁உடமை	-10.7001
▁அறவிடமுடியாக்	-10.7001
▁2000	-10.7001
▁வறித	-10.7001
யேற்பு	-10.7002
▁உடனடியாக	-10.7002
▁இழந்த	-10.7004
▁செயற்பாட்டிற்கு	-10.7004
▁தெரிவித்தல்	-10.7004
▁செப்பம	-10.7005
▁உரிமையாக்கு	-10.7006
▁விளையாட்டுக்கள்	-10.7006
▁கற்றற	-10.7006
▁ஏற்புடைய	-10.7007
▁எழுதப்பட்ட	-10.7007
▁"“	-10.7007
▁இயக்குபவர்	-10.7009
▁பிளவு	-10.7009
வௌ	-10.7009
மில்லா	-10.701
▁பாரப்படுத்தல்	-10.701
▁வருடங்களாக	-10.7011
▁பண்டங்கள்	-10.7011
▁அறிவினை	-10.7011
ராஜா	-10.7012
▁நடாத்தப்படும்	-10.7013
▁வரவேற்பு	-10.7014
▁செலுத்துவதற்கு	-10.7014
▁பொய்மை	-10.7015
▁ஒலியியல்	-10.7015
திர்ப்பு	-10.7016
▁துண்டிப்பு	-10.7016
▁சுயாட்சி	-10.7017
▁தளபாடங்களும்	-10.7018
▁விளக்கவியல்	-10.7018
▁நியமிப்பு	-10.7018
▁மதிப்புள்ள	-10.7018
▁சாடை	-10.7019
▁பரப்புகை	-10.7019
▁கடப்பாட்டு	-10.7019
▁செயற்திறன	-10.7019
▁பொழுது	-10.702
▁நீடிப்பு	-10.702
▁பயங்கரவாத	-10.702
▁குள	-10.7022
▁நிறுவகத்தி	-10.7022
▁நிறைந்த	-10.7024
▁ஒப்பளிப்பு	-10.7024
▁ஒருங்கிணைவு	-10.7024
▁ஐயப்பாட	-10.7024
▁பதிற்	-10.7024
ையடி	-10.7024
▁34	-10.7024
▁உறுப்பினர்களாக	-10.7025
▁மாடி	-10.7025
▁தவிர்ப்பு	-10.7026
▁33	-10.7027
▁சந்தா	-10.7027
▁விஷ	-10.7028
▁நிதியத்திற்கு	-10.7029
▁வலிமை	-10.703
▁வராத	-10.7032
▁பழமை	-10.7033
▁வர்க்க	-10.7034
▁கூட்டிணைப்பு	-10.7035
▁மெய்யியல்	-10.7036
▁பங்குபற்றல்	-10.7037
▁முயல	-10.7037
▁கருவிசார்	-10.7038
மில்லாத	-10.7038
▁அடையாளங்காண	-10.7039
▁சாதி	-10.704
▁நிலுவையாக	-10.704
▁சத்திர	-10.704
ருத்தியல்ரீதியான	-10.7041
▁பிடிப்பு	-10.7042
▁ஒழுங்குமுறை	-10.7043
▁பூசை	-10.7043
▁கலந்துரையாடலும்	-10.7044
நிற	-10.7044
ட்டுவை	-10.7044
த்தரம்	-10.7045
▁மரபுரிமையை	-10.7047
▁காவி	-10.7047
▁பிறழ்நிலை	-10.7047
▁பயனற்ற	-10.7048
▁வழங்கலும்	-10.7048
▁திங்கட்கிழமை	-10.7049
▁வங்கியாளர்	-10.7049
▁சொத்துக்களுக்கு	-10.7051
ுநோய்	-10.7052
▁குடும்பத்தினர	-10.7052
▁மீகஹ	-10.7054
▁சொற்றொடர	-10.706
▁செய்முறை	-10.706
▁மேம்படுத்துதல்	-10.706
ோலிய	-10.7061
▁கருமங்கள்	-10.7062
▁தண்டனைத்தீர்ப்ப	-10.7068
▁தேவ	-10.7068
▁உபகார	-10.7069
▁விதிக்கப்பட்ட	-10.7073
▁அதிகரிப்பதற்காக	-10.7073
▁அமைவு	-10.7078
ப்பாடம்	-10.7079
ருவாக்கம்	-10.708
▁செய்தலும்	-10.7082
▁அன்ட	-10.7084
▁ஊழியர்களுக்காக	-10.7084
▁கைமாற்ற	-10.7088
▁ஆன்ம	-10.7088
யமைவு	-10.709
▁தெல்	-10.709
▁கைப்பற்றல்	-10.7091
▁புடை	-10.7092
▁பதிவி	-10.7094
▁மாகாணங்களில	-10.7094
▁தண்டப்பண	-10.71
▁முறையியல்	-10.7101
▁சேமிக்க	-10.7106
ப்பக்கம்	-10.7108
▁கட்டிய	-10.7109
▁பதவிவழி	-10.7111
▁11-	-10.7114
தாரண	-10.7115
▁மாறுபாட	-10.7117
▁மெய்யுற	-10.7117
▁4.3	-10.7121
▁குறைவடைந்த	-10.7121
▁பொறு	-10.7121
▁உடு	-10.7123
▁இச்செயற்பாட்டி	-10.7124
ுக்கொள்ளல்	-10.7124
▁அருட்	-10.7126
▁அவர	-10.7128
▁தாபித	-10.7128
▁அடையாளமிட	-10.713
த்திருந்தது	-10.7135
▁ஆலயங்களில்	-10.7138
வாளி	-10.7139
▁பிரசித்தி	-10.7143
▁மேம்படுத்தி	-10.7144
▁ஒளிப்பட	-10.7145
குடியிருப்ப	-10.7148
▁தனியாள்மய	-10.7149
▁துணைநிலை	-10.715
▁பாதுகாப்புக்காக	-10.7154
ின்றது	-10.7156
▁கலப்பட	-10.7156
▁ஒன்றை	-10.7156
▁சம்பளங்கள்	-10.7158
▁பதிய	-10.7159
▁ஈடுபாட்ட	-10.7164
▁ஒருங்கியல	-10.7174
▁இணைவு	-10.718
தலைப்ப	-10.7183
▁விடயப்பரப்ப	-10.7184
▁விஞ்ஞாபனங்கள	-10.7184
2.1	-10.7186
▁இரசாயனவியல	-10.7197
▁வருடத்திற்கு	-10.7204
▁பக்கச்சார்ப	-10.7208
▁கங்க	-10.7219
▁ஆலயங்களுக்கு	-10.7222
▁முதுமை	-10.7239
▁தனித்துவ	-10.7242
▁நடாத்துவதற்கா	-10.7244
1.2014	-10.7247
ேற்று	-10.7252
▁கைநூல்களை	-10.7252
▁பெற்றோரை	-10.7254
▁தொழி	-10.7273
நடத்தப்பட்டுள்ளன	-10.7278
▁கொடுப்பனவிற்க	-10.7279
▁ஒற்றுமையை	-10.7279
▁மைதானத்தில	-10.7282
▁வடிவமைப்புக்கள	-10.7288
ிக்கப்பட்டிருந்த	-10.7303
▁நிலையற்ற	-10.731
▁அச்சக	-10.7312
▁அறவிடப்பட்ட	-10.7312
▁வழக்காட	-10.7328
வுணர்ச்சி	-10.7331
▁அறிவுறுத்தல்கள	-10.7337
▁தீயநோக்குட	-10.7337
▁வினைத்திறனுடன	-10.7337
பிரசுரிக்கப்பட்ட	-10.7339
▁பலவீன	-10.7346
▁நிறைவடைந்த	-10.7364
▁மேற்க	-10.7367
▁நார	-10.7368
▁கற்பித்தல	-10.7368
லுவ	-10.7374
▁புத்தள	-10.7377
ருநிலை	-10.7405
▁மேற்கொள்வதற்காக	-10.7418
▁ஒப்பளிக்க	-10.7418
▁அந்தஸ்த	-10.743
▁சதவீதத்தால	-10.7447
▁செய்தல	-10.7452
▁நிரப்ப	-10.746
ஒத்திவைக்கப்பட்ட	-10.7465
▁விளக்கப்பட	-10.7466
▁வழிப்படுத்த	-10.747
வெவ	-10.7472
▁தேவைப்படுகின்ற	-10.7479
▁கற்பதற்க	-10.7494
▁சரிசெய்த	-10.7501
விருத்தி	-10.752
83	-10.7525
▁உயிரை	-10.7526
▁பாதுகாப்பதற்கு	-10.7544
சுக்க	-10.7552
ரூப	-10.7561
▁தீர்க்கப்பட்ட	-10.7566
▁குடியிருக்க	-10.7576
▁அனுபவித்தல	-10.7579
▁பழுதுபார்ப்பு	-10.7588
▁சாராத	-10.7594
▁ஆகியவற்றில	-10.7594
▁ஏவல	-10.7605
▁ஊக்குவிப்ப	-10.7622
ிசை	-10.7656
▁நீர்கொழும்ப	-10.7656
▁தன்னிச்சைய	-10.7676
▁உருவழி	-10.7688
▁அமைப்பதற்க	-10.7697
▁கலந்துரையாடல	-10.7705
▁பூசுதல	-10.7727
▁சோம	-10.7769
▁பிங்க	-10.7774
▁2011.0	-10.7779
▁நோக்கத்துடன	-10.7792
வெது	-10.7805
▁வழங்குவதற்க	-10.7817
வற்றை	-10.782
▁மன்னிக்க	-10.7842
▁பிரிவிற்கு	-10.7849
ுகல	-10.7874
▁இடத்தில	-10.7884
பியர்	-10.7885
மெர	-10.7896
▁கலைஞர்கள	-10.7924
▁செலவினங்களுக்க	-10.7929
▁தேர	-10.7938
▁மாதம	-10.7956
▁கோப	-10.7972
▁வினாக்களை	-10.7985
▁தலைவன	-10.8026
▁பேரின	-10.8028
▁சுபா	-10.8038
▁தொழ	-10.8069
▁நாடி	-10.811
வினைத்திறன்மிக்க	-10.811
▁ஒவ்வ	-10.8116
▁கண்ண	-10.8156
▁கோரப்பட	-10.8156
▁காணப்படுகின்றன	-10.8163
றேன்	-10.8218
மேற்குறி	-10.8235
▁பூர்த்திசெய்	-10.8237
▁பாதக	-10.8246
▁உரித்தா	-10.8247
▁குடிம	-10.8248
▁"200	-10.8283
▁பணிக்குழுவ	-10.8287
▁விழாவிற்க	-10.8311
திரும்ப	-10.8317
▁பாலிய	-10.8324
▁ஆட்சேப	-10.8334
பிழை	-10.8352
▁மாதத்தில	-10.8357
▁ஒருவருக்க	-10.8374
▁கூட்டிணைக்கப்பட	-10.8382
▁என்பவற்றுக்க	-10.8395
▁குடும்பங்களில	-10.8396
ஞ்செய்த	-10.8405
▁பிரிக்கப்பட்ட	-10.8415
▁மாதங்கள	-10.8415
போட்டி	-10.8424
▁ஆபாச	-10.8425
▁வரையறு	-10.8441
▁அவதானிப்ப	-10.8456
பாங்க	-10.8467
யாய	-10.8485
படுகின்றன	-10.8501
▁பகிரங்கப்படுத்த	-10.8506
14.1	-10.8547
▁ஈடுசெய்	-10.8577
▁ஆபாசம	-10.8585
திறம்	-10.8585
▁ஈடுபாட	-10.8594
▁கட்டிடங்கள	-10.8611
▁தொலைநோக்க	-10.8621
பத்திரங்கள்	-10.8631
ரியா	-10.8698
க்கோரல்	-10.8735
▁உள்ளவர்கள	-10.8737
தற்குரிய	-10.8766
▁வேலைச்சட்டகத்த	-10.8802
4.1	-10.8851
▁அபி	-10.8863
▁இணையத்தளத்தில	-10.8871
ிடப்படும்	-10.8938
▁ஆட்சேபி	-10.8967
▁ரஜ	-10.8973
முகம்	-10.8982
▁மதிப்பாய்	-10.8992
இலங்கையின	-10.9011
▁இரத்	-10.9012
▁பண்ப	-10.9016
கடத்தல்	-10.9021
▁அதிகரித்த	-10.905
▁தெரிந்தெடு	-10.9053
வாசி	-10.9056
குடும்பம்	-10.9076
▁சந்தர்ப்பத்தில	-10.9135
▁கொள்கைகளுக்க	-10.915
▁தன்மையை	-10.9187
▁மன்னி	-10.9202
▁வாழுவதற்க	-10.9203
திரள்	-10.9239
ற்றவர்	-10.9244
▁பராதீன	-10.9249
மதிக்கப்பட்ட	-10.9253
▁பாடங்கள	-10.926
▁தருவ	-10.9279
▁பயன்பாட்டின	-10.9325
▁டொ	-10.9345
▁நாயக	-10.9349
ப்படுத்தப்படா	-10.935
நிறுவன	-10.9375
▁நிகழச்சி	-10.9386
▁சங்கத்தின	-10.9417
59	-10.9426
▁இதன	-10.9436
▁தினங்களில	-10.9446
▁பிரிவால	-10.9448
▁கொள்வதற்க	-10.9453
சேர்த்த	-10.9461
▁ஒழுங்கமை	-10.9465
▁நிறைவேற்றுவதற்க	-10.9469
▁அங்கவீன	-10.9477
▁ஆலயத்தில	-10.9487
ைவிட	-10.9491
புதுப்பிப்பு	-10.9526
விடப்பட்டிருந்த	-10.9528
▁ரூ	-10.955
▁அசைவ	-10.9558
▁ஒத்துழைப்ப	-10.9558
கொள்ளல்	-10.9597
தந்தி	-10.9607
▁தன்மையில	-10.9608
▁மேன்முறையீட்ட	-10.9617
▁குவி	-10.9627
▁செய்கை	-10.9634
▁தண்டிக்க	-10.9648
▁இற்றைப்படுத்தல	-10.965
▁ஒத்திவை	-10.9654
ென்ற	-10.966
ப்படவுள்ள	-10.9673
▁போட	-10.9677
வாதஞ்	-10.9683
▁செயற்படுத்துவத	-10.9722
லியன்	-10.9723
5.5	-10.9738
்டெழுத்தா	-10.9777
▁தூத	-10.9785
டைந்துள்ளன	-10.9792
▁நாட்டில	-10.9795
▁ஒப்பிட	-10.9818
▁முறையே	-10.9859
▁கால்வாய்	-10.9861
ய்ப்பு	-10.9907
▁விருத	-10.9923
▁அமுல	-10.9936
விசேட	-10.9951
▁தோல	-10.9954
ாவல்	-10.9954
ஆய்வரங்கு	-10.9958
▁எந்திர	-10.9966
▁தர்க்க	-10.9972
▁தேர்வ	-10.9989
▁முதல	-11.0004
▁காணப்படுவது	-11.0004
▁இரசாயன	-11.0009
மயமா	-11.0011
ோரப்	-11.0017
▁பட்டியல	-11.0036
கொள்ளப்பட்ட	-11.0054
▁திறனாய்வ	-11.0056
▁புள	-11.0065
சிங்கள	-11.007
ழைப்பு	-11.009
▁பிரமாண	-11.009
இச்செயற்பாட	-11.0102
▁வகிபாக	-11.0109
முடியும்	-11.0114
யுணர்வ	-11.0126
▁அழகியல	-11.0127
▁மாத்திரம	-11.0129
▁சாதனங்கள	-11.0133
▁முகவர	-11.0134
▁மென்பொருள	-11.0137
▁தற்செயல	-11.0139
▁தீர்த்த	-11.0141
▁சுயதொழில	-11.0143
▁தமிழ	-11.0145
▁உயர	-11.0148
▁அரசியல	-11.0149
விபரங்கள்	-11.0154
▁தடுப்பதற்க	-11.0157
▁பரவல	-11.0162
க்கணக்க	-11.0166
▁பிரிவினால	-11.0168
▁திரிபு	-11.0177
முரணான	-11.0178
ாமையால்	-11.0186
▁புதுப்பித்தல	-11.0196
கஹவ	-11.0201
திங்கட்கிழமை	-11.0207
விநாயக	-11.021
வேந்தர்	-11.021
பனுவல்	-11.0211
ஞாயிற்றுக்கிழமை	-11.0212
ஒழுங்குவிதி	-11.0212
கூட்டங்கள்	-11.0213
வெளிநாடு	-11.0214
த்தரமான	-11.0214
முயற்சி	-11.0215
இதுவரை	-11.0215
பொலன்னறுவை	-11.0216
தீர்வு	-11.0217
சுதந்திர	-11.0217
மன்னார்	-11.0217
பற்றிய	-11.0217
முல்லைத்தீவு	-11.0217
முதன்மை	-11.0218
முத்திரை	-11.0218
அம்பாறை	-11.0218
மூன்று	-11.0218
கட்புல	-11.0218
வீதம்	-11.0218
மீத	-11.0218
இரண்டா	-11.0218
புத்தளம்	-11.0219
முழு	-11.0219
நிரந்தர	-11.0219
பிரச்சினை	-11.0219
நிறைவேற்று	-11.0219
வேண்டும்	-11.0219
ஒதுக்கீடு	-11.0219
பரீட்சை	-11.0219
காரணி	-11.0219
வருடாந்த	-11.0219
வெளிநாட்டு	-11.0219
சர்வதேச	-11.0219
கொள்வனவு	-11.0219
ஆரம்ப	-11.0219
நியம	-11.0219
ஏனைய	-11.0219
மனித	-11.022
▁பெறுபேற	-11.0221
▁குறியீட்ட	-11.0222
ஜனவரி	-11.0222
▁மீட்டுக்கொள்	-11.0223
▁தற்றுணிப	-11.0224
வழு	-11.0225
▁தக்கவாற	-11.0225
▁ஒலிப்பதிவ	-11.0226
கட்டுப்பாடு	-11.0228
▁பின்வருமாற	-11.0228
கட்டமைப்பு	-11.0228
▁பண்பாட்ட	-11.0231
ாழ்வு	-11.0231
▁உறவ	-11.0231
சமநிலை	-11.0232
▁பாதீட்ட	-11.0234
▁வெளியக	-11.0236
நட்டம்	-11.0237
நேரலை	-11.0237
க்குழுக்கள்	-11.0238
தெரிவு	-11.0241
▁இணைத்துக்	-11.0243
க்குறைபாடு	-11.0245
ப்பட்டிருக்க	-11.025
காப்புறுதி	-11.025
▁நடப்ப	-11.0251
ப்பெறு	-11.0259
ிணைப்பு	-11.0263
▁பாரப்படுத்த	-11.0265
▁இழப்ப	-11.0265
▁நிபுண	-11.0266
நோக்கம	-11.0267
66	-11.0267
ிடமிருந்த	-11.0273
ீர்ப்பு	-11.0279
க்காப்பு	-11.0279
▁கேள்விமனு	-11.0281
▁பயிற்ற	-11.0283
▁தகுதியுடை	-11.0287
மைச்சர்	-11.0288
▁இன்றியமையா	-11.0288
▁துருப்பிடி	-11.0289
டங்கிய	-11.0293
னுபவம்	-11.0297
லுவல்கள்	-11.0298
ம்பாந்தோட்டை	-11.0301
வோலை	-11.0302
ிர்த	-11.0302
வாயு	-11.0302
டிப்படையிலான	-11.0304
▁செயற்றிறன	-11.0305
டன்படிக்கை	-11.0305
▁விளையாட	-11.0306
▁யாழ்ப்பா	-11.0307
ப்பாதை	-11.0307
▁உத்தியோக	-11.0307
▁களுத்த	-11.0308
ுமீற	-11.0308
▁சிந்தி	-11.0308
▁தன்னம்பிக்கைய	-11.0308
பலாங்கொடை	-11.0308
▁மேலோட்ட	-11.0308
ுமிடத்து	-11.0308
மண்டலம்	-11.0309
▁ஆளுருவ	-11.0309
▁செவிமடு	-11.0309
அசௌகரியங்களுக்கு	-11.0309
அனைவரையும்	-11.0309
கட்டுக்குருந்த	-11.0309
சங்கீத	-11.0309
ச்செருகல	-11.0309
ஜேர்மனிய	-11.0309
தண்ணீர்	-11.0309
மேன்முறையிடத்தகு	-11.0309
யூடுருவ	-11.0309
றாதிருக்கையில்	-11.0309
ற்கூறு	-11.0309
வனெல்ல	-11.0309
வழித்தோன்றல்	-11.0309
வெஹெர	-11.0309
ாராய்ச்சி	-11.0309
▁(2011	-11.0309
▁01/01/201	-11.0309
▁2011.11.1	-11.0309
▁2015.04.2	-11.0309
▁அகத்திறப்பாங்கு	-11.0309
▁அசட்டை	-11.0309
▁அசையுணர்வு	-11.0309
▁அடுக்கமைப்பு	-11.0309
▁அறிககைகள்	-11.0309
▁அற்றோணி	-11.0309
▁அளாவிய	-11.0309
▁இக்கதவுகள	-11.0309
▁இசைக்கூத்து	-11.0309
▁இறுவெட்டுக்கள	-11.0309
▁இளைப்பாற	-11.0309
▁உக்குவளை	-11.0309
▁உடனிகழ்	-11.0309
▁உணர்ச்சிப்பாடல்	-11.0309
▁உள்வளர்ச்சிப்	-11.0309
▁எண்ணெய்	-11.0309
▁எதிர்ப்பாரா	-11.0309
▁ஏய்த்துவஞ்சி	-11.0309
▁ஏளனம்	-11.0309
▁ஒன்றுதிரட்ட	-11.0309
▁ஒளியூட்டுதல்	-11.0309
▁ஒழுக்கவியலும்	-11.0309
▁கத்தோலிக்க	-11.0309
▁கருத்திற்கொள்ள	-11.0309
▁கலையரங்கம்	-11.0309
▁கவனயீனமாக	-11.0309
▁குடியமர்த்தல்	-11.0309
▁குடிவெறி	-11.0309
▁குலமரபு	-11.0309
▁கெசட்	-11.0309
▁கேலிச்சித்திரம்	-11.0309
▁கையிருப்பில	-11.0309
▁கொள்கின்றேன்	-11.0309
▁கொழும்பில	-11.0309
▁சட்டமன்றம்	-11.0309
▁சட்டமியற்றும்	-11.0309
▁சித்தசுவாதீனம	-11.0309
▁சித்தியடைந்த	-11.0309
▁சிற்றூழியர்	-11.0309
▁சூழற்காரணி	-11.0309
▁செலாவணி	-11.0309
▁ஜெய	-11.0309
▁தனமல்வில	-11.0309
▁தவறுதலான	-11.0309
▁தவிசாளர்	-11.0309
▁தாபித்துள்ளது	-11.0309
▁தாய்லாந்த	-11.0309
▁திடநம்பிக்கை	-11.0309
▁தீங்கிழை	-11.0309
▁துக்கபீடை	-11.0309
▁துலாம்பரமா	-11.0309
▁தெறிவினை	-11.0309
▁தெளிவின்மை	-11.0309
▁தொகுத்தறி	-11.0309
▁தொடுதளம	-11.0309
▁நன்னெறி	-11.0309
▁நாடோடிக்கதைகள்	-11.0309
▁நிர்வகிக்க	-11.0309
▁நிலக்கிழார	-11.0309
▁நெடுங்கணக்கு	-11.0309
▁பங்காளாக்கள்	-11.0309
▁பங்குலாப	-11.0309
▁பண்டகசாலை	-11.0309
▁பயிரிட	-11.0309
▁பரிவர்த்தனை	-11.0309
▁பருத்தித்துறை	-11.0309
▁பாராதீனப்படுத்த	-11.0309
▁பிற்சந்ததி	-11.0309
▁புறக்கணிப்பு	-11.0309
▁புலப்பதிகை	-11.0309
▁பூண்டோடொழி	-11.0309
▁பூர்வாங்க	-11.0309
▁பூர்வீக	-11.0309
▁மதுராவல	-11.0309
▁மனநிறைவடையாத	-11.0309
▁மரணப்படுக்கை	-11.0309
▁மஹியங்கன	-11.0309
▁மாங்குளம்	-11.0309
▁மீரிகம	-11.0309
▁முன்னாலோசித்த	-11.0309
▁மேம்பாட்டிற்கா	-11.0309
▁றொகுதிக	-11.0309
▁வடிகாலமைப்பு	-11.0309
▁வாக்கெடுப்பு	-11.0309
▁வானூர்தி	-11.0309
▁வியாதிகள்	-11.0309
▁விருத்தியடைவத	-11.0309
▁விழுமியங்களை	-11.0309
▁வெற்றியளிக்காமை	-11.0309
▁வெலகெதர	-11.0309
▁வெள்ளவாய	-11.0309
▁வேறுபடுத்தி	-11.0309
▁ஹம்பந்தொட்ட	-11.0309
த்தரப்பினர்	-11.0309
மொழித்தேர்ச்சியை	-11.0309
லிஹினி	-11.0309
▁2011.04.2	-11.0309
▁அரைக்கோள	-11.0309
▁உதானய	-11.0309
▁எழுத்தாவண	-11.0309
▁ஐயத்திற்கிட	-11.0309
▁ஒத்தியங்கா	-11.0309
▁ஒய்வூதிய	-11.0309
▁கடமைச்சுற்று	-11.0309
▁கடற்பயண	-11.0309
▁கிராமாதிபத்திய	-11.0309
▁குருகுல	-11.0309
▁குருபூஜை	-11.0309
▁சமச்சீர	-11.0309
▁சர்வாதீன	-11.0309
▁சுகயீன	-11.0309
▁சுயேட்சை	-11.0309
▁தசாப்த	-11.0309
▁தற்பாற்காம	-11.0309
▁தீயெண்ண	-11.0309
▁நட்சத்திர	-11.0309
▁நெட்டுரு	-11.0309
▁பகுத்தாராய்வு	-11.0309
▁பரிச்சயம	-11.0309
▁பரிணாம	-11.0309
▁பாடப்புத்தகங்கள	-11.0309
▁பாய்ச்சல	-11.0309
▁பாரபந்த	-11.0309
▁மட்பாண்ட	-11.0309
▁வல்போத்தலே	-11.0309
▁விட்டுவிடு	-11.0309
▁விரலடையாள	-11.0309
▁வைப்பிலிட	-11.0309
கச்சேரி	-11.0309
குருவிட்ட	-11.0309
▁2014/32	-11.0309
▁அகரவரிசை	-11.0309
▁அடுக்குமாடி	-11.0309
▁அட்டோர்னி	-11.0309
▁அரையாண்டி	-11.0309
▁இன்னலுற்ற	-11.0309
▁இயலும	-11.0309
▁இராசதந்திர	-11.0309
▁கருவூல	-11.0309
▁குடிமதிப்பு	-11.0309
▁கேட்பு	-11.0309
▁சத்தியஞ்செய்	-11.0309
▁சேவையாற்றிய	-11.0309
▁ஜனரஞ்சக	-11.0309
▁தபிலோய	-11.0309
▁தள்ளிவை	-11.0309
▁தொட்டுணர	-11.0309
▁நன்னம்பிக்கை	-11.0309
▁நாற்காலி	-11.0309
▁பரபரப்பான	-11.0309
▁மூக்குக்	-11.0309
▁விலைமனு	-11.0309
▁உருப்படியான	-11.0309
▁ஏலமிடு	-11.0309
▁ஒழுங்கற்ற	-11.0309
▁கலைச்சொல்ல	-11.0309
▁தருக்கரீதியான	-11.0309
▁திருப்புமுனை	-11.0309
▁தொகுக்கப்பட்ட	-11.0309
▁பம்பலபிட்டி	-11.0309
▁பிரிபடா	-11.0309
▁பேரழிவு	-11.0309
▁மில்லியன்	-11.0309
▁மீடியா	-11.0309
▁முதிர்ச்சி	-11.0309
▁முன்னுதாரண	-11.0309
▁முன்வாங்கு	-11.0309
▁விளம்பரதாரர்	-11.0309
கருத்துக்கணிப்பு	-11.0309
▁உரோம	-11.0309
▁ஒழித்தல்	-11.0309
▁கடனுதவி	-11.0309
▁கணிசமான	-11.0309
▁கப்பலோட்டி	-11.0309
▁துப்புரவ	-11.0309
▁பற்றொப்ப	-11.0309
▁பிரபஞ்ச	-11.0309
▁புறமுக	-11.0309
▁யூரரை	-11.0309
▁விவாகரத்து	-11.0309
நாமதேய	-11.0309
▁அனாதை	-11.0309
▁அயலார	-11.0309
▁இயலாற்ற	-11.0309
▁தொடம்கொட	-11.0309
▁பல்கூட்டு	-11.0309
▁மஞ்சரி	-11.0309
▁முதிரா	-11.0309
▁ரத்துச்	-11.0309
▁செவ்வைபார்	-11.0309
▁பொதுவுடமை	-11.0309
▁மதிப்பிறக்க	-11.0309
▁மென்கணிய	-11.0309
▁மௌன	-11.0309
▁வழக்குரைஞர்	-11.0309
ண்மித்த	-11.0309
▁அன்றாட	-11.0309
▁ஒலிபெருக்க	-11.0309
▁கடல்கடந்த	-11.0309
▁காண்பதற்க	-11.0309
▁திருவாசக	-11.0309
▁இருப்பாட்சி	-11.0309
▁சழுகை	-11.0309
▁மோசமா	-11.0309
▁ஆற்றலுள்ள	-11.0309
▁தொழிற்சங்க	-11.0309
ப்பிரபு	-11.0309
▁உறிஞ்சி	-11.0309
▁ஒழுங்கான	-11.0309
▁சரணடை	-11.0309
▁சூதாட்ட	-11.0309
▁திருக்கோயில	-11.0309
▁தேர்ந்த	-11.0309
▁பிரித்தறி	-11.0309
▁புடவை	-11.0309
▁மீற்றர்	-11.0309
▁இலதாக்கு	-11.0309
▁எளிமை	-11.0309
▁தரைப்படை	-11.0309
▁நகர்புற	-11.0309
▁வாதாடு	-11.0309
▁இடைநேர்	-11.0309
▁பயபக்திய	-11.0309
▁புரட்சிகர	-11.0309
▁ஆலோசனையின்படி	-11.0309
▁தலைப்புச்செய்தி	-11.0309
▁பங்குபெற	-11.0309
▁அவுருது	-11.0309
▁சுற்றுப்புற	-11.0309
▁முட்டாள	-11.0309
▁முப்பகுதி	-11.0309
▁மொழிச்சங்க	-11.0309
▁வகுதி	-11.0309
▁கல்கமுவ	-11.0309
▁சுறுக்க	-11.0309
▁மேலனுப்ப	-11.0309
▁விருந்தோம்ப	-11.0309
▁தடங்கல்	-11.0309
▁பரிதாப	-11.0309
▁உடந்தையா	-11.0309
▁உற்ச	-11.0309
▁வாய்க்கால்	-11.0309
நிழல்	-11.0309
▁காட்சிப்படிவ	-11.0309
▁தலைகீழ	-11.0309
▁தவறிழைத்த	-11.0309
▁புதிர்	-11.0309
▁மேடையேற்ற	-11.0309
▁வெற்றியடை	-11.0309
▁துணிச்சல	-11.0309
கனரக	-11.0309
▁அத்துமீறு	-11.0309
▁நல்குதல	-11.0309
▁உளக்கருத்து	-11.0309
▁கருணை	-11.0309
▁தாங்கி	-11.0309
▁பசறை	-11.0309
யுயர்வ	-11.0309
▁ஏல்தகு	-11.0309
▁தொங்கல்	-11.0309
▁அலட்சிய	-11.0309
▁பிரேத	-11.0309
போனவர்	-11.0309
▁அறுக்கை	-11.0309
லாயுத	-11.0309
▁தளர்த்த	-11.0309
▁கவனக்குறைவ	-11.0309
ுங்கால	-11.0309
▁ஆயிடை	-11.0309
▁ஜயவர்தன	-11.0309
▁தொல்லை	-11.0309
▁வரவிலிட	-11.0309
▁தொடுத்துக்	-11.0309
▁2011.09.2	-11.0309
▁ஒருபுடை	-11.0309
▁சுருங்க	-11.0309
▁சார்புநிலை	-11.0309
▁வாழ்வியல்வாத	-11.0309
▁மணிமண்டபத்தி	-11.0309
▁சீனாவி	-11.0309
▁சுரப்பி	-11.0309
▁பரீட்சார்த்த	-11.0309
▁வௌி	-11.0309
ப்போலி	-11.0309
யொன்றினை	-11.0309
▁வருண	-11.0309
▁உறையுள	-11.0309
▁முப்படையின	-11.0309
▁சமர்பிக்கப்பட்ட	-11.0309
பெற்றுக்கொடுப்பத	-11.0309
ம்மீதி	-11.0309
▁செய்துகாட்ட	-11.0309
▁பணியமர்த்தல	-11.0309
▁பார்த்து	-11.0309
▁யுக்தி	-11.0309
வுகோல்	-11.0309
▁புறநோக்க	-11.0309
▁திகில்	-11.0309
▁வருகைதரா	-11.0309
ிப்பூட்டல்	-11.0309
▁அடைதல்	-11.0309
▁அதேவேளையில்	-11.0309
நாகரிக	-11.0309
▁சிறித	-11.0309
▁தடக்கு	-11.0309
▁பதிவேட்டின	-11.0309
▁ஏகோபித	-11.0309
▁சில்வா	-11.0309
▁இக்கட்டு	-11.0309
▁கண்டிப்பான	-11.0309
அவையாவன	-11.0309
சல்மல்	-11.0309
▁மூப்பு	-11.0309
கொஸ்கம	-11.0309
▁அச்சடித்தல	-11.0309
▁ஒற்றையாட்சி	-11.0309
.11.2014	-11.0309
▁சமர்ப்பணம	-11.0309
▁சட்டகத்தினை	-11.0309
▁துருவ	-11.0309
▁2011.10.0	-11.0309
▁உள்கட்டமைப்பு	-11.0309
▁சுதர்	-11.031
▁கூர்ப்பு	-11.031
▁பாத்திரவார்ப்பு	-11.031
▁தாபிப்பதற்க	-11.031
▁மீட்டெழுத	-11.031
▁மீள்வரு	-11.031
▁தேக்கங்களில	-11.031
▁கடன்கொடுத்தவர	-11.031
▁பட்டியலிடப்பட்ட	-11.031
▁காற்று	-11.031
▁அருமை	-11.031
கிவுள	-11.031
▁குடியக	-11.031
▁வளமூட்ட	-11.031
▁மருத	-11.031
▁பிலிம்	-11.031
னேஸ்வரி	-11.031
▁ரைகம்	-11.031
▁சேமித்து	-11.031
▁செய்திப்பிரிவின	-11.031
▁சுன்ன	-11.031
▁தீரச்செயல்	-11.031
▁வினவு	-11.031
ொதுக்கு	-11.031
▁தலங்கள்	-11.031
▁பீடாதிபதி	-11.031
▁மரணதண்டனை	-11.031
▁அழகியற்	-11.031
▁தக்கவைப்பு	-11.031
▁மகவேற்பு	-11.031
▁இச்சை	-11.031
▁அறக்கொடை	-11.031
▁தாவரவிய	-11.031
▁கட்டுக்காப்பு	-11.0311
▁வழங்குமிட	-11.0311
▁கண்டனம்	-11.0311
▁புகழ்பெற்ற	-11.0311
▁அனுப்பிவைக்க	-11.0311
▁பிரதிபலிக்க	-11.0311
▁சமூகமயமாக்கள	-11.0311
▁சார்த்துரை	-11.0311
▁விரிவுபடுத்த	-11.0311
▁வளர்ந்தோர்	-11.0311
▁தொல்பொருளியல்	-11.0311
▁கழு	-11.0311
▁சன்ன	-11.0311
▁தயவு	-11.0311
▁சுற்றாய்வு	-11.0311
▁மக்களிடத்தில	-11.0311
▁இந்தியா	-11.0311
▁விளக்கமளிக்க	-11.0311
▁மாநாட்டு	-11.0311
▁வலுவொழி	-11.0311
▁நிதிக்குத்தகை	-11.0311
▁கூற்றின்	-11.0311
▁குடிமகன	-11.0311
▁ஆவணக்காப்பக	-11.0311
▁புகழ்ச்சி	-11.0311
ட்சமான	-11.0312
▁பல்தொழில்நுட்ப	-11.0312
▁விற்பவர	-11.0312
இராஜினாமாச்	-11.0312
▁உட்புற	-11.0312
ஒப்புக்கொள்ளுதல்	-11.0312
▁நிரூப	-11.0312
▁உதய	-11.0312
▁ஆளெடு	-11.0312
▁ஒதுக்கிவை	-11.0312
▁மேலொப்பம	-11.0312
▁காவலர்	-11.0312
▁மொரவ	-11.0312
▁வசதியளித்தல்	-11.0312
▁கைதுசெய்	-11.0312
ூட்டுகிற	-11.0312
▁கையளிக்கப்பட்ட	-11.0312
▁ஏற்பளிக்கப்பட்ட	-11.0312
▁களுத்தறை	-11.0313
▁நாணயமாற்று	-11.0313
▁எழுத்தறிவுடைய	-11.0313
▁தீவிர	-11.0313
▁நடித்தல்	-11.0313
▁உதிரிப்பாகங்கள்	-11.0313
▁வழக்கிழந்த	-11.0313
▁"1.2.6	-11.0313
ாண்டில	-11.0313
AS	-11.0313
▁வலியுறுத்தத்தகு	-11.0314
▁குணப்பாங்கு	-11.0314
▁பேரார்வ	-11.0314
▁வன்பொருள்	-11.0314
▁சுற்றுலாத்துறை	-11.0314
▁மனத்தோற்ற	-11.0314
▁தூண்டி	-11.0314
▁வந்துறு	-11.0314
த்தக்கதல்ல	-11.0314
▁ஆக்கக்கூறு	-11.0315
▁வழிவகைகள	-11.0315
▁ஆர்வலர்கள	-11.0315
▁அரசுப்பணி	-11.0315
▁தொழிற்துறைய	-11.0315
▁பெரித	-11.0315
▁கீழமைவு	-11.0315
ொணா	-11.0315
▁அங்கத்துவ	-11.0315
▁அறஞ்சார்	-11.0316
▁கம்பகா	-11.0316
▁மகத்துவம	-11.0316
▁வாய்மொழிமூல	-11.0316
▁ஒன்றிப்பு	-11.0316
▁கூறியத	-11.0316
▁கஷ்டமான	-11.0316
▁செயலூக்க	-11.0316
▁"1.2.2	-11.0316
▁மிருத	-11.0316
ிச்சுவட	-11.0316
▁இனத்தவர்கள	-11.0316
▁வரைவோலை	-11.0316
/2009	-11.0316
▁தளர்ச்சி	-11.0316
▁அதிகமானோர	-11.0317
▁குறைவடைந்தமைய	-11.0317
▁பயிற்றுவிப்ப	-11.0317
▁அதிகரித்தமைய	-11.0317
▁கையகப்படுத்த	-11.0317
▁மல்லவ	-11.0317
குருடு	-11.0317
▁2015.10.	-11.0317
▁சுருக்கமுறையற்ற	-11.0317
▁மாதாந்தப்பணம்	-11.0317
▁ஆய்வியல்	-11.0318
▁ஊக்குவித்தல்	-11.0318
▁வைப்பீட்டு	-11.0318
▁உபயோகிக்க	-11.0318
▁பிற்சேர்ப்பு	-11.0318
▁கூட்டாட்சிய	-11.0318
▁15%	-11.0318
▁உரத்த	-11.0318
▁செருக்கு	-11.0319
▁எழுச்சி	-11.0319
▁அழையா	-11.0319
▁செவிடு	-11.0319
▁வரிப்படங்கள	-11.0319
▁வான்வழி	-11.032
ஜென	-11.032
▁ஆண்வழி	-11.032
▁முறையீட்ட	-11.032
▁பிரபல்யம	-11.032
▁மெய்ப்பி	-11.032
▁31.12.2014	-11.032
▁துய்	-11.032
▁ஆதரி	-11.032
▁யச	-11.0321
▁பாதிக்கும்	-11.0321
▁கடுமையாக	-11.0321
▁சாறுகள	-11.0321
▁செலவிடு	-11.0321
▁திகன	-11.0321
▁கட்டுறுதி	-11.0321
▁உயிரியல்	-11.0322
▁தூண்	-11.0322
த்தேவை	-11.0322
▁வைத்தலும்	-11.0322
▁மொழியறிவ	-11.0322
▁மறுதார	-11.0322
▁வழிபாட்டு	-11.0322
▁சமமானவை	-11.0323
▁குவிதல்	-11.0323
▁01/201	-11.0323
▁பகுத்தறிவுள்ள	-11.0323
▁கைமாற்றுதல்	-11.0323
▁பரும	-11.0323
▁செயற்படுகிற	-11.0324
▁வழியுரிமை	-11.0324
▁சிந்திப்பு	-11.0324
▁போதியளவு	-11.0324
▁குடித்தொகை	-11.0324
▁நாடுகளுக்க	-11.0324
▁பொறுப்புக்கூற	-11.0324
சின்னம	-11.0324
▁09-2	-11.0325
▁உபாயத்த	-11.0325
▁மேலோட்டமான	-11.0325
▁தடுத்துவைத்தல்	-11.0325
மையத்திலான	-11.0325
▁சடங்கு	-11.0325
▁மேற்கூறிய	-11.0326
மனதிற்	-11.0326
▁நீதியாய	-11.0326
▁ஆசார	-11.0326
▁ஒழுக்கநெறி	-11.0326
▁பேணுவதற்கு	-11.0327
▁அறிவுறுத்துதல்	-11.0327
▁மன்றாணை	-11.0327
▁வளங்களையு	-11.0327
▁அளவறி	-11.0327
▁பணிபுரி	-11.0328
▁செப்ட	-11.0328
▁செய்யாது	-11.0328
▁கிடைப்பட	-11.0328
▁துருப்பிடித்த	-11.0328
▁நல்லிணக்கம	-11.0329
▁சுருள்	-11.0329
▁இன்றியமையாத	-11.0329
தர்மாச	-11.0329
▁பொறுப்பாட்சி	-11.0329
▁சாமர	-11.0329
▁இடஞ்சார்	-11.0329
▁ஒத்திவைத்த	-11.033
டர்த்தி	-11.033
▁தகுதியின்மை	-11.033
▁2011.06.	-11.0331
▁இயந்திரத்தை	-11.0331
▁வாய்வழி	-11.0331
▁68	-11.0332
▁காண்பிக்கப்பட	-11.0332
▁நேர்படி	-11.0332
▁இயங்குநிலை	-11.0332
▁நேர்மையான	-11.0332
▁வராமை	-11.0332
▁பார்க்கக்கூடிய	-11.0333
▁விளைவற்ற	-11.0333
▁இலங்கையர்களின	-11.0334
சனச	-11.0334
சூனிய	-11.0334
▁றியல	-11.0334
▁அலைந்து	-11.0334
▁91	-11.0334
▁உள்ளடங்கலா	-11.0334
▁வெளியிட்டத	-11.0334
▁சோடி	-11.0335
▁அசையும்	-11.0335
▁பரீட்சித்தல்	-11.0336
▁மறைகா	-11.0336
▁நான்கா	-11.0336
▁பேணுகை	-11.0337
▁92	-11.0337
▁இழிவு	-11.0337
▁தோற்றப்பாடு	-11.0337
▁அத்தியாவசியமான	-11.0338
▁உள்ளமையான	-11.0338
▁வழங்குவதே	-11.0339
▁ஊசி	-11.0339
மத்தியஸ்த	-11.0339
▁பேரணி	-11.034
▁சொத்துரிமை	-11.034
▁175	-11.034
▁மொழிமூல	-11.034
▁மாகாணசபை	-11.034
▁வழங்கினா	-11.034
▁உடைவு	-11.034
▁நடத்தப்படும்	-11.0341
▁செலுத்தத்தக்க	-11.0341
▁கிரிக்க	-11.0341
▁வகுக்க	-11.0341
▁செய்வதுடன்	-11.0341
▁முடிக்கப்பட்ட	-11.0341
▁அக்குடும்ப	-11.0342
ப்பெண்	-11.0342
▁சாட்டுதல்	-11.0342
▁பிள்ளைமைய	-11.0343
சார்பான	-11.0343
▁நடாத்தலும்	-11.0344
▁சேவைக்காலத்தை	-11.0344
▁தடங்	-11.0345
▁உருக்குலை	-11.0345
▁பணத்தொகை	-11.0346
▁பரப்புரை	-11.0346
▁இடையிலான	-11.0346
▁முன்னணி	-11.0346
▁கேத்திர	-11.0347
▁வாழ்க்கைப்படி	-11.0347
▁64	-11.0347
ஹார	-11.0348
ங்களிற்கும	-11.0348
▁வரம்ப	-11.0348
▁சமகால	-11.0348
▁அடுத்துறு	-11.0349
▁பொதுநல	-11.035
▁157	-11.0351
▁தனித்துவமான	-11.0352
▁பதிப்புரு	-11.0354
▁ஆயுள்	-11.0354
▁அமைதியாக	-11.0356
▁வேலைத்தள	-11.0357
▁நிரு	-11.0357
▁அனுமதிதகு	-11.0357
ோம்பு	-11.0358
வழிவந்த	-11.0358
▁துணிபு	-11.036
▁பொச	-11.036
▁பங்குபற்றுவதற்க	-11.0361
4.3	-11.0363
▁இருபால	-11.0364
▁கதவ	-11.0365
▁தாழ்வு	-11.0366
▁நீதியானதும	-11.0366
▁வழங்கீட்டு	-11.0367
▁உரைபெயர்ப்பாளர்	-11.0369
▁கட்டுவதற்கு	-11.0369
▁இருக்கின்ற	-11.0371
செதுக்கு	-11.0372
கனே	-11.0374
▁குட்ட	-11.0374
▁கழிக்கப்பட்ட	-11.0376
▁எட்டு	-11.0376
▁இல்லாம	-11.0379
▁வள்ள	-11.0382
▁வெளியகற்ற	-11.0384
ச்செயற்பாடு	-11.0386
▁இணைப்படி	-11.0386
ந்துறை	-11.0387
▁கிடைத்தமைய	-11.0388
▁ஒதுக்குதல்	-11.0393
▁போட்டியிடு	-11.0393
▁நுண்ண	-11.0396
▁சுசி	-11.0398
▁ஆளா	-11.0399
பாரதி	-11.0402
முறையீடு	-11.0403
டெகா	-11.0405
▁நின்ற	-11.0412
▁ஒளிபரப்புவதற்கு	-11.0413
கலந்து	-11.0414
▁எடுப்பதாக	-11.0415
திறனுடை	-11.0416
அண்ணளவாக	-11.0419
▁போதைப்பொருள	-11.0422
ஜ்ஜ	-11.0423
ப்பட்டுள்ளதாக	-11.0424
▁கணேச	-11.0426
ித்துரை	-11.043
ர்த்தா	-11.0435
▁2015.0	-11.0436
▁இடைவிட	-11.0438
▁எழுத்துக்களை	-11.0438
▁உடன்பாட்ட	-11.0438
▁பிணக்குகள	-11.044
தயார	-11.0444
புவத்	-11.0445
மாற்றுண்டியல்	-11.045
▁சலுகைக்கடன	-11.0453
▁சேர்ப்பி	-11.0459
▁நிதிப்பிரமாண	-11.046
▁முற	-11.0466
▁கலந்துகொள்ள	-11.0469
▁கிழமைப்பாட	-11.047
▁என்பனவற்ற	-11.0478
▁நேர்மாற்ற	-11.0483
▁உருவாக்குவத	-11.0485
▁செய்தியாளர்கள	-11.0497
▁சோம்பல	-11.0498
▁மறுசீரமைக்க	-11.0503
▁விழிப்பூட்டுவத	-11.0518
▁உடனிணை	-11.0532
▁சேவையாளர்கள	-11.054
▁சேர்த்தல	-11.0548
▁குற்றவழக்க	-11.0557
▁கலையகங்கள	-11.0562
▁தேற	-11.0562
▁தேய்	-11.0568
அச்செழுத்துக்கலை	-11.0577
▁கொடுங்கோல	-11.0579
ந்துகொள்ள	-11.0582
இத்திணைக்களத்தின	-11.0602
ிதம	-11.0604
ுபடுத்துதல்	-11.0608
▁புலனறிவ	-11.0615
ுதிப்படுத்து	-11.0627
ூட்டல்	-11.0629
▁போன்றவற்றிற்க	-11.0644
தாண்டல்	-11.0647
▁நிறுத்திவை	-11.0654
▁கொடுப்பனவாக	-11.0657
சமுதாயத்தின	-11.0665
▁பணிநீக்க	-11.0672
▁மன்றாய	-11.0677
நீதிமுறைப்படுத்த	-11.0679
▁குறிப்புக்கள	-11.0684
லாகல	-11.0689
▁என்பதற்க	-11.0704
11.30	-11.0707
▁தர்க்கரீதிய	-11.0709
திலக	-11.0721
▁யடி	-11.0743
▁வேண்டுதல	-11.0743
▁சொந்தக்காரர	-11.0744
▁மாற்றாட	-11.0756
ுவிப்பு	-11.0758
▁உட்பட்டதாக	-11.0784
▁இணக்கப்பாட	-11.0795
▁முடிவிட	-11.0809
▁நிறைவுசெய்ய	-11.0828
5,6	-11.0842
கொல்ல	-11.0849
▁நிலைபெறு	-11.0852
▁தேவைப்படுத்த	-11.0853
▁அங்கீகரி	-11.087
▁துணைச்சட்ட	-11.0887
▁குற்றப்பத்திர	-11.0892
▁கண்டறித	-11.0936
▁புரிந்துணர்வினை	-11.0952
▁உள்ளோர	-11.0975
▁குவிவ	-11.1013
நாடுநர்	-11.1024
விருதுவிழா	-11.1025
▁திருத்தியமைத்தல	-11.1058
.11.24	-11.1059
▁இயங்குகின்ற	-11.1065
▁விதிக்கப்பட	-11.1079
▁கணக்கிடலி	-11.1103
▁அறிவூட்ட	-11.1108
▁மைல	-11.1115
▁இயங்க	-11.1135
▁சான்றளிப்ப	-11.1144
▁கட்டாயப்படுத்த	-11.1158
பெயர்ப்பாளர்கள்	-11.1184
ண்டசாலை	-11.12
▁திருப்தியு	-11.1233
▁பெறுவத	-11.1247
▁படையின	-11.1253
ுமென	-11.1253
▁செயற்திட்டத்தின	-11.1276
▁திறப்பதற்க	-11.1283
▁இடம்பெறுகின்ற	-11.1289
▁கைதுற	-11.1298
நிலையினர்	-11.1342
▁நிற்க	-11.1343
▁வாரமு	-11.1344
▁இடப்பரப்ப	-11.1353
▁ஆதிக்கமுடை	-11.1355
▁கூடியதாக	-11.1356
118	-11.1363
▁வைத்தியர்களுக்க	-11.1364
ுட்டெண்	-11.1372
கோணம	-11.1413
▁வசதியுடன	-11.1419
▁திட்டமொன்ற	-11.1443
▁நஷ்ட	-11.1468
ஒழுங்குபடுத்த	-11.1478
▁விடுபாட	-11.1487
▁இரக்கம	-11.1516
▁துயர	-11.1534
க்குடும்பம	-11.1545
▁பற்றுக்கள	-11.1548
▁அங்கீகரித்த	-11.1555
டொர	-11.1561
ூரர	-11.1593
▁பக்கவாட	-11.1596
ப்படுவதனை	-11.1596
▁பாரபட்சம	-11.1632
▁தீர்ப்பளி	-11.1669
புழக்க	-11.1677
ுவதாக	-11.1716
கிளை	-11.1793
வெள்ள	-11.1855
▁பிரயோகிக்க	-11.1868
நிறுத்த	-11.1883
▁துடர	-11.1904
▁கட்டமைப்பிலா	-11.1931
இவற்ற	-11.1938
மாற்றுகை	-11.1945
▁இணக்கப்பாட்ட	-11.1975
வெற்றியாளர்கள	-11.1997
குறைபாடுள்ள	-11.2004
பீதி	-11.202
▁நல்லிணக்கத்தி	-11.2087
▁வடிவில	-11.2138
▁மிஞ்ச	-11.2155
மாலை	-11.2157
▁இசையம	-11.2272
▁தேசத்தின	-11.2278
▁பதவியணியினர	-11.229
▁இலட்சியவாத	-11.233
▁தளபாடங்கள	-11.2339
▁செல்வதற்க	-11.235
ாக்கி	-11.2372
▁நிரல்படுத்த	-11.2396
நிராகரிக்கப்பட்ட	-11.2525
▁நிர்வாகத்தில	-11.2527
▁கட்டளையிடு	-11.2528
▁பதவியணியினருக்க	-11.2546
▁பின்னூட்ட	-11.2577
தக்கதும்	-11.2612
▁தெரிவிக்கப்படா	-11.2641
▁ஊக்குவி	-11.2641
▁நிச்சயப்படுத்த	-11.2692
▁படுத்துவதற்கா	-11.2695
▁பூகோளமயமாக்க	-11.2766
▁காலப்பகுதியின	-11.2803
▁நிர்ணயிக்க	-11.2847
▁ஆய்வுகூடங்கள	-11.2859
ிஞ்சிய	-11.2862
▁ஒழுங்கமைக்கப்	-11.2909
▁சேர	-11.2938
திணைக்களத்தின	-11.2958
255	-11.2977
இலங்கையில	-11.2994
▁களஞ்சியப்படுத்த	-11.2999
பணியாற்றிய	-11.3021
தங்கிய	-11.3038
▁வீட்டிற்க	-11.305
2002	-11.3104
ிணைந்த	-11.3115
சரண	-11.3146
▁பெருமையு	-11.3168
▁அவதான	-11.3177
▁ஒழுங்கமைக்கப்பட	-11.319
▁கணினிமய	-11.3191
▁விநியோகிக்கப்	-11.3223
ூக்கம	-11.3235
▁என்பத	-11.3356
மாற்றங்கள	-11.3408
லியு	-11.3424
▁எதிரொ	-11.3426
▁சேவைப்பிரிவ	-11.3428
பிரசுரம்	-11.347
நவீனத்துவ	-11.3476
▁முதலீட்ட	-11.3508
▁சத்தியப்பிரமா	-11.3513
பக்கவாட்ட	-11.3522
▁குழுக்களில	-11.3547
▁டெ	-11.3612
கணிப்பிட	-11.3655
நஷ்டம்	-11.366
▁குடியிரு	-11.3695
வல்லுனர்	-11.3719
ுழக்க	-11.3739
ிலக்க	-11.3763
▁வித்தியால	-11.3793
▁நிர்மாணித்த	-11.3797
▁கொடுக்கப்பட	-11.3826
ிருத	-11.3855
த்திட்டமும்	-11.3937
பயிலுநர	-11.3997
ற்கென	-11.4028
▁கற்பித்த	-11.4104
▁அமுலாக்குவத	-11.4149
சாராததும	-11.4187
▁2011.11.2	-11.4191
▁இனங்களுக்க	-11.4194
▁வலுக்கட்ட	-11.422
நடனம்	-11.4222
ருவிய	-11.4244
▁நேரத்தில	-11.4301
கூறும்	-11.4502
வர்தன	-11.4513
திறமான	-11.4637
▁மைதான	-11.4645
நிச்சயம	-11.4653
▁வளர்ப்பத	-11.4653
▁நல்லெண்ண	-11.4661
▁சிபார்ச	-11.4698
வர்த்தகம்	-11.4704
ஹெர	-11.4717
னோட	-11.4725
தனடிப்படையில்	-11.4731
சுஜாத	-11.4733
ிக்கொள்ள	-11.4742
பொருளுக்கு	-11.4751
மீளாய்வாண்டிற்கா	-11.4779
▁அம்சம	-11.4786
▁குழுக்களின	-11.4799
▁குழுவுணர்	-11.4816
வழக்கு	-11.4821
▁அடைவத	-11.4822
ரேட்	-11.4825
யளவான	-11.4827
▁விழிப்புணர்வ	-11.4838
▁வயதில	-11.486
▁பகுதியளவ	-11.4867
▁கொடுங்கோ	-11.4882
▁கையெழுத்த	-11.4883
ிணைவு	-11.4883
யிர்ப்பு	-11.4903
கோபுரம்	-11.4916
ாதிபதி	-11.4921
எதிர்பார்க்கின்ற	-11.4926
வியாள	-11.4938
ொவ்வா	-11.4942
கஞ்சா	-11.4954
நாடா	-11.4974
வுக்கருவி	-11.5005
ோம்பல்	-11.501
கீழ்	-11.5029
லாச	-11.504
நோய்	-11.5042
செவ்வன்	-11.5048
▁கிழமைப்	-11.5052
▁அச்சுறுத்தல	-11.5056
ோக்கிய	-11.5064
புரியும	-11.5075
பதிவேடு	-11.5075
▁வெளிப்படு	-11.5078
ுண்டியல்	-11.5084
▁அதிகரிப்பதற்க	-11.5089
சான்றளிக்க	-11.5099
மர்த்து	-11.5099
▁பங்களிப்ப	-11.5103
▁அநுராதபுர	-11.5115
▁பின்வரு	-11.5123
க்கூடம்	-11.5124
▁நலன்பெறுவோர	-11.5129
திகதி	-11.5136
▁பொருளியல	-11.5136
▁தூண்டல	-11.5136
▁பெயர்ப்பட்டியல	-11.5137
▁குடியிருப்பாளர	-11.5137
செயல்	-11.5141
▁வேண்டுகோள	-11.5141
▁ஒப்புதல	-11.5142
▁உரையாடல	-11.5143
▁உறுப்பினர	-11.5145
▁பணியாளர	-11.5145
▁நேயர	-11.5145
▁பிரகாரம	-11.5145
▁ஆணையாளர	-11.5146
▁நிரல	-11.5147
“	-11.5148
தொகுதி	-11.5149
▁புனர	-11.5158
▁இவ்வமைச்ச	-11.5163
▁பாதீட	-11.5179
▁தீர்வ	-11.5188
▁விற்பன	-11.5194
▁குழுக்களிடை	-11.5198
ாற்றிய	-11.5203
குறைவு	-11.5207
பயங்கரவாத	-11.5208
மெய்யியல்	-11.5208
நீடிப்பு	-11.5208
பெறுபேறு	-11.5209
பிரசித்தி	-11.521
ோபாயம்	-11.5211
அவ்வாற	-11.5212
ஸ்திர	-11.5212
எழுத்துமூல	-11.5213
இனத்துவ	-11.5213
வெட்டு	-11.5214
கருத்தரங்குகள்	-11.5214
விமானப்படை	-11.5214
தேர்வு	-11.5214
செலுத்திய	-11.5215
ாளரிடமிருந்த	-11.5215
தொழில்நுட்ப	-11.5215
இவ்வாண்ட	-11.5216
கவர்ச்சி	-11.5216
பொழுதுபோக்கு	-11.5217
கொண்டுவரப்பட்ட	-11.5217
பெறுநர்	-11.5217
கம்பஹா	-11.5217
நிர்ணய	-11.5218
பொதுமக்கள்	-11.5218
முரண்	-11.5218
கற்பனை	-11.5218
திருகோணமலை	-11.5218
வாடிக்கையாளர்கள	-11.5218
நுவரெலியா	-11.5219
செயற்றிட்டங்கள	-11.5219
ஒதுக்கீட்டு	-11.5219
விநியோகம்	-11.5219
அகலவத்தை	-11.5219
தற்போது	-11.5219
நாளாந்த	-11.5219
நவம்பர்	-11.5219
விம்பம்	-11.5219
கிளிநொச்சி	-11.5219
பொறிமுறை	-11.5219
மாதாந்த	-11.5219
வீடமைப்பு	-11.5219
ஊனமுற்ற	-11.5219
ஒவ்வொரு	-11.5219
கணனி	-11.5219
உள்நாட்டு	-11.522
ஒலிபரப்பு	-11.522
மட்டக்களப்பு	-11.522
ஒழுக்க	-11.522
உபகரணங்கள்	-11.522
வடக்கு	-11.522
முகப்படுத்தல்	-11.522
களுத்துறை	-11.522
அனுமதி	-11.522
ஒப்பந்த	-11.522
வாடகை	-11.522
சனசமூக	-11.522
உள்ளக	-11.522
செயற்பாட்டு	-11.522
அனைத்து	-11.522
றணவிரு	-11.522
கொடுப்பனவுகள்	-11.522
தொலைக்காட்சி	-11.522
ஓய்வு	-11.522
வண்டி	-11.522
அபிவிருத்தி	-11.522
திரைப்பட	-11.522
2013	-11.5221
ஒளிபரப்பு	-11.5221
தொடர்பாடல்	-11.5221
பதிப்பு	-11.5221
கடிதம்	-11.5222
▁துண்டிப்ப	-11.5222
▁கடப்பாட்ட	-11.5222
▁வரவேற்ப	-11.5222
பதிலி	-11.5225
பண்பாட்டு	-11.5225
▁நுண்ணறிவ	-11.5226
லொத்தர	-11.5226
மார்க்க	-11.5226
▁பின்னடைவ	-11.5227
தண்டனை	-11.5228
▁மட்டக்களப்ப	-11.5232
▁ஒப்பளிப்ப	-11.5238
▁செயல்திறன	-11.5238
அவற்று	-11.5238
ர்மானித்த	-11.5242
யோசனை	-11.5247
▁முழுவத	-11.5251
▁வாசிப்ப	-11.5254
பொழுது	-11.5255
▁சுறுசுறுப்ப	-11.5255
ிணக்கம்	-11.526
திகாரச்	-11.5261
▁உயிரூட்ட	-11.5264
சோல	-11.5266
குள்ளா	-11.5267
▁தேர்த	-11.5268
▁உண்டிய	-11.5271
▁மாவத்த	-11.5275
▁ஒத்துழை	-11.5283
கோலே	-11.5288
▁சன்ச	-11.5291
▁பிரபல	-11.5291
▁யோக	-11.5293
▁பிற்சேர்	-11.5294
▁பொருண்	-11.5294
▁கேட்போ	-11.5294
.01.01	-11.5296
கமானோருக்க	-11.5296
ளவீடு	-11.5297
கராதி	-11.5297
லுவலர்	-11.5298
ுலனுக்குரிய	-11.5299
▁சம்மந்த	-11.53
▁நடவடிக்	-11.5301
▁வியாப	-11.5302
▁ஒழுங்	-11.5303
▁சிற்றுண்டி	-11.5303
ராஜினாமா	-11.5304
ாழ்த்து	-11.5304
▁சர்ச்சை	-11.5305
அனுராதபுர	-11.5307
▁தொல்பொருள	-11.5307
▁மகவேற்	-11.5307
▁பிடியாணை	-11.5308
▁வகிக்க	-11.5308
▁குளியாப	-11.5308
ஆயுபோவ	-11.5308
ஆயூபோவ	-11.5308
ாபகரமான	-11.5308
▁பயன்படுத்தியிர	-11.5309
▁வரிமதிப்பிட	-11.5309
▁விலகிச்	-11.5309
ிப்போன	-11.5309
▁அவ்விண்ணப்ப	-11.5309
▁பருப்பொருளா	-11.5309
▁ராணுவ	-11.5309
▁றணவிருகிராம	-11.5309
▁விக்கிரம	-11.5309
2014.01.	-11.5309
குறுங்கதாபாத்திர	-11.5309
குளியலறை	-11.5309
துரியச்செயல்புரி	-11.5309
ிற்கெதிர	-11.5309
▁அளப்பரிய	-11.5309
▁ஒளிவுமறைவ	-11.5309
▁சட்டமதியுரை	-11.5309
▁சரீர	-11.5309
▁சுடுகாட	-11.5309
▁சேனாநாயக்கா	-11.5309
▁திகழ்	-11.5309
▁திசைமுகப்பாட	-11.5309
▁நாட்டுப்புற	-11.5309
▁பயிர்செய்	-11.5309
▁மாண்பு	-11.5309
▁முகவாசக	-11.5309
▁முரசறை	-11.5309
▁லுணுக	-11.5309
,934	-11.5309
.08.18	-11.5309
.10.01	-11.5309
31.05.201	-11.5309
33,5	-11.5309
8880	-11.5309
9427	-11.5309
அதனைத்தொடர்ந்து	-11.5309
அலுமினியம்	-11.5309
உள்ளீர்க்கப்பட்ட	-11.5309
எவ்வாறாயினும்	-11.5309
கஜபஹ	-11.5309
கருணாரத்	-11.5309
காணிப்பயன்பாட்டு	-11.5309
குருணாகலை	-11.5309
கொண்டிருக்கின்ற	-11.5309
க்குமாறான	-11.5309
ங்குரன்கெத்த	-11.5309
சட்டவலுவற்றத	-11.5309
சதுரங்கம்	-11.5309
சத்திரசிகிச்சை	-11.5309
சிவ்தெச	-11.5309
சீலிங்கை	-11.5309
ச்சம்பளம்	-11.5309
ட்டிசுட்டான்	-11.5309
ண்டுகோளுக்கிணங்க	-11.5309
தக்ஷின	-11.5309
தீர்மானமெடுத்தல்	-11.5309
த்தரணியுதவியற்ற	-11.5309
த்தீர்த	-11.5309
த்தீர்மானத்த	-11.5309
நிறைவேற்றக்	-11.5309
ன்பிந்துன	-11.5309
மரத்தினாலான	-11.5309
ரங்கபூமி	-11.5309
ற்செலவுக்கொவ்வாத	-11.5309
வேதிகாவ	-11.5309
வ்வாறிருப்பினும்	-11.5309
ஹரஸ்கட	-11.5309
ுறுப்பினர்	-11.5309
ெப்பிட்டிகொல்லாவ	-11.5309
▁"9411-23001	-11.5309
▁(2012	-11.5309
▁2014/34	-11.5309
▁அகத்தூய்மைப்பேற	-11.5309
▁அகவரியிடத்தகு	-11.5309
▁அக்கரைப்பற்று	-11.5309
▁அசேதன	-11.5309
▁அட்டவனை	-11.5309
▁அண்மிய	-11.5309
▁அநுகூல	-11.5309
▁அனேகமா	-11.5309
▁அப்போதைக்க	-11.5309
▁அமைத்துருவாக்க	-11.5309
▁அறங்காவலர்	-11.5309
▁அவகாசம்	-11.5309
▁ஆச்சிரமத்தில	-11.5309
▁ஆட்சுட்டா	-11.5309
▁ஆனைமடு	-11.5309
▁ஆய்தொகு	-11.5309
▁ஆய்ந்தறி	-11.5309
▁ஆற்றுதிறன்கள்	-11.5309
▁இசைவிணக்கம	-11.5309
▁இருமடித்தாள்	-11.5309
▁இலட்சினை	-11.5309
▁இலதாக்கத்தகு	-11.5309
▁இழியேதுவால்	-11.5309
▁ஈரடுக்கு	-11.5309
▁உசிதமான	-11.5309
▁உடனுதவும்	-11.5309
▁உண்ணாட்டு	-11.5309
▁உன்மத்த	-11.5309
▁உயர்தொழில்	-11.5309
▁உருச்சிதை	-11.5309
▁உருவங்கொடுத்தல	-11.5309
▁உருவப்படமெழுது	-11.5309
▁உறிஞ்சும்தன்மை	-11.5309
▁உளச்சோர்வ	-11.5309
▁உவர்மலை	-11.5309
▁ஊடாட்டம	-11.5309
▁எதேச்சையான	-11.5309
▁ஏண்முறை	-11.5309
▁ஏழ்மை	-11.5309
▁ஒப்புக்கோட	-11.5309
▁ஒலியெடுப்பு	-11.5309
▁ஓய்வுபெறுகின்ற	-11.5309
▁கச்சதீவு	-11.5309
▁கடமையாற்றும்	-11.5309
▁கடற்கொள்ளை	-11.5309
▁கடுகளவு	-11.5309
▁கடைப்பிடிக்க	-11.5309
▁கட்டாக்காளி	-11.5309
▁கட்டுகஸ்தோட்டை	-11.5309
▁கதாநாயக	-11.5309
▁கன்னிமையழித்த	-11.5309
▁கப்பற்சரக்கு	-11.5309
▁கற்பனாலங்கார	-11.5309
▁கற்புநிலைகுலை	-11.5309
▁கலேவத்தை	-11.5309
▁கவேஷி	-11.5309
▁காகிதாதிகளும்	-11.5309
▁காசாக்கப்படாத	-11.5309
▁காட்சிக்கூடங்கள	-11.5309
▁காலங்கடத்தும்	-11.5309
▁காலதாமதம்	-11.5309
▁காவற்றூதர்	-11.5309
▁கிடையிழுப்பு	-11.5309
▁கீதங்கள்	-11.5309
▁கீழைத்தேய	-11.5309
▁குழம்பிய	-11.5309
▁குழாய்கள	-11.5309
▁கூடடுத்தாப	-11.5309
▁கூடிவாழ்	-11.5309
▁கூர்மதி	-11.5309
▁கெப்பித்திகொ	-11.5309
▁கேட்டுத்தீர்	-11.5309
▁கைதொழில்	-11.5309
▁கைமாறத்தக	-11.5309
▁கொக்காவில்	-11.5309
▁கொடுகடன்	-11.5309
▁கோயிற்பற்று	-11.5309
▁கோவிலுடைமைகள்	-11.5309
▁சமவழுவற்ற	-11.5309
▁சம்மாந்துறை	-11.5309
▁சர்ஜன்ட்	-11.5309
▁சிறாப்பர்	-11.5309
▁சுற்றுச்சூழல	-11.5309
▁சொற்றொகுதி	-11.5309
▁டிப்ளோமாதாரிகள்	-11.5309
▁தக்சலாவ	-11.5309
▁தங்கிவாழுநர்	-11.5309
▁தங்கிவாழ்வோர்	-11.5309
▁தப்பித்துக்கொள்	-11.5309
▁தம்புத்தேகமை	-11.5309
▁தழுவு	-11.5309
▁தாதியர்களுக்கா	-11.5309
▁திம்புலாகல	-11.5309
▁தீர்வுகாண	-11.5309
▁துணுக்காய்	-11.5309
▁தெகியத்தகண்டி	-11.5309
▁தெநுவரை	-11.5309
▁தெனியாய	-11.5309
▁தெல்தெனியா	-11.5309
▁தெஹியத்தகண்டிய	-11.5309
▁தேசத்துரோக	-11.5309
▁தேடிப்பார்த்தல்	-11.5309
▁தொலைபயணி	-11.5309
▁நகர்ப்புற	-11.5309
▁நடைபாதை	-11.5309
▁நண்ப	-11.5309
▁நனவிலி	-11.5309
▁நாகரீகம	-11.5309
▁நிக்கவெரட்டிய	-11.5309
▁நிதியாண்டிற்க	-11.5309
▁நியமிக்கப்படுவ	-11.5309
▁நிறைவல்லாண்மை	-11.5309
▁நுண்ணுயிரி	-11.5309
▁நெடுங்கோடு	-11.5309
▁நெடுங்கோட்டு	-11.5309
▁நைசாய்	-11.5309
▁நோய்த்தடுப்ப	-11.5309
▁பங்கதெனியா	-11.5309
▁பணியிடம்சாரா	-11.5309
▁பத்தரமுல்லை	-11.5309
▁பயநுகரி	-11.5309
▁பரம்பரையலகு	-11.5309
▁பழங்குடி	-11.5309
▁பழிசாற்ற	-11.5309
▁பழுதடைந்த	-11.5309
▁பழுதுபார்த்தல்	-11.5309
▁பாண்டித்தியம	-11.5309
▁பாய்ந்தோடுவத	-11.5309
▁பாரமிதா	-11.5309
▁பிரசாவுரிமை	-11.5309
▁பிரமுகர்	-11.5309
▁பிரார்த்தனை	-11.5309
▁பிரிதிநிதித்துவ	-11.5309
▁பில்லியன	-11.5309
▁பீரங்கிப்படை	-11.5309
▁புரோகிதர்	-11.5309
▁புலப்பாத்து	-11.5309
▁புளத்சிங்கள	-11.5309
▁பெங்கொக்	-11.5309
▁பெருநகர்	-11.5309
▁போலிப்பொய்	-11.5309
▁மகரந்த	-11.5309
▁மட்டுமே	-11.5309
▁மனத்தூண்ட	-11.5309
▁மனநிறைவ	-11.5309
▁மனப்புண்ணுறு	-11.5309
▁மனிதாபிமான	-11.5309
▁மன்றாடியார்	-11.5309
▁மரபுமாற்றப்பட்ட	-11.5309
▁மறியற்சாலை	-11.5309
▁மாபெரும்	-11.5309
▁மிகப்பெரிய	-11.5309
▁மினுவாங்கொடை	-11.5309
▁மீத்தெளிவு	-11.5309
▁மீயுயர்	-11.5309
▁மீளமாற்றியளி	-11.5309
▁மீளுற்பத்தி	-11.5309
▁முதுகெலும்பு	-11.5309
▁முன்னேற்பாடு	-11.5309
▁முற்தேதியிட	-11.5309
▁மூதூர்	-11.5309
▁மூழ்க	-11.5309
▁மெருகூட்ட	-11.5309
▁யுனெஸ்கோ	-11.5309
▁யூரர்சபையை	-11.5309
▁ரியல்ஸ்டார்	-11.5309
▁லுணம	-11.5309
▁லௌகீக	-11.5309
▁வங்குரோத்தானவர	-11.5309
▁வஞ்சப்புகழ்ச்சி	-11.5309
▁வடமராட்சி	-11.5309
▁வயோதிபர்	-11.5309
▁வற்புறுத்த	-11.5309
▁வலஸ்முல்ல	-11.5309
▁வழிநடத்தப்பட்ட	-11.5309
▁விசர்நாய்	-11.5309
▁விதப்புரை	-11.5309
▁விநோதம	-11.5309
▁வினைத்திறமைய	-11.5309
▁விளையாட்டரங்க	-11.5309
▁விழித்திரை	-11.5309
▁விழுமியம்	-11.5309
▁வீக்கங்கள்	-11.5309
▁வெலிமடை	-11.5309
▁வெளிக்காட்டப்பட	-11.5309
▁வேட்பாளர்	-11.5309
▁ஷீல்ட்	-11.5309
▁ஸ்தாயி	-11.5309
▁ஹங்குராங்கெத்த	-11.5309
▁ஹாலிஎல	-11.5309
▁ஹிங்குரா	-11.5309
போத்தலே	-11.5309
ுஷ்டி	-11.5309
▁1956	-11.5309
▁அங்குரார்ப்பண	-11.5309
▁அனாமதேய	-11.5309
▁உயர்நீதிமன்ற	-11.5309
▁கண்டறிந்தவைகள	-11.5309
▁கரப்பந்தாட்ட	-11.5309
▁கலப்பின	-11.5309
▁குறுங்கோண	-11.5309
▁குற்றவிடுவிப்பு	-11.5309
▁கூட்டிக்கொடு	-11.5309
▁சமதர்ம	-11.5309
▁சுவீகார	-11.5309
▁செயன்முன்னேற்ற	-11.5309
▁ஜயவர்த்தனபுர	-11.5309
▁ஞானஸ்தான	-11.5309
▁தலைநகர	-11.5309
▁துறவற	-11.5309
▁தோராய	-11.5309
▁நட்புறவு	-11.5309
▁நன்னோக்க	-11.5309
▁நுழைமாட	-11.5309
▁பணவீக்க	-11.5309
▁பரிவேட	-11.5309
▁பாதுகாத்தலும்	-11.5309
▁மனோவசிய	-11.5309
▁மாயாஜால	-11.5309
▁முகரவரக	-11.5309
▁யாப்பிற்கு	-11.5309
▁வசீகர	-11.5309
கிருஷ்ண	-11.5309
சனிதா	-11.5309
பிரகடனப்படுத்த	-11.5309
வரைவுடன்பாடில்லா	-11.5309
▁2011.07.1	-11.5309
▁அதியுணர்திறன	-11.5309
▁அறியொணா	-11.5309
▁அழகான	-11.5309
▁இட்டுச்செல்	-11.5309
▁இனம்காண	-11.5309
▁இறுவட்டுக்கள	-11.5309
▁உலகமயமாக்குதல்	-11.5309
▁எண்கணித	-11.5309
▁எதிரெதிர்	-11.5309
▁எதிர்வுகூறல்	-11.5309
▁ஒத்திணங்க	-11.5309
▁ஒழுங்கின்மை	-11.5309
▁கடூழிய	-11.5309
▁களப்பயண	-11.5309
▁கவனயீனமான	-11.5309
▁காலக்கழிவ	-11.5309
▁கிடைக்குமாயின	-11.5309
▁குணாம்ச	-11.5309
▁குறுந்திரைப்பட	-11.5309
▁சம்பாதி	-11.5309
▁சரக்குமேடை	-11.5309
▁சீருடைத்துணி	-11.5309
▁செரிசர	-11.5309
▁தந்திரிமலை	-11.5309
▁தற்பெருமை	-11.5309
▁தொலைஅச்சு	-11.5309
▁தொழிநுட்ப	-11.5309
▁நட்டோத்தரவாத	-11.5309
▁நல்கிய	-11.5309
▁நிறைவேற்றதிகார	-11.5309
▁நிலவரைபட	-11.5309
▁நிலைக்குத்தான	-11.5309
▁நீர்த்தேக்க	-11.5309
▁பன்னிர	-11.5309
▁பயிற்றுவிக்க	-11.5309
▁பராயமடையாதவர்	-11.5309
▁பல்பதியுடை	-11.5309
▁பழிவாங்க	-11.5309
▁பிரித்தொதுக்கு	-11.5309
▁பிரிமனைப்பணம	-11.5309
▁புகுமுக	-11.5309
▁புகைவண்டி	-11.5309
▁மங்கோலிய	-11.5309
▁மதவாச்சி	-11.5309
▁மழுங்கிய	-11.5309
▁மாணாக்க	-11.5309
▁மீச்செல்	-11.5309
▁மீள்குடியேற்ற	-11.5309
▁முல்லைத்தீவில	-11.5309
▁யோத	-11.5309
▁வங்குரோத்து	-11.5309
▁வாய்ச்சொல்சாரா	-11.5309
▁விழிப்பாயிரு	-11.5309
▁விவேகானந்த	-11.5309
▁வௌிநாட்டு	-11.5309
.04.2014	-11.5309
2012.05.	-11.5309
திப்பார்ப்புக்கள	-11.5309
பழகுநர	-11.5309
பெயரும்	-11.5309
ம்பியன்ஷிப்	-11.5309
ரணவிறு	-11.5309
வோல்ட்	-11.5309
ிக்கொடுத்தல்	-11.5309
▁2011.10.1	-11.5309
▁9411-	-11.5309
▁அடங்கிவிடு	-11.5309
▁அருவருப்ப	-11.5309
▁இணைஅலைவரிசை	-11.5309
▁ஏறத்தா	-11.5309
▁கம்பொல	-11.5309
▁கோப்பாய்	-11.5309
▁சமர்பித்த	-11.5309
▁சிதறல்	-11.5309
▁துன்புருத்த	-11.5309
▁தூதுக்குழு	-11.5309
▁தெறிப்பு	-11.5309
▁பழிசுமத்த	-11.5309
▁மணவுறவு	-11.5309
▁மீளளிக்கப்பட	-11.5309
▁வங்கிமுறிவு	-11.5309
.08.22	-11.5309
ப்பட்டிராமையால	-11.5309
ாதுவிடின	-11.5309
▁அனுஷ்டி	-11.5309
▁அல்பா	-11.5309
▁ஒப்பாசார	-11.5309
▁கடலோடுதகு	-11.5309
▁கொரியாவில	-11.5309
▁சமுகமளி	-11.5309
▁நடுத்தீர்ப்ப	-11.5309
▁நீதிமுறைச்சேவை	-11.5309
▁பதில்கடமை	-11.5309
▁பாதசாரி	-11.5309
▁பெயரிடாப்பு	-11.5309
▁மூன்றடுக்கு	-11.5309
▁வரியிடத்தகு	-11.5309
▁விளக்கிக்காட்டு	-11.5309
▁அக்கட்டிட	-11.5309
▁தலைமுறையிடை	-11.5309
▁நடமாட்ட	-11.5309
▁நடுப்பகுதியில்	-11.5309
/08/0	-11.5309
க்கிழமை	-11.5309
▁அதிகளவான	-11.5309
▁ஆளுனர்கள	-11.5309
▁உன்னிப்பா	-11.5309
▁எதிர்மாறா	-11.5309
▁ஓப்பனை	-11.5309
▁குலபதி	-11.5309
▁குழவி	-11.5309
▁கூட்டொருமை	-11.5309
▁சித்திரவதை	-11.5309
▁சேதவீட்டு	-11.5309
▁தொழிற்றுறை	-11.5309
▁நம்பத்தகு	-11.5309
▁புராண	-11.5309
▁பெருங்குற்ற	-11.5309
▁போசிக்கப்பட்ட	-11.5309
▁மல்லாவி	-11.5309
▁முடியாதெனில்	-11.5309
▁வத்தேகமை	-11.5309
▁சினிமா	-11.5309
▁புறச்சமய	-11.5309
▁பொறுத்தமான	-11.5309
▁விசித்திர	-11.5309
▁வில்லங்க	-11.5309
▁அணிவித்தல்	-11.5309
▁அரட்டையடி	-11.5309
▁ஈரவை	-11.5309
ீ	-13.8695
ங	-13.8696
